<unk>	0
<s>	0
</s>	0
s	-3.45407
▁the	-3.73841
:	-3.89392
▁to	-4.03304
▁a	-4.17927
,	-4.27632
?	-4.2771
▁of	-4.35544
▁for	-4.485
'	-4.5013
-	-4.59763
.	-4.59818
▁in	-4.65703
▁and	-4.68309
▁on	-4.92865
▁	-4.93743
▁-	-5.00671
▁is	-5.01695
ing	-5.18685
▁(	-5.19532
)	-5.21635
▁how	-5.25794
▁you	-5.26365
▁with	-5.29319
▁ask	-5.30339
▁your	-5.30623
▁google	-5.34453
▁web	-5.48651
t	-5.50674
▁new	-5.62563
▁hn	-5.66497
▁what	-5.70691
▁it	-5.75645
▁from	-5.80822
▁why	-5.89138
’	-5.92347
▁do	-5.95412
d	-5.96431
▁"	-5.97672
▁an	-5.99121
▁startup	-6.00015
▁i	-6.00799
"	-6.03869
▁are	-6.04916
▁iphone	-6.06323
▁at	-6.08531
ed	-6.08924
▁be	-6.17093
▁yc	-6.22757
▁facebook	-6.2283
▁twitter	-6.23236
▁can	-6.29043
▁by	-6.29792
▁not	-6.30106
▁microsoft	-6.3101
/	-6.31395
▁that	-6.38217
▁free	-6.38778
▁about	-6.40246
▁|	-6.43044
com	-6.43472
▁social	-6.45846
▁my	-6.46724
▁online	-6.47517
▁open	-6.50248
▁app	-6.51419
▁business	-6.51499
▁apple	-6.54788
▁or	-6.56272
▁up	-6.5764
▁search	-6.58251
▁software	-6.58918
▁will	-6.61076
▁more	-6.62029
▁get	-6.64709
a	-6.66758
▁world	-6.68019
▁internet	-6.70292
m	-6.71136
▁'	-6.72306
▁video	-6.72641
▁out	-6.73072
e	-6.74616
▁we	-6.7525
er	-6.75732
▁best	-6.76054
▁have	-6.78117
▁3	-6.78792
y	-6.79449
ly	-6.79461
▁as	-6.79489
▁time	-6.80497
▁news	-6.8056
▁now	-6.80899
▁good	-6.82458
▁yahoo	-6.83232
▁all	-6.83342
▁data	-6.83719
▁make	-6.84008
▁design	-6.84297
▁this	-6.8576
▁&	-6.86834
▁use	-6.90124
▁one	-6.90221
...	-6.90456
]	-6.92153
▁using	-6.9273
▁should	-6.93842
▁code	-6.94688
▁[	-6.94849
i	-6.95068
▁blog	-6.95715
▁first	-6.96009
▁source	-6.96602
▁site	-6.98495
▁vs	-6.99279
▁2.0	-6.9968
▁programming	-6.99845
▁top	-7.00068
▁no	-7.00797
▁work	-7.00857
▁10	-7.03735
▁mobile	-7.03849
g	-7.04723
r	-7.05806
▁like	-7.0592
▁don	-7.0658
▁ruby	-7.07486
n	-7.08368
▁has	-7.08498
▁start	-7.08569
▁startups	-7.09004
▁when	-7.10406
re	-7.10667
▁windows	-7.11552
2	-7.11838
▁us	-7.11924
c	-7.12127
▁who	-7.13433
al	-7.13661
▁over	-7.14074
▁into	-7.14618
▁tech	-7.16108
o	-7.16794
▁than	-7.17086
▁real	-7.17597
▁does	-7.17882
▁people	-7.18003
▁way	-7.19478
▁c	-7.19618
!	-7.19826
▁apps	-7.20939
▁future	-7.21475
▁review	-7.219
▁python	-7.22814
▁million	-7.23065
▁network	-7.24677
▁so	-7.25793
▁life	-7.26017
▁money	-7.26322
▁if	-7.26647
▁5	-7.28182
▁service	-7.28303
▁e	-7.28575
▁company	-7.28604
3	-7.28862
▁users	-7.29013
▁next	-7.29887
▁amazon	-7.30239
▁rails	-7.30344
▁just	-7.30632
b	-7.30676
▁but	-7.30753
▁game	-7.31692
in	-7.32185
▁javascript	-7.325
▁launches	-7.32876
▁down	-7.33109
▁7	-7.35025
▁big	-7.36707
▁linux	-7.37441
▁live	-7.37488
▁most	-7.37556
▁better	-7.38045
▁computer	-7.38284
▁its	-7.38496
▁engine	-7.38548
p	-7.38629
k	-7.39272
▁help	-7.39345
▁could	-7.39616
▁media	-7.40125
▁development	-7.40611
▁day	-7.41592
▁market	-7.41732
▁know	-7.42064
▁need	-7.42217
▁great	-7.42449
▁interview	-7.43082
▁2	-7.43197
▁download	-7.43226
▁firefox	-7.43786
▁may	-7.44369
▁go	-7.44737
▁tips	-7.45134
▁music	-7.45322
▁project	-7.45411
▁hacker	-7.45995
▁cloud	-7.46161
▁1	-7.4727
▁language	-7.47325
▁2009	-7.47368
▁system	-7.48627
▁where	-7.49184
▁their	-7.49304
▁would	-7.5007
es	-7.50235
▁back	-7.50613
or	-7.5135
▁own	-7.52264
▁security	-7.5235
▁our	-7.52539
▁want	-7.55772
▁power	-7.55996
▁website	-7.56534
▁u	-7.56619
▁youtube	-7.56696
▁some	-7.5685
▁idea	-7.58572
▁2008	-7.60501
▁me	-7.60945
▁part	-7.61063
▁technology	-7.61359
▁marketing	-7.61566
on	-7.618
▁build	-7.62176
▁year	-7.62974
▁phone	-7.63397
▁vc	-7.63426
▁user	-7.63563
▁mac	-7.63661
▁off	-7.63763
▁any	-7.6403
▁book	-7.64332
▁job	-7.64532
▁ad	-7.6458
up	-7.64955
▁co	-7.65127
x	-7.65278
▁developer	-7.65423
▁un	-7.65463
▁find	-7.65855
▁really	-7.65977
▁things	-7.66111
▁developers	-7.67059
▁high	-7.67408
▁guide	-7.68035
▁look	-7.68219
▁gets	-7.69247
▁jobs	-7.69334
th	-7.69603
▁x	-7.69615
▁browser	-7.69691
▁science	-7.69711
▁sites	-7.70765
▁services	-7.70891
▁lisp	-7.71331
▁think	-7.71793
video	-7.71979
;	-7.72872
▁support	-7.72926
▁os	-7.73291
▁page	-7.73293
▁they	-7.73406
▁venture	-7.73451
▁s	-7.73469
▁take	-7.73514
▁there	-7.73824
▁application	-7.73969
▁home	-7.74006
▁y	-7.74065
▁tv	-7.7525
▁content	-7.75798
▁server	-7.767
▁after	-7.76924
▁building	-7.77013
▁companies	-7.77102
▁buy	-7.77485
▁list	-7.77899
▁entrepreneurs	-7.78177
▁getting	-7.7828
▁problem	-7.78577
▁brain	-7.78894
▁create	-7.80092
▁api	-7.80227
▁making	-7.80392
▁launch	-7.80688
ve	-7.81155
▁still	-7.81337
▁model	-7.81423
▁android	-7.8152
▁email	-7.8164
▁obama	-7.81715
l	-7.81941
▁deal	-7.82206
▁right	-7.82282
▁re	-7.82557
ers	-7.82866
▁b	-7.82932
▁php	-7.83532
▁says	-7.83666
▁years	-7.83687
▁bad	-7.83709
▁valley	-7.83882
▁platform	-7.84321
▁learn	-7.84321
▁released	-7.84634
▁games	-7.84836
▁applications	-7.85709
▁nokia	-7.85714
▁test	-7.86217
▁other	-7.8659
▁love	-7.86738
▁change	-7.86871
▁man	-7.87073
▁was	-7.87156
▁store	-7.8719
and	-7.87263
h	-7.87467
▁java	-7.87577
▁car	-7.87732
▁v	-7.8786
▁4	-7.87875
1	-7.88536
▁too	-7.88805
▁simple	-7.89795
able	-7.8983
▁computing	-7.89892
▁much	-7.90307
▁two	-7.90594
▁here	-7.90637
▁ways	-7.90789
▁ceo	-7.90938
the	-7.91222
▁beta	-7.91552
▁digg	-7.91852
▁steve	-7.92181
▁did	-7.92224
▁without	-7.92672
▁plan	-7.93071
▁product	-7.93547
▁makes	-7.93697
▁billion	-7.93945
yc	-7.94086
5	-7.944
▁“	-7.94452
▁tools	-7.94647
▁n	-7.94858
▁+	-7.95244
▁tool	-7.96062
▁ideas	-7.96897
▁school	-7.96903
▁virtual	-7.97512
▁watch	-7.97513
▁flash	-7.97675
▁silicon	-7.97861
▁ads	-7.97985
▁traffic	-7.98094
▁anyone	-7.981
”	-7.98912
▁history	-7.99257
▁chrome	-7.9926
▁digital	-7.99286
▁unlocked	-7.99853
▁6	-8.00262
▁china	-8.00663
▁small	-8.00781
▁ever	-8.00879
▁india	-8.01032
▁coming	-8.01162
▁8	-8.01259
▁tell	-8.01322
▁another	-8.01406
▁t	-8.01555
▁story	-8.01628
based	-8.01647
▁capital	-8.01838
▁management	-8.0187
▁pay	-8.01892
to	-8.02265
▁myspace	-8.02388
▁end	-8.02667
▁advertising	-8.03319
▁hackers	-8.03483
▁last	-8.03624
▁going	-8.03823
▁old	-8.04159
▁keep	-8.04399
▁come	-8.0476
▁credit	-8.05285
&	-8.05807
▁today	-8.05846
▁space	-8.06145
▁community	-8.06273
▁advice	-8.0704
▁study	-8.0704
▁looking	-8.0711
▁combinator	-8.07299
▁:	-8.07997
▁read	-8.08056
▁p	-8.08108
▁only	-8.08431
▁office	-8.08641
▁easy	-8.08839
8	-8.08907
▁bill	-8.08927
▁black	-8.09356
▁art	-8.09405
▁w	-8.09466
▁post	-8.09468
u	-8.09546
▁gmail	-8.09622
▁--	-8.09762
▁erlang	-8.09867
▁hard	-8.09904
it	-8.10203
▁talk	-8.10206
ic	-8.10871
▁please	-8.11981
▁css	-8.12311
▁f	-8.12414
▁long	-8.1242
w	-8.12438
▁performance	-8.12514
an	-8.12879
▁success	-8.12968
6	-8.13975
net	-8.14047
4	-8.14091
▁goes	-8.14215
▁movie	-8.14307
f	-8.14602
▁made	-8.14758
▁django	-8.14962
▁founder	-8.15042
▁research	-8.15056
▁episodes	-8.15452
▁share	-8.15577
▁networks	-8.15672
▁learning	-8.16546
▁industry	-8.16577
▁g	-8.16584
▁many	-8.16724
▁framework	-8.17171
▁desktop	-8.17429
▁lessons	-8.17434
▁being	-8.17888
en	-8.17892
▁show	-8.17917
▁name	-8.18023
▁case	-8.18138
▁fast	-8.18175
▁stop	-8.18331
▁dead	-8.18464
▁ie	-8.187
▁less	-8.193
▁information	-8.19407
▁text	-8.19494
▁working	-8.19542
▁economy	-8.19968
▁personal	-8.19996
▁under	-8.2
▁human	-8.20076
▁innovation	-8.20714
▁books	-8.20835
▁control	-8.20854
▁his	-8.20856
▁save	-8.21499
▁de	-8.21598
▁domain	-8.21625
▁wrong	-8.2189
▁see	-8.22228
▁testing	-8.22238
▁–	-8.22626
▁seo	-8.2263
▁hack	-8.22826
▁early	-8.23493
▁mysql	-8.23528
▁secret	-8.23705
▁times	-8.23788
▁jquery	-8.23793
▁which	-8.23798
us	-8.24047
▁health	-8.24261
▁version	-8.2469
▁20	-8.24992
▁techcrunch	-8.25008
▁public	-8.25151
▁cool	-8.25662
▁air	-8.25669
▁100	-8.25788
▁through	-8.26236
▁funding	-8.26274
▁file	-8.26634
▁pre	-8.26698
▁write	-8.26766
▁week	-8.26792
▁networking	-8.26843
▁sun	-8.27602
▁non	-8.27738
▁before	-8.27753
▁uk	-8.27859
▁d	-8.28036
▁recession	-8.2838
▁reasons	-8.28786
▁every	-8.28828
v	-8.29606
▁pc	-8.29631
▁team	-8.29778
▁entrepreneur	-8.29951
▁based	-8.30627
le	-8.30734
▁programmer	-8.30763
▁machine	-8.30773
▁programmers	-8.30799
▁hosting	-8.30848
▁program	-8.30917
▁techjaws	-8.31547
▁poll	-8.31981
▁image	-8.32096
ion	-8.32171
▁got	-8.32252
▁bring	-8.32287
▁sell	-8.32339
▁become	-8.3237
▁global	-8.32537
▁r	-8.32687
▁database	-8.33079
▁five	-8.33237
▁worth	-8.33262
▁paul	-8.33524
z	-8.34075
pdf	-8.34113
▁won	-8.34277
▁feedback	-8.34525
▁sales	-8.34568
▁/	-8.34606
▁never	-8.34838
▁law	-8.34991
▁america	-8.35059
▁add	-8.35532
▁experience	-8.35549
▁self	-8.35572
▁meet	-8.35918
▁behind	-8.36197
▁takes	-8.362
▁languages	-8.36225
▁ubuntu	-8.36236
▁college	-8.36516
me	-8.36737
▁state	-8.36981
▁demo	-8.37116
▁value	-8.37143
▁doesn	-8.37177
▁three	-8.37217
▁ten	-8.37406
▁reddit	-8.37595
▁report	-8.37621
▁patent	-8.37677
time	-8.37686
▁h	-8.37691
▁available	-8.37887
▁card	-8.37941
▁common	-8.3795
▁questions	-8.3849
▁storage	-8.38591
▁release	-8.38739
▁put	-8.38761
▁say	-8.38764
▁laptop	-8.38983
▁cheap	-8.39177
▁wikipedia	-8.3927
▁writing	-8.39293
▁wants	-8.39393
▁play	-8.39469
▁html	-8.39681
▁thoughts	-8.39837
▁inside	-8.4021
▁adobe	-8.40678
▁smart	-8.40959
▁house	-8.41166
▁against	-8.4143
▁turn	-8.4156
▁hot	-8.41579
▁again	-8.41776
▁m	-8.41827
▁features	-8.42031
▁give	-8.42195
▁group	-8.42296
man	-8.42498
▁=	-8.42689
▁systems	-8.4313
▁mozilla	-8.43185
▁intel	-8.43344
▁hacking	-8.43552
▁collection	-8.43571
▁ebay	-8.43937
▁sony	-8.43952
▁cost	-8.44155
▁full	-8.44591
▁revenue	-8.44911
▁net	-8.45479
▁o	-8.45558
▁used	-8.456
▁let	-8.4562
▁stock	-8.45722
▁financial	-8.45781
▁math	-8.46004
▁‘	-8.46129
▁between	-8.46131
▁theory	-8.46142
tv	-8.46203
▁age	-8.46372
▁develop	-8.46439
▁guy	-8.46461
▁vcs	-8.46462
▁q	-8.46573
▁needs	-8.46608
▁win	-8.46629
▁videos	-8.4669
▁run	-8.46899
▁pro	-8.46919
▁websites	-8.46959
▁bay	-8.47014
▁library	-8.47638
▁ajax	-8.47716
7	-8.47723
▁been	-8.47919
▁set	-8.47942
▁spam	-8.48074
▁useful	-8.48227
▁per	-8.48255
ation	-8.483
▁them	-8.48483
ch	-8.48512
▁enterprise	-8.48809
▁vista	-8.48813
▁running	-8.49188
▁thing	-8.49313
▁crisis	-8.49553
▁announce	-8.49671
▁anti	-8.49692
▁memory	-8.49984
▁touch	-8.50155
▁mind	-8.50189
ter	-8.50241
▁challenge	-8.50243
▁isn	-8.50324
▁view	-8.50797
▁price	-8.50821
▁government	-8.5112
▁street	-8.51171
▁faster	-8.51273
▁ipod	-8.51387
▁green	-8.51449
▁energy	-8.51531
▁students	-8.5161
▁robot	-8.51631
▁second	-8.51677
▁git	-8.51702
no	-8.51778
▁analysis	-8.5192
▁death	-8.51925
▁problems	-8.51984
▁feature	-8.52131
▁update	-8.52198
el	-8.52232
▁wall	-8.52393
▁fail	-8.5247
by	-8.52481
▁call	-8.52547
▁founders	-8.52611
▁quick	-8.52617
less	-8.52689
▁little	-8.52727
▁scientists	-8.53213
▁3.0	-8.53545
▁mark	-8.53878
▁k	-8.53976
▁super	-8.54111
▁away	-8.54378
▁interface	-8.54482
▁fun	-8.54608
▁earth	-8.54758
▁gates	-8.54775
▁war	-8.54863
▁american	-8.55094
▁access	-8.55135
▁coding	-8.55165
▁creating	-8.55539
ll	-8.55561
▁speed	-8.5571
▁rules	-8.55823
▁releases	-8.55906
▁growth	-8.55977
▁hiring	-8.56357
▁wordpress	-8.56358
▁pg	-8.56572
ie	-8.56632
▁customer	-8.56679
▁link	-8.56695
▁cash	-8.56794
▁comments	-8.56997
▁offers	-8.57002
▁auto	-8.57164
▁reality	-8.57275
▁york	-8.5728
▁via	-8.57389
▁short	-8.57581
▁engineering	-8.57886
▁interesting	-8.5823
▁care	-8.58348
▁kindle	-8.58479
▁screen	-8.58669
▁map	-8.58961
▁doing	-8.58962
▁results	-8.59189
▁economic	-8.59211
▁sale	-8.59257
▁wireless	-8.59301
▁mit	-8.59333
▁he	-8.59362
▁cell	-8.59756
▁san	-8.59776
▁strategy	-8.60154
like	-8.605
▁word	-8.60587
▁voice	-8.60644
▁water	-8.60676
▁key	-8.60695
▁kill	-8.61022
▁everything	-8.61035
▁generation	-8.61069
▁2007	-8.61074
▁links	-8.61359
▁official	-8.61381
▁photo	-8.61507
▁must	-8.61513
is	-8.62507
▁ibm	-8.63234
▁12	-8.63342
▁ui	-8.63428
▁attack	-8.6347
▁introduction	-8.63673
▁blogging	-8.64161
▁bug	-8.64189
▁plans	-8.64565
▁something	-8.64588
▁number	-8.64622
▁finally	-8.6465
▁perl	-8.64662
▁fund	-8.64663
▁red	-8.64695
▁9	-8.64862
▁education	-8.65028
▁solar	-8.65038
te	-8.65258
▁even	-8.65327
▁face	-8.65329
▁found	-8.6546
il	-8.65535
▁rss	-8.65615
▁palm	-8.66378
▁important	-8.66381
▁question	-8.6649
▁paper	-8.66587
▁acquire	-8.66734
▁privacy	-8.66845
▁resources	-8.66956
▁conference	-8.66996
▁25	-8.67054
▁l	-8.67094
founder	-8.6716
▁city	-8.67386
▁failure	-8.67471
+	-8.67689
▁improve	-8.67941
▁side	-8.68131
▁15	-8.68265
▁star	-8.68274
▁hit	-8.68278
▁check	-8.68464
▁perfect	-8.69166
▁scheme	-8.69233
▁raises	-8.69239
▁maps	-8.69286
co	-8.69416
un	-8.69693
▁creative	-8.70134
▁learned	-8.7015
j	-8.7022
▁yet	-8.70239
▁soon	-8.70307
mail	-8.70546
▁blogs	-8.70635
▁very	-8.7067
▁center	-8.70896
rs	-8.70995
▁itunes	-8.71079
_	-8.71289
free	-8.71304
▁style	-8.71353
(	-8.71718
▁young	-8.71909
▁month	-8.71933
▁shows	-8.7199
▁john	-8.72036
▁travel	-8.7226
▁files	-8.72382
ive	-8.72435
▁low	-8.72873
▁blackberry	-8.72989
▁friendfeed	-8.73
▁different	-8.73362
▁white	-8.73507
▁adds	-8.73701
est	-8.73826
▁rich	-8.7386
▁summer	-8.73989
▁chat	-8.74068
▁offer	-8.74126
▁finding	-8.74166
▁killer	-8.74214
▁customers	-8.74229
▁rate	-8.74284
▁50	-8.74385
▁sharing	-8.74618
▁days	-8.74666
▁account	-8.74807
▁place	-8.75428
▁products	-8.75444
▁local	-8.75488
fi	-8.75782
▁starting	-8.75918
▁bank	-8.75982
▁ec	-8.76002
▁hours	-8.76009
▁fix	-8.76149
▁line	-8.76475
▁copyright	-8.76495
▁try	-8.76574
▁selling	-8.76873
▁happy	-8.77001
▁micro	-8.77015
▁built	-8.77026
▁legal	-8.77406
▁photos	-8.77441
▁enough	-8.77487
▁private	-8.77522
▁evolution	-8.77626
▁feed	-8.77626
do	-8.77663
na	-8.77758
▁pirate	-8.77781
▁avoid	-8.78
▁rise	-8.78061
▁ready	-8.78265
▁semantic	-8.78573
▁11	-8.78773
▁numbers	-8.78976
▁follow	-8.7901
▁$1	-8.79148
org	-8.79312
ng	-8.79443
▁process	-8.79467
▁popular	-8.7954
▁visual	-8.79572
ies	-8.80077
▁samsung	-8.80078
▁alternative	-8.80141
▁around	-8.80343
▁might	-8.80495
▁30	-8.80545
▁food	-8.80673
▁j	-8.80691
▁michael	-8.81147
▁computers	-8.81208
▁connect	-8.81366
▁steps	-8.81462
▁women	-8.81679
▁reading	-8.81814
▁friends	-8.82072
▁latest	-8.82215
go	-8.82302
▁matter	-8.82373
ity	-8.82496
▁works	-8.82696
ist	-8.82703
▁favorite	-8.82738
▁analytics	-8.82739
▁boston	-8.82771
source	-8.83074
▁talks	-8.8319
▁biggest	-8.83292
++	-8.83298
▁quality	-8.83342
ups	-8.83431
▁client	-8.83486
▁contest	-8.83827
ce	-8.83883
▁lost	-8.83959
▁plugin	-8.84036
st	-8.84134
▁successful	-8.84272
▁competition	-8.84368
▁california	-8.844
▁men	-8.84813
▁step	-8.84977
▁die	-8.85356
▁pages	-8.85462
▁dev	-8.85646
at	-8.85659
▁area	-8.85697
▁images	-8.85752
▁well	-8.85766
▁trends	-8.85789
▁leopard	-8.86025
▁multi	-8.86039
la	-8.86064
▁tax	-8.86381
▁fire	-8.86513
▁four	-8.8655
."	-8.86595
▁skype	-8.86605
▁alpha	-8.86661
▁functional	-8.86666
▁yourself	-8.86674
ar	-8.86801
▁effect	-8.86842
▁cross	-8.87185
▁uses	-8.87327
▁kids	-8.87414
▁projects	-8.87419
for	-8.87452
▁vote	-8.87519
▁track	-8.87754
▁ultimate	-8.88279
▁fall	-8.88326
▁taking	-8.88337
▁macbook	-8.88348
mo	-8.88429
ne	-8.8859
▁.	-8.88734
▁large	-8.88767
▁everyone	-8.88893
▁class	-8.88897
▁launched	-8.88942
▁article	-8.89268
▁were	-8.89461
▁pr	-8.89654
▁angel	-8.89793
▁break	-8.89811
out	-8.89816
▁tutorial	-8.89817
▁letter	-8.89839
ment	-8.89912
▁worst	-8.90022
▁tracking	-8.9008
▁1.0	-8.90124
▁looks	-8.90407
▁beyond	-8.90585
▁clojure	-8.90604
▁haskell	-8.90608
▁introducing	-8.90611
▁record	-8.90622
▁done	-8.90674
my	-8.90696
▁point	-8.90795
▁drive	-8.90916
▁solution	-8.90999
▁move	-8.91038
▁board	-8.9139
▁cut	-8.91602
▁student	-8.91604
▁wave	-8.91669
▁corporate	-8.91758
▁distributed	-8.91784
ro	-8.92108
▁lead	-8.92161
▁...	-8.92235
▁presentation	-8.92252
▁http	-8.9238
▁six	-8.92499
▁designer	-8.92563
▁send	-8.92626
▁custom	-8.92816
▁phones	-8.9283
▁justin	-8.92845
▁netflix	-8.92945
▁stories	-8.92948
▁chinese	-8.92977
▁thinking	-8.93025
▁location	-8.93033
web	-8.93047
▁rest	-8.93205
▁hits	-8.93334
▁cards	-8.93449
▁approach	-8.93513
▁europe	-8.93515
▁debt	-8.93544
▁la	-8.93859
ness	-8.93995
▁major	-8.94146
▁reviews	-8.94328
▁motorola	-8.94752
▁color	-8.94966
entrepreneurship	-8.94995
ism	-8.95144
▁investment	-8.95351
▁court	-8.9536
▁survey	-8.95362
▁visualization	-8.95379
▁suck	-8.95405
▁url	-8.95436
▁secrets	-8.95572
▁months	-8.95611
tech	-8.95649
▁turns	-8.95727
▁researchers	-8.96014
▁ex	-8.96291
▁form	-8.96335
▁algorithm	-8.96345
▁logo	-8.96505
▁ericsson	-8.96592
▁z	-8.97091
▁bing	-8.97183
▁geek	-8.97186
▁insurance	-8.97225
im	-8.9737
▁investors	-8.9739
▁aol	-8.97532
▁box	-8.97714
▁hardware	-8.97855
▁while	-8.97869
▁brand	-8.98038
▁battle	-8.98488
▁camera	-8.98524
per	-8.98623
▁growing	-8.98862
▁light	-8.98864
▁allow	-8.98925
▁push	-8.99044
▁sex	-8.99063
▁type	-8.99065
▁modern	-8.99103
da	-8.99111
▁architecture	-8.99121
▁linkedin	-8.99124
▁had	-8.99253
▁far	-8.99314
google	-8.99429
▁calls	-8.99582
▁reader	-8.99591
▁beautiful	-8.99626
▁bubble	-8.99902
▁loss	-9.00021
▁click	-9.00058
▁hate	-9.0028
▁awesome	-9.00399
▁culture	-9.00405
▁risk	-9.00463
▁blue	-9.00666
▁indian	-9.00743
▁focus	-9.00872
▁snow	-9.01038
▁hire	-9.01047
▁tweet	-9.01049
▁someone	-9.0107
▁amazing	-9.01084
▁employees	-9.01123
▁drop	-9.01235
▁lets	-9.01251
▁profit	-9.01291
ian	-9.0135
ty	-9.01523
book	-9.0162
▁names	-9.01657
▁graham	-9.01673
▁shut	-9.01714
▁trying	-9.01742
▁electric	-9.01758
▁paid	-9.01795
▁openid	-9.01798
▁weekend	-9.02347
▁myth	-9.02415
▁meetup	-9.02473
▁password	-9.02533
ry	-9.02573
▁rule	-9.02638
▁gives	-9.02723
▁mail	-9.02789
year	-9.02944
▁im	-9.02974
▁series	-9.03018
▁friend	-9.03189
▁designing	-9.03315
▁event	-9.03393
▁fight	-9.03429
▁con	-9.0343
▁round	-9.03508
▁designers	-9.03519
#	-9.03583
▁mean	-9.0371
▁changes	-9.03868
▁interactive	-9.04315
▁productivity	-9.04317
▁economics	-9.04486
▁experiment	-9.04499
▁thought	-9.04606
▁tim	-9.04673
▁seth	-9.04713
50	-9.04857
▁script	-9.04889
▁algorithms	-9.04994
▁stuff	-9.05017
▁fake	-9.05042
▁bar	-9.05208
▁blogger	-9.05302
▁scale	-9.05304
▁solve	-9.05356
▁living	-9.05535
▁trust	-9.0555
mp	-9.05599
ma	-9.05737
be	-9.05748
▁notes	-9.05823
▁radio	-9.05835
▁slow	-9.05835
▁unveil	-9.06112
se	-9.06162
▁comment	-9.0617
▁intelligence	-9.06358
▁possible	-9.06382
▁debate	-9.06467
q	-9.06592
9	-9.06772
▁minutes	-9.0683
▁mistakes	-9.0694
▁craigslist	-9.07048
▁businesses	-9.07084
▁directory	-9.07116
▁display	-9.0738
▁editor	-9.07422
▁37	-9.07699
▁true	-9.07831
as	-9.0798
▁buying	-9.08381
▁dream	-9.08397
▁university	-9.08417
▁flickr	-9.08435
▁boost	-9.08562
▁servers	-9.08702
▁eye	-9.08894
▁wiki	-9.08977
▁few	-9.09017
▁richard	-9.09117
ex	-9.09125
▁prize	-9.09192
▁words	-9.09221
▁kind	-9.09229
▁understanding	-9.09407
▁fear	-9.09545
▁manager	-9.09646
▁agile	-9.09831
▁daily	-9.09851
▁pitch	-9.09903
▁started	-9.10088
▁—	-9.10096
▁magazine	-9.1025
ling	-9.10405
▁stupid	-9.10508
▁gaming	-9.10525
▁night	-9.1063
▁dell	-9.10695
sh	-9.1094
▁labs	-9.10954
▁object	-9.1111
▁scala	-9.11273
ary	-9.11469
▁secure	-9.11511
▁crash	-9.11662
▁nasa	-9.11963
▁stay	-9.12139
▁prices	-9.12579
with	-9.12619
signals	-9.12688
▁half	-9.12716
▁load	-9.13095
▁predict	-9.131
▁tour	-9.13136
▁lose	-9.13173
▁ted	-9.13209
▁deep	-9.13336
▁single	-9.13402
▁comparison	-9.1341
▁verizon	-9.1341
▁shopping	-9.13418
▁same	-9.13473
▁technical	-9.1352
ous	-9.13821
▁models	-9.13931
▁hacked	-9.13968
▁pdf	-9.14055
▁broadband	-9.14165
▁sucks	-9.14181
▁evil	-9.14183
▁oil	-9.1429
▁flu	-9.14344
ent	-9.14413
▁clone	-9.14527
▁sign	-9.14538
▁xp	-9.14741
▁robots	-9.14765
▁party	-9.14838
▁bailout	-9.14889
▁multiple	-9.14906
▁prototype	-9.14911
▁stanford	-9.14916
▁processing	-9.14941
▁geeks	-9.14968
▁sql	-9.14998
▁lg	-9.15177
▁aim	-9.15396
▁tricks	-9.15453
▁am	-9.15545
▁info	-9.15565
▁percent	-9.15629
▁those	-9.15634
|	-9.15669
▁dollar	-9.15685
▁19	-9.15767
one	-9.15958
▁course	-9.16098
▁near	-9.16328
▁commercial	-9.16385
▁president	-9.1639
how	-9.16402
▁actually	-9.16417
▁david	-9.1642
▁unix	-9.16426
▁hand	-9.16436
▁response	-9.16436
▁knowledge	-9.16469
▁aren	-9.16488
▁wi	-9.16707
id	-9.16752
▁tests	-9.17104
▁beat	-9.17111
▁magic	-9.1716
▁dynamic	-9.17172
▁usability	-9.17185
▁scaling	-9.172
▁head	-9.17494
part	-9.17513
▁details	-9.17596
▁ban	-9.17647
gb	-9.17838
▁player	-9.18234
▁bit	-9.18266
▁increase	-9.18392
old	-9.18558
▁effective	-9.18639
▁firm	-9.18655
▁viral	-9.18659
▁else	-9.18679
▁preview	-9.18701
▁engineers	-9.18737
▁gold	-9.1878
day	-9.18802
▁complete	-9.18814
▁silverlight	-9.19467
▁welcome	-9.1947
▁dating	-9.19476
▁pricing	-9.19481
▁buys	-9.19684
▁revolution	-9.19709
▁vi	-9.19784
▁manage	-9.1989
▁printing	-9.1991
▁bloggers	-9.19912
▁core	-9.19971
off	-9.2003
os	-9.20054
▁keyboard	-9.20259
▁acquisition	-9.20263
▁episode	-9.20269
▁emacs	-9.20286
▁press	-9.20656
,000	-9.20681
▁pictures	-9.20709
de	-9.20932
▁table	-9.21005
▁finance	-9.21019
versus	-9.2106
▁widget	-9.21139
▁rock	-9.21201
▁newspapers	-9.21217
▁hacks	-9.21244
▁finds	-9.21257
▁toward	-9.21611
▁japan	-9.21812
▁wolfram	-9.21812
▁join	-9.21819
▁edition	-9.21823
▁estate	-9.21831
▁road	-9.21866
▁safe	-9.21964
▁basic	-9.22156
▁costs	-9.22167
▁ii	-9.22247
▁mp	-9.2236
▁special	-9.22544
▁quantum	-9.22613
▁truth	-9.22622
▁entrepreneurial	-9.22635
▁porn	-9.22673
▁action	-9.22741
▁cars	-9.22744
age	-9.22944
ul	-9.23046
▁sf	-9.23099
▁wars	-9.23104
▁trouble	-9.23419
▁clean	-9.23441
▁sense	-9.23568
▁loans	-9.23578
bit	-9.23694
▁didn	-9.23757
▁hands	-9.24089
▁close	-9.24097
▁anything	-9.24233
▁gps	-9.24254
▁submit	-9.24272
▁environment	-9.24345
▁changing	-9.24349
▁lines	-9.24361
ri	-9.24371
▁answer	-9.24417
▁practices	-9.24601
▁audio	-9.24705
line	-9.24737
fm	-9.24815
▁giving	-9.25052
▁family	-9.25114
▁etc	-9.2514
▁grid	-9.2524
▁wins	-9.25241
▁professional	-9.25256
becoming	-9.25308
▁articles	-9.25372
▁streaming	-9.256
▁equity	-9.25894
▁broken	-9.25979
▁almost	-9.26032
20	-9.26064
▁weight	-9.26137
▁patterns	-9.2615
▁mini	-9.26155
▁career	-9.26312
et	-9.26387
▁machines	-9.26409
▁protect	-9.2647
▁consider	-9.26482
▁size	-9.26485
▁keynote	-9.26718
▁buzz	-9.26779
▁choose	-9.268
lo	-9.26949
▁workers	-9.27132
▁stream	-9.2728
▁francisco	-9.27551
▁cancer	-9.27554
▁zero	-9.27588
end	-9.27699
not	-9.2777
li	-9.28078
▁opera	-9.28101
10	-9.28213
▁universe	-9.284
▁medical	-9.28439
▁baby	-9.28473
▁consumer	-9.28727
▁netbook	-9.28737
ur	-9.29036
▁ms	-9.29151
▁address	-9.29195
ha	-9.29212
▁attacks	-9.29217
▁already	-9.29254
▁discount	-9.29256
▁left	-9.29257
▁dark	-9.29277
▁2010	-9.29279
▁install	-9.293
▁teach	-9.29324
ad	-9.29617
▁sms	-9.29954
▁lab	-9.29961
▁campaign	-9.30116
▁chris	-9.30117
▁scientific	-9.30163
▁usage	-9.30209
▁ipo	-9.30239
▁opens	-9.30296
▁seen	-9.3037
▁forget	-9.30445
▁creator	-9.30547
▁failed	-9.30606
▁film	-9.30668
▁24	-9.30847
▁always	-9.30985
▁potential	-9.30986
lan	-9.31129
▁seed	-9.31147
▁guys	-9.31199
▁@	-9.31241
▁sleep	-9.31352
▁skills	-9.31397
▁wanted	-9.31494
▁term	-9.31498
mobile	-9.31551
▁matters	-9.31686
▁level	-9.31753
▁adsense	-9.31874
▁during	-9.31934
▁diet	-9.323
of	-9.32472
▁hd	-9.32608
*	-9.32615
▁fat	-9.32707
▁ballmer	-9.32747
▁physics	-9.32747
▁european	-9.32792
ial	-9.32795
▁third	-9.32809
box	-9.32823
ful	-9.32859
▁bid	-9.33008
▁nyc	-9.33078
▁quit	-9.33086
▁grow	-9.33136
side	-9.33162
▁date	-9.33184
ton	-9.33281
nd	-9.33346
▁mass	-9.33404
tic	-9.33416
▁trade	-9.33452
▁final	-9.33508
▁ma	-9.33544
▁stats	-9.33554
▁port	-9.33583
▁arc	-9.33602
▁optimization	-9.33666
▁stack	-9.33676
▁drm	-9.33761
▁claims	-9.33967
▁once	-9.34007
ant	-9.34085
▁le	-9.34085
▁method	-9.34118
▁device	-9.34142
▁upgrade	-9.34164
▁message	-9.34181
▁programs	-9.34188
▁request	-9.34194
▁master	-9.34289
▁remote	-9.34444
▁tiny	-9.34462
▁race	-9.34491
▁easier	-9.34541
▁technologies	-9.34541
▁jeff	-9.34548
▁40	-9.34564
▁safari	-9.34564
▁chief	-9.34575
▁dna	-9.34589
▁rose	-9.34668
▁ai	-9.34947
em	-9.3503
▁copy	-9.35039
ia	-9.35392
▁graph	-9.35433
▁patents	-9.35438
▁international	-9.3545
▁cisco	-9.3545
▁importance	-9.35453
▁attention	-9.35467
▁discover	-9.35478
▁fraud	-9.3548
▁because	-9.35513
▁advanced	-9.35519
▁markets	-9.35608
sa	-9.35667
▁options	-9.36053
▁docs	-9.36133
▁13	-9.36195
▁js	-9.36201
▁person	-9.36369
▁infrastructure	-9.36378
▁defense	-9.36404
▁seeking	-9.36537
▁spend	-9.36738
▁ny	-9.36971
▁reason	-9.37187
▁unique	-9.37295
▁remember	-9.37311
▁parallel	-9.37323
ize	-9.37368
▁boss	-9.37387
con	-9.37387
ca	-9.37482
▁meeting	-9.37551
▁author	-9.37687
▁id	-9.37828
▁command	-9.37916
▁compete	-9.37976
▁updates	-9.38009
ra	-9.38093
▁14	-9.38095
ting	-9.38182
▁battery	-9.38228
▁tomorrow	-9.38228
▁sets	-9.38343
what	-9.38456
app	-9.38598
▁longer	-9.38632
▁di	-9.38687
▁these	-9.38718
▁ra	-9.38779
▁profile	-9.3881
▁means	-9.38854
▁investor	-9.39012
▁forum	-9.39031
▁print	-9.39057
um	-9.39063
▁$100	-9.39132
▁survive	-9.39172
▁moving	-9.39174
▁opportunity	-9.39182
▁apply	-9.39261
▁st	-9.39424
am	-9.39427
▁introduce	-9.39581
▁downloads	-9.39824
▁newspaper	-9.39926
▁issues	-9.39967
▁answers	-9.39968
▁current	-9.40009
reilly	-9.40124
▁canvas	-9.40127
▁child	-9.40173
▁dis	-9.40289
▁feel	-9.40316
▁killing	-9.404
▁solutions	-9.40421
▁17	-9.4055
▁switch	-9.40561
▁replace	-9.40906
▁$2	-9.40915
▁partner	-9.40949
▁launching	-9.40968
▁posts	-9.40974
▁random	-9.41073
▁harvard	-9.41085
▁tesla	-9.41086
▁policy	-9.41086
▁operating	-9.41098
ish	-9.41101
▁reverse	-9.4111
▁hulu	-9.41118
▁written	-9.4118
▁front	-9.4119
▁target	-9.41193
▁demand	-9.4126
▁planet	-9.41337
py	-9.41387
▁powerful	-9.41465
▁raise	-9.41615
ol	-9.41713
ga	-9.41799
▁discussion	-9.41861
▁conversation	-9.41864
▁competitor	-9.41885
▁document	-9.41932
▁natural	-9.42006
▁generator	-9.42056
▁mathematics	-9.42056
▁planning	-9.42066
▁seven	-9.4207
▁tries	-9.42092
▁raising	-9.42116
▁speech	-9.42119
▁later	-9.42135
▁judge	-9.42181
▁maker	-9.42291
▁block	-9.42432
io	-9.42579
▁heart	-9.42597
0	-9.42607
▁unit	-9.42695
▁#1	-9.42713
▁standard	-9.42736
▁18	-9.42863
▁employee	-9.42939
▁poor	-9.42962
▁statistics	-9.43037
▁github	-9.43042
▁gas	-9.43044
▁dr	-9.43046
▁fresh	-9.43071
▁children	-9.43071
ray	-9.43083
we	-9.43137
▁moon	-9.4314
▁gone	-9.43173
▁yes	-9.43238
▁sues	-9.433
▁chip	-9.43365
▁ho	-9.43387
▁enter	-9.43478
▁helps	-9.43486
▁podcast	-9.43517
▁mars	-9.43642
▁cs	-9.4367
▁path	-9.43787
▁dog	-9.43829
ta	-9.43856
▁coupon	-9.43904
▁others	-9.43913
▁choice	-9.43931
▁instant	-9.43959
▁hp	-9.43997
mi	-9.44012
▁exploit	-9.44027
▁sdk	-9.44028
▁apache	-9.44067
▁nothing	-9.44089
pa	-9.44148
▁sold	-9.44165
▁vision	-9.44204
▁accounts	-9.44212
▁cable	-9.44239
▁national	-9.4429
▁tough	-9.44933
▁decision	-9.44979
▁inc	-9.45025
▁ip	-9.45181
▁hour	-9.45198
▁god	-9.45213
▁signs	-9.45217
life	-9.45377
▁return	-9.45477
ac	-9.45703
▁difference	-9.45962
▁wedding	-9.46037
▁feeds	-9.46105
▁huge	-9.46106
▁room	-9.46117
▁general	-9.46123
▁edge	-9.46221
▁sub	-9.46331
▁movies	-9.46359
▁pass	-9.46374
▁cheat	-9.46498
▁force	-9.46909
▁plug	-9.46995
▁due	-9.47012
▁smartphone	-9.47023
▁north	-9.47056
▁arrington	-9.47057
▁hell	-9.47071
▁implementation	-9.47071
▁genetic	-9.47072
▁firms	-9.47076
▁concept	-9.47078
▁xobni	-9.47083
▁east	-9.47085
▁boom	-9.47095
▁past	-9.4713
▁sheet	-9.47202
if	-9.4739
▁convert	-9.47399
▁becomes	-9.47543
▁101	-9.47626
▁filter	-9.47662
▁sports	-9.47935
vid	-9.48009
▁essential	-9.48057
▁massive	-9.48148
▁london	-9.48189
▁happened	-9.48267
▁lesson	-9.48279
▁proof	-9.48425
▁camp	-9.48505
▁invest	-9.48523
▁catch	-9.48604
▁mo	-9.48704
▁$10	-9.48803
▁needed	-9.48815
▁tip	-9.48984
▁announcing	-9.4913
▁lawsuit	-9.49147
▁fair	-9.49148
▁recovery	-9.49161
▁managing	-9.49172
▁offline	-9.49192
▁button	-9.49233
▁girl	-9.49256
▁browsers	-9.49312
▁explained	-9.49319
▁status	-9.49428
▁21	-9.49875
▁engines	-9.5004
▁threat	-9.50113
▁creativity	-9.50183
▁horror	-9.50183
▁comcast	-9.50183
▁impact	-9.50202
▁incubator	-9.50209
▁having	-9.50219
▁nice	-9.5022
▁april	-9.50233
▁largest	-9.50234
▁example	-9.50281
▁tail	-9.50325
▁order	-9.50329
▁training	-9.50513
▁tutorials	-9.50559
▁believe	-9.50572
▁killed	-9.50734
ron	-9.50984
▁redesign	-9.51042
▁artificial	-9.51246
▁agency	-9.51247
▁identity	-9.51248
hidden	-9.51248
▁valuation	-9.51251
▁song	-9.51273
▁studio	-9.51274
▁virtualization	-9.51279
▁cyber	-9.51298
▁exchange	-9.51329
▁drug	-9.51355
ized	-9.51357
▁leave	-9.51358
▁xml	-9.51414
▁electronic	-9.5149
▁missing	-9.51713
▁reveals	-9.51787
ons	-9.51816
▁hat	-9.5184
▁acquired	-9.51879
▁host	-9.52179
all	-9.52306
▁since	-9.52327
▁downturn	-9.52334
▁outsourcing	-9.52338
▁60	-9.52382
▁warning	-9.52472
▁piracy	-9.52482
▁wired	-9.5254
▁former	-9.52627
▁land	-9.5264
new	-9.52908
▁humans	-9.53061
▁hold	-9.53227
▁pop	-9.53327
▁genius	-9.53403
▁nano	-9.53417
▁bbc	-9.53418
▁collapse	-9.53428
▁classic	-9.53457
po	-9.53497
▁lawyer	-9.53584
30	-9.53597
▁issue	-9.53604
use	-9.53812
ine	-9.53826
ci	-9.53912
▁lot	-9.54134
pl	-9.54236
ip	-9.54255
▁prevent	-9.54493
▁driving	-9.54508
▁trading	-9.54508
▁fcc	-9.54519
▁cities	-9.5454
▁itself	-9.54552
▁scribd	-9.54599
▁revealed	-9.54628
▁reduce	-9.54646
▁voting	-9.54671
▁standards	-9.54693
▁extension	-9.54722
▁16	-9.54797
▁flight	-9.5481
▁ebook	-9.54822
ating	-9.54843
▁index	-9.54895
▁al	-9.54901
▁quotes	-9.55178
pe	-9.55212
▁tag	-9.55293
▁serious	-9.55506
▁da	-9.55615
▁collaboration	-9.55619
▁computation	-9.55619
▁kernel	-9.5562
▁foundation	-9.55686
▁ga	-9.55709
▁funny	-9.55761
▁dvd	-9.558
▁fuel	-9.55852
▁original	-9.55865
▁partners	-9.55866
▁changed	-9.5589
▁auction	-9.55918
▁behavior	-9.55929
ization	-9.55963
ee	-9.56076
▁eyes	-9.56121
▁stage	-9.56124
▁investing	-9.56221
▁king	-9.56448
▁visit	-9.56509
land	-9.56714
▁zuckerberg	-9.56742
▁manifesto	-9.56745
▁merb	-9.56758
▁depression	-9.56763
▁progress	-9.56763
▁canada	-9.56772
▁explorer	-9.56781
▁peter	-9.56893
▁usa	-9.56977
▁sea	-9.57
▁graphics	-9.57
▁executive	-9.57044
▁communication	-9.57059
▁smarter	-9.57108
you	-9.57146
▁handle	-9.57158
gen	-9.57228
▁engineer	-9.57313
▁sort	-9.57614
live	-9.57809
▁strategies	-9.57879
▁niche	-9.5788
▁south	-9.57927
▁mapping	-9.57933
▁dollars	-9.58045
▁likely	-9.58132
▁contract	-9.58172
▁losing	-9.58174
▁rates	-9.58206
▁created	-9.58246
▁paying	-9.58248
why	-9.58321
▁experts	-9.58436
▁hole	-9.58446
▁deals	-9.58503
▁turning	-9.58514
▁playing	-9.58565
▁challenges	-9.58917
▁examples	-9.58951
bo	-9.58966
▁charge	-9.58979
▁eric	-9.59049
▁protocol	-9.59049
▁riaa	-9.59067
▁production	-9.59154
▁dear	-9.5919
▁body	-9.5922
▁places	-9.59231
▁techniques	-9.59265
▁cuts	-9.59347
ho	-9.59404
startup	-9.59414
▁sound	-9.59467
ir	-9.59565
▁tree	-9.59684
▁eu	-9.59703
pro	-9.5984
▁funded	-9.59894
▁drops	-9.59955
▁mu	-9.60016
▁girls	-9.60151
▁instead	-9.60191
▁vulnerability	-9.60191
▁climate	-9.60192
▁worm	-9.60192
▁decline	-9.60193
▁integration	-9.60197
▁calendar	-9.60212
▁together	-9.60221
▁shop	-9.60228
▁talking	-9.60356
▁maybe	-9.6038
▁photoshop	-9.60405
▁function	-9.60533
▁puzzle	-9.60618
ware	-9.60636
▁gui	-9.60675
▁joins	-9.61228
▁choos	-9.6125
▁silver	-9.61363
▁congress	-9.61367
▁kawasaki	-9.61367
▁kevin	-9.61388
▁compiler	-9.61393
▁james	-9.6141
▁overview	-9.61434
▁chart	-9.61553
▁within	-9.61588
▁en	-9.61652
▁ti	-9.61695
.0	-9.61764
▁jo	-9.61793
▁ne	-9.61842
▁winners	-9.61869
▁thanks	-9.61923
▁picture	-9.61925
▁waste	-9.62017
ner	-9.62114
▁pick	-9.62191
▁spot	-9.6231
▁affect	-9.62324
▁putt	-9.62379
ph	-9.62465
▁coffee	-9.62518
▁stress	-9.62558
▁hadoop	-9.62559
▁birthday	-9.62567
▁budget	-9.6258
▁oracle	-9.62588
▁gallery	-9.62597
let	-9.62669
▁storm	-9.62823
▁license	-9.62844
style	-9.62967
▁prove	-9.62975
40	-9.62977
▁remove	-9.6298
yahoo	-9.63047
▁devices	-9.63093
▁format	-9.63109
▁sells	-9.6311
▁myths	-9.63467
▁gen	-9.63517
$	-9.63634
▁dumb	-9.6366
▁reports	-9.63739
▁property	-9.63765
▁least	-9.63767
▁universal	-9.63793
▁fine	-9.63854
▁stand	-9.63862
▁sure	-9.63901
▁across	-9.63944
▁crowd	-9.64072
▁structure	-9.64128
▁flow	-9.64187
▁wii	-9.64202
▁giant	-9.64298
▁election	-9.64325
test	-9.64388
▁trend	-9.64406
▁blocks	-9.64632
▁generate	-9.64732
▁reach	-9.64768
▁federal	-9.64982
▁scott	-9.64983
▁dns	-9.64991
▁then	-9.64995
▁each	-9.65018
▁hybrid	-9.65031
▁pretty	-9.65049
▁karma	-9.65053
▁protection	-9.65058
▁ha	-9.65135
▁ca	-9.6524
▁era	-9.65322
ted	-9.65386
▁gift	-9.65475
▁hope	-9.65537
▁error	-9.65568
▁archive	-9.65569
▁db	-9.65628
powered	-9.6564
▁promotion	-9.65674
▁netbooks	-9.65777
▁announced	-9.65795
▁powered	-9.65993
▁backup	-9.66007
son	-9.66172
▁$5	-9.66173
»	-9.66217
▁canadian	-9.66217
▁brief	-9.66217
▁hollywood	-9.66217
▁bittorrent	-9.66219
▁staff	-9.6623
▁bigger	-9.66263
▁crazy	-9.66264
▁joel	-9.66299
mart	-9.66335
ical	-9.66339
▁banks	-9.66369
▁log	-9.66576
▁moves	-9.66576
▁explain	-9.66625
▁asp	-9.66707
from	-9.66757
til	-9.6686
▁package	-9.66867
▁submission	-9.66884
▁expert	-9.66894
▁gain	-9.66934
▁installing	-9.67032
▁wind	-9.6714
ot	-9.67152
▁worse	-9.67362
▁bo	-9.67438
▁jewelry	-9.67467
▁dangerous	-9.67473
▁messaging	-9.67536
▁june	-9.67548
▁monitor	-9.67562
▁songs	-9.67657
▁beware	-9.6769
▁types	-9.67744
port	-9.67749
▁leads	-9.67759
▁starts	-9.67765
▁arm	-9.6781
▁hosted	-9.67817
▁jaws	-9.67852
▁boot	-9.679
▁suit	-9.68043
▁monitoring	-9.68087
▁gel	-9.6812
▁ahead	-9.68125
▁double	-9.68153
▁practice	-9.68158
▁higher	-9.68317
▁tap	-9.68326
▁teams	-9.68344
▁events	-9.68349
▁usb	-9.68351
ru	-9.68351
▁detect	-9.68447
back	-9.68459
▁repair	-9.68732
▁mortgage	-9.68732
▁perspective	-9.68732
▁jason	-9.68738
▁country	-9.68742
▁abc	-9.68765
▁distribution	-9.68766
▁readers	-9.68774
▁chicago	-9.68783
▁breaking	-9.68805
▁led	-9.6881
▁english	-9.68811
▁benefits	-9.68845
▁roundup	-9.68848
▁geo	-9.68862
▁outside	-9.68887
▁documents	-9.6895
▁sky	-9.69019
ber	-9.69083
▁*	-9.6935
▁tablet	-9.69398
▁winner	-9.69494
▁ka	-9.69608
ff	-9.69808
▁destroy	-9.69815
▁paradox	-9.69952
▁faces	-9.69963
▁japanese	-9.70016
▁malware	-9.70017
▁journalism	-9.70024
▁mouse	-9.70036
▁login	-9.70099
space	-9.70305
▁$3	-9.70345
▁objects	-9.70415
▁rip	-9.70419
▁gm	-9.70444
▁databases	-9.70528
▁eat	-9.70581
▁dan	-9.70592
▁direct	-9.7101
pic	-9.71074
▁layoffs	-9.71121
▁mode	-9.71162
▁myob	-9.71315
▁chance	-9.71317
▁happen	-9.71334
▁anonymous	-9.71337
▁matt	-9.71346
▁birth	-9.71364
log	-9.71571
.1	-9.71829
▁gifts	-9.71998
▁understand	-9.72074
▁ide	-9.72174
ny	-9.72249
▁factor	-9.72278
▁laptops	-9.72446
▁du	-9.7246
▁na	-9.72487
▁bugs	-9.72488
▁widgets	-9.7253
▁debugging	-9.72629
▁nuclear	-9.72663
▁crunch	-9.72736
but	-9.72754
▁flex	-9.72768
▁march	-9.72784
▁diy	-9.72803
▁wifi	-9.72903
▁ray	-9.72916
▁act	-9.72966
▁pain	-9.72998
▁explains	-9.73282
▁begins	-9.73286
▁sha	-9.73404
▁measure	-9.73523
ard	-9.73523
▁saving	-9.73565
ance	-9.73569
86	-9.73586
▁pattern	-9.73683
▁field	-9.73789
▁her	-9.7388
▁creation	-9.73885
▁seeks	-9.73902
▁wish	-9.7396
▁average	-9.73962
▁searches	-9.73984
▁season	-9.74025
▁friday	-9.74027
▁efficient	-9.74043
▁decisions	-9.74089
▁opensocial	-9.74094
▁warming	-9.74123
▁greatest	-9.74129
▁bet	-9.74177
▁corp	-9.74187
ak	-9.74194
▁present	-9.74351
▁fish	-9.74361
▁flaw	-9.74671
ate	-9.74724
ier	-9.74776
▁tickets	-9.74786
▁rumor	-9.74902
▁scientist	-9.7492
▁cure	-9.74969
▁fails	-9.74973
▁talent	-9.75087
ba	-9.75087
▁strong	-9.75197
▁recent	-9.75226
op	-9.75248
pi	-9.75276
so	-9.75283
▁inventor	-9.75306
▁stimulus	-9.75314
▁voip	-9.75314
▁scratch	-9.75314
▁manual	-9.75314
▁wilson	-9.75316
▁proposal	-9.7532
▁summary	-9.75338
▁expensive	-9.75339
▁burn	-9.75344
▁gpl	-9.75348
▁political	-9.75348
▁philly	-9.75354
▁poker	-9.7537
▁urls	-9.75408
▁associate	-9.75433
min	-9.75452
▁fit	-9.75482
▁lean	-9.75513
▁gap	-9.75569
▁plus	-9.75631
▁webapp	-9.75777
down	-9.75881
▁intro	-9.75985
▁lo	-9.76009
open	-9.76082
▁cause	-9.76088
▁mod	-9.76176
▁slide	-9.76278
gs	-9.7633
▁resource	-9.76423
▁payment	-9.76498
▁predictions	-9.76518
ster	-9.76531
▁australia	-9.76625
▁hotels	-9.76651
▁frameworks	-9.76674
▁bandwidth	-9.76684
▁exercise	-9.76684
▁leaving	-9.76684
▁nature	-9.76687
▁also	-9.76696
▁homepage	-9.76706
▁documentation	-9.76713
▁techstars	-9.7674
▁bomb	-9.76805
▁json	-9.76845
▁lock	-9.76849
di	-9.77016
▁advantage	-9.77734
rd	-9.77837
▁delete	-9.78032
▁olpc	-9.78074
▁police	-9.78075
▁vmware	-9.78077
▁registration	-9.78098
▁couchdb	-9.78099
▁yang	-9.78104
▁century	-9.78138
▁fastest	-9.78154
▁godin	-9.78167
▁suggestions	-9.78181
▁gadgets	-9.78221
▁nearly	-9.78281
▁shape	-9.78307
▁sp	-9.78425
▁biz	-9.78625
world	-9.78719
view	-9.78832
▁zen	-9.7888
ut	-9.78909
▁spending	-9.78945
▁recommend	-9.78953
▁consumers	-9.78974
▁teaching	-9.78989
▁tale	-9.79136
▁jet	-9.79164
▁setting	-9.79204
▁scam	-9.79233
▁blame	-9.79264
▁loan	-9.7933
▁leaves	-9.79333
ley	-9.79471
▁bot	-9.79478
▁anatomy	-9.79481
▁collaborative	-9.79481
▁mystery	-9.79481
▁peace	-9.79483
▁father	-9.79492
▁mix	-9.795
▁wild	-9.79514
▁console	-9.79517
▁middle	-9.79531
▁woman	-9.79543
▁practical	-9.79548
▁saas	-9.79571
ig	-9.79607
?"	-9.79638
▁hype	-9.79655
▁codes	-9.79677
▁hyper	-9.7971
▁fred	-9.79757
▁li	-9.79832
▁graphic	-9.79888
▁marc	-9.80058
▁sees	-9.8017
500	-9.80232
mm	-9.80262
▁bear	-9.8062
▁channel	-9.80711
▁expect	-9.80737
▁ventures	-9.8074
▁ago	-9.80835
▁quarter	-9.8087
▁complex	-9.80895
▁states	-9.80905
▁mechanical	-9.8091
▁swine	-9.80912
▁hair	-9.80931
▁sprint	-9.80939
▁nine	-9.8097
▁profitable	-9.80993
▁automated	-9.81033
vo	-9.8106
▁disk	-9.81094
▁grand	-9.81096
!)	-9.81155
▁loses	-9.813
▁hey	-9.813
▁nails	-9.81336
au	-9.8149
barack	-9.81509
site	-9.81516
▁messages	-9.81553
ver	-9.81591
gi	-9.81734
ti	-9.81826
▁lu	-9.81834
he	-9.81911
▁font	-9.82035
▁trip	-9.8208
▁apis	-9.82129
▁recommendation	-9.82181
▁provider	-9.8229
▁blu	-9.8233
▁financing	-9.82359
▁countries	-9.82359
▁larry	-9.82359
▁reinvent	-9.82359
▁military	-9.82359
▁banned	-9.82359
▁philosophy	-9.8237
▁bankruptcy	-9.82376
▁physical	-9.82388
bu	-9.82398
▁lack	-9.82493
▁virus	-9.82507
▁bookmarking	-9.82533
▁offering	-9.82569
▁publishing	-9.82642
▁hello	-9.82665
▁provide	-9.82697
ists	-9.82698
▁forums	-9.8284
%	-9.82874
▁interest	-9.82891
▁mi	-9.83
▁called	-9.83189
▁wait	-9.83286
▁highly	-9.83328
▁pet	-9.83346
▁listen	-9.83523
▁panel	-9.83643
▁views	-9.83662
▁require	-9.83674
▁ben	-9.8368
▁retail	-9.8368
▁trial	-9.83688
top	-9.83747
▁clear	-9.83776
▁gadget	-9.83806
▁purchase	-9.83829
▁succeed	-9.83829
▁syntax	-9.83829
▁paypal	-9.83837
▁coverage	-9.83839
▁facts	-9.83854
▁happiness	-9.83856
▁worldwide	-9.83866
▁seattle	-9.83868
▁wisdom	-9.83889
▁turing	-9.83933
▁leaked	-9.83959
▁debian	-9.83974
▁outage	-9.84051
▁prepare	-9.84061
▁cd	-9.84064
▁cat	-9.84113
▁records	-9.84282
▁pe	-9.84551
▁steal	-9.84563
▁prime	-9.84644
can	-9.84666
▁known	-9.84844
▁searching	-9.84899
ally	-9.84942
▁profits	-9.85002
▁mono	-9.85031
▁shared	-9.85215
▁strange	-9.85218
▁layout	-9.85235
our	-9.85237
▁cover	-9.85248
▁monkey	-9.85282
▁icon	-9.85284
▁pandora	-9.85322
▁disqus	-9.85322
▁beginning	-9.85323
▁disaster	-9.85349
▁toolkit	-9.85352
▁salesforce	-9.85357
ge	-9.85368
▁famous	-9.85371
▁motivation	-9.85394
▁bike	-9.85425
▁blind	-9.85436
▁recommendations	-9.85529
▁shell	-9.8556
▁west	-9.8558
▁sexy	-9.85585
ure	-9.85663
way	-9.85824
▁happens	-9.85891
▁pa	-9.85928
▁sync	-9.85936
▁cto	-9.85975
commerce	-9.86019
scale	-9.86088
driven	-9.86144
▁mis	-9.8615
share	-9.86161
mb	-9.86298
▁passwords	-9.86409
▁embrace	-9.86413
list	-9.86419
▁lawyers	-9.86593
pm	-9.86616
ability	-9.86668
▁drugs	-9.8669
▁principles	-9.86711
▁club	-9.86787
▁christmas	-9.86837
▁libraries	-9.86837
▁crime	-9.86837
▁contact	-9.86839
▁fundraising	-9.86839
▁cuban	-9.86855
▁politics	-9.86861
▁passion	-9.86864
▁russian	-9.86903
▁probably	-9.86909
▁xbox	-9.86916
om	-9.86917
▁recognition	-9.8692
▁july	-9.86958
▁late	-9.87059
link	-9.87096
▁$6	-9.8711
▁oh	-9.87137
▁fly	-9.87166
phone	-9.87238
uk	-9.87244
▁considered	-9.87252
97	-9.87255
▁dot	-9.87423
▁theme	-9.87439
social	-9.87509
▁nyt	-9.87517
unlocked	-9.87659
▁continues	-9.87751
▁plugins	-9.87871
▁jim	-9.8789
▁stores	-9.87928
▁park	-9.87951
▁hi	-9.88035
▁laws	-9.88097
▁scripting	-9.88119
cu	-9.88132
▁limits	-9.88162
▁meta	-9.88172
▁entire	-9.88261
▁threaten	-9.88308
▁andreessen	-9.88375
▁default	-9.88376
▁scoble	-9.88376
▁surface	-9.88376
▁british	-9.88377
▁improving	-9.88377
▁among	-9.88377
▁scalability	-9.88379
▁andrew	-9.8838
▁jackson	-9.88382
▁deployment	-9.88385
▁goodbye	-9.88415
▁illegal	-9.88426
▁dump	-9.8844
db	-9.88454
▁lay	-9.88454
▁crack	-9.88455
▁rent	-9.88479
▁logic	-9.8854
▁cold	-9.88552
▁0	-9.88578
▁www	-9.88621
▁discovery	-9.88671
▁skin	-9.88671
news	-9.88685
▁kit	-9.88699
▁gears	-9.88891
-1	-9.88897
▁py	-9.88899
▁tonight	-9.88917
ther	-9.88943
▁tweets	-9.89082
▁ok	-9.89089
▁hash	-9.89138
hi	-9.89187
ix	-9.89253
▁functions	-9.8939
▁band	-9.89429
ball	-9.89465
▁funds	-9.89752
▁wal	-9.89755
▁wide	-9.89839
▁extra	-9.89859
▁attempt	-9.89938
▁charging	-9.89938
▁evidence	-9.89938
▁opportunities	-9.89938
▁regular	-9.89939
▁mainstream	-9.8994
▁3.5	-9.8994
▁jerry	-9.89943
▁such	-9.89954
▁empire	-9.89967
ator	-9.8997
▁designed	-9.89972
▁said	-9.89972
▁blood	-9.89978
▁mother	-9.89979
▁clock	-9.89984
▁lecture	-9.90047
▁pink	-9.90059
▁hotel	-9.90067
▁laser	-9.90086
▁flat	-9.90094
▁blow	-9.90153
ified	-9.90227
izing	-9.90229
▁em	-9.90258
▁whole	-9.90323
▁vim	-9.90371
tra	-9.90385
▁ship	-9.90401
▁theft	-9.90407
vi	-9.90407
▁peer	-9.90439
oo	-9.90461
▁united	-9.90462
▁po	-9.90512
hacker	-9.90896
▁adding	-9.91003
▁often	-9.91108
▁ph	-9.91127
▁th	-9.91161
▁spy	-9.91182
▁accept	-9.91251
▁ram	-9.91321
▁stick	-9.91325
▁both	-9.91449
▁stumbleupon	-9.91525
▁washington	-9.91525
▁htc	-9.91527
▁promote	-9.91534
▁outlook	-9.91567
▁pirates	-9.91576
▁excellent	-9.91578
▁circuit	-9.91578
▁cnn	-9.91578
▁portable	-9.91593
▁pull	-9.91613
▁holiday	-9.9163
▁gene	-9.91635
blog	-9.91636
ify	-9.91661
▁guitar	-9.91673
▁cycle	-9.91682
▁australian	-9.91686
▁beats	-9.91742
▁loopt	-9.91863
ble	-9.91896
▁cap	-9.92103
▁she	-9.9223
▁habits	-9.9238
▁tr	-9.9242
▁hero	-9.92467
▁200	-9.92507
▁stars	-9.92529
▁ignore	-9.92683
▁papers	-9.92706
▁surprise	-9.92874
▁mr	-9.92876
▁screw	-9.9294
▁basics	-9.92943
▁lots	-9.92947
▁responds	-9.92988
▁shoes	-9.93045
▁inspiration	-9.93057
▁upload	-9.93094
▁efficiency	-9.93138
▁morning	-9.93139
▁censorship	-9.93139
▁leadership	-9.9314
▁modular	-9.93141
▁encryption	-9.93145
▁heat	-9.93156
▁marketplace	-9.93157
▁breakthrough	-9.9316
▁dirty	-9.93161
▁smalltalk	-9.93165
▁augmented	-9.93166
▁lists	-9.93171
▁freedom	-9.93193
▁fiction	-9.93215
▁winter	-9.93226
▁fashion	-9.9325
▁portal	-9.93294
▁joe	-9.93324
▁shares	-9.93344
▁iran	-9.93356
▁active	-9.93413
▁shouldn	-9.93438
▁sued	-9.93489
▁mint	-9.93518
▁drives	-9.93627
▁hub	-9.93649
ck	-9.93865
iv	-9.93906
▁jam	-9.93941
▁domains	-9.93977
▁sim	-9.93981
▁mess	-9.93989
▁terms	-9.94027
map	-9.94049
▁sam	-9.94053
▁interviews	-9.94135
▁trees	-9.94241
▁earn	-9.94277
▁jump	-9.94283
▁match	-9.94317
▁total	-9.94351
qu	-9.94385
ium	-9.94403
▁spread	-9.94472
▁decide	-9.94513
▁bio	-9.94553
cast	-9.94554
▁german	-9.94729
▁weeks	-9.94765
▁easily	-9.94778
▁communities	-9.94778
▁audience	-9.94779
▁visitors	-9.9478
▁sometimes	-9.94785
▁hedge	-9.94787
▁curve	-9.94792
▁anybody	-9.94796
▁anywhere	-9.948
▁popularity	-9.94825
▁warner	-9.9483
▁wow	-9.94878
▁mistake	-9.94897
▁resume	-9.94939
▁template	-9.95003
▁note	-9.95004
▁base	-9.95058
▁prediction	-9.95062
▁forms	-9.95111
▁task	-9.95134
▁related	-9.95191
design	-9.95284
▁helping	-9.95335
▁weekly	-9.95382
mac	-9.95451
▁ja	-9.95528
▁door	-9.95626
rails	-9.95691
▁americans	-9.9571
python	-9.95711
demand	-9.95723
level	-9.95724
▁interfaces	-9.95766
▁limit	-9.95871
ka	-9.95879
19	-9.95905
▁dies	-9.9594
▁clients	-9.95944
=	-9.95999
▁thread	-9.96034
▁split	-9.96139
▁walk	-9.96234
▁saved	-9.96236
▁feynman	-9.96444
▁postgresql	-9.96444
▁schmidt	-9.96444
▁exclusive	-9.96445
▁ugly	-9.96446
▁bookmarklet	-9.96447
▁native	-9.96469
▁carbon	-9.9647
▁cocoa	-9.96499
touch	-9.96565
▁ride	-9.9661
▁satellite	-9.96656
▁attorney	-9.9667
▁professor	-9.96674
▁mba	-9.96703
▁cofounder	-9.96819
ni	-9.96893
▁schools	-9.97114
▁lower	-9.97128
▁methods	-9.97199
oc	-9.97307
▁patch	-9.97371
iest	-9.97372
▁emails	-9.97384
▁screenshots	-9.97506
▁jack	-9.97534
▁pi	-9.97576
▁miss	-9.97589
▁artist	-9.97654
core	-9.97693
▁count	-9.97759
qui	-9.97811
▁extensions	-9.97833
▁23	-9.97844
▁compare	-9.97886
▁roll	-9.98
▁schedule	-9.98104
▁falling	-9.98111
▁beauty	-9.98139
а	-9.98139
▁gnu	-9.9814
▁alarm	-9.98141
▁activity	-9.98141
▁despi	-9.98144
▁mapreduce	-9.98146
▁wonder	-9.98148
▁jruby	-9.98152
▁pagerank	-9.98169
▁expo	-9.98169
▁income	-9.98179
▁animation	-9.98198
▁labels	-9.98218
▁passes	-9.98237
▁aws	-9.98254
▁factory	-9.98286
ps	-9.98296
▁kills	-9.9834
▁subscription	-9.9841
▁role	-9.98427
▁mashup	-9.98465
▁cells	-9.9851
▁van	-9.9851
▁internal	-9.98607
▁slides	-9.98736
▁watching	-9.98889
▁$4	-9.98918
▁confirms	-9.98999
ick	-9.99041
▁ice	-9.99284
▁calacanis	-9.99302
100	-9.9932
▁influence	-9.9935
200	-9.99506
▁owners	-9.99531
▁select	-9.99547
ite	-9.99642
▁500	-9.99702
don	-9.99743
▁opinion	-9.99786
▁comp	-9.99815
▁foreign	-9.99817
▁devcentral	-9.99865
▁capture	-9.99867
▁$200	-9.9987
▁dying	-9.9987
▁bought	-9.99872
▁affordable	-9.99874
▁rather	-9.99875
▁bias	-9.99875
▁reputation	-9.99895
▁singularity	-9.99896
▁xkcd	-9.99907
▁nvidia	-9.99933
▁lego	-9.99933
▁clever	-9.99947
▁buffett	-9.9996
▁returns	-9.99999
▁classes	-10.0004
▁mike	-10.0005
▁closer	-10.0005
▁cache	-10.0008
▁heard	-10.0008
▁supercomputer	-10.0019
▁tc	-10.0021
▁treatment	-10.0021
▁exec	-10.0023
▁captcha	-10.0023
▁reference	-10.0024
▁discovered	-10.003
▁exit	-10.003
▁monetize	-10.0034
her	-10.0052
▁elements	-10.0056
60	-10.0056
▁central	-10.0057
▁static	-10.0058
▁sa	-10.0076
▁del	-10.0094
▁themes	-10.0094
▁pcs	-10.0112
art	-10.0116
over	-10.0119
▁designs	-10.0126
kit	-10.0139
▁rocks	-10.0145
▁ve	-10.0152
▁tables	-10.0152
▁africa	-10.0153
▁adopt	-10.0155
▁honda	-10.0162
▁oauth	-10.0162
▁faq	-10.0163
▁scalable	-10.0163
star	-10.0163
▁eight	-10.0166
ell	-10.0171
▁wheel	-10.0172
▁independent	-10.0173
▁coupons	-10.0189
▁expected	-10.019
cient	-10.0192
▁runs	-10.0192
▁chips	-10.0194
▁pure	-10.0197
▁recipe	-10.0205
▁cellphone	-10.0206
▁result	-10.0207
mate	-10.021
▁session	-10.0211
▁editing	-10.0215
ten	-10.0221
▁promises	-10.0232
▁boy	-10.0239
▁capitalists	-10.0243
▁linked	-10.0252
der	-10.0261
▁ev	-10.0264
▁mom	-10.0267
—	-10.0269
▁charts	-10.0273
▁grad	-10.0273
▁alexa	-10.0298
▁hunt	-10.0298
▁register	-10.0317
▁train	-10.0324
▁ba	-10.0334
▁pack	-10.0334
▁root	-10.0336
é	-10.034
▁disease	-10.034
▁emerging	-10.034
▁neutrality	-10.034
▁survival	-10.034
▁eclipse	-10.034
▁pioneer	-10.034
▁sweet	-10.034
▁formula	-10.034
▁french	-10.034
▁lambda	-10.0341
▁charity	-10.0341
▁interaction	-10.0341
▁prefer	-10.0342
▁ground	-10.0342
▁taste	-10.0342
▁brilliant	-10.0342
▁mvc	-10.0342
▁bush	-10.0345
pc	-10.0345
▁golden	-10.0347
▁solving	-10.0347
▁monster	-10.0354
▁fox	-10.036
▁went	-10.036
▁banking	-10.0361
▁inspired	-10.0362
▁officially	-10.0387
▁economist	-10.0391
▁rights	-10.0394
▁expand	-10.0396
▁journal	-10.0398
▁hip	-10.0409
▁minute	-10.0414
▁millions	-10.042
▁shot	-10.0423
▁bebo	-10.0424
▁outsource	-10.0426
tr	-10.0429
2.0	-10.0431
18	-10.0434
▁friendly	-10.044
text	-10.0449
hn	-10.045
cloud	-10.045
va	-10.0458
▁updated	-10.0477
▁(200	-10.0486
user	-10.0497
ft	-10.0508
00	-10.0514
▁lectures	-10.0518
▁novel	-10.0521
▁zune	-10.0522
▁sxsw	-10.0522
▁wealth	-10.0522
▁boxee	-10.0524
▁turk	-10.0524
▁embedded	-10.0526
▁laid	-10.0526
▁cpu	-10.0528
▁automatic	-10.053
ah	-10.0542
▁critical	-10.0542
▁cms	-10.0545
▁lives	-10.0549
▁interested	-10.055
▁sat	-10.0568
▁rival	-10.0574
▁sec	-10.0576
▁adult	-10.0578
▁essay	-10.0585
▁harder	-10.0604
▁qu	-10.0605
▁rid	-10.0612
ran	-10.062
▁ps	-10.0623
ze	-10.0627
js	-10.0628
business	-10.0636
▁edit	-10.0641
wire	-10.0641
light	-10.0666
▁exist	-10.0693
▁parts	-10.0701
▁ron	-10.0704
tro	-10.0707
▁pocket	-10.0707
▁suicide	-10.0707
▁interpreter	-10.0707
▁ultra	-10.0707
ue	-10.0708
▁wsj	-10.0708
▁collective	-10.0709
08)	-10.071
▁dreams	-10.0713
▁rejected	-10.0714
▁noise	-10.0716
▁context	-10.0716
▁addresses	-10.072
▁inbox	-10.0721
▁according	-10.0726
▁mission	-10.0727
▁fixing	-10.0728
▁suite	-10.0734
▁rack	-10.0734
▁compared	-10.0735
▁option	-10.0737
ger	-10.0739
▁targets	-10.0748
▁fed	-10.075
▁trick	-10.0754
▁quickly	-10.076
▁window	-10.0764
▁scene	-10.0781
▁calling	-10.0784
▁pics	-10.0787
read	-10.0801
ko	-10.0807
▁comic	-10.0807
80	-10.0815
friendly	-10.0829
▁produce	-10.0859
get	-10.086
▁lies	-10.086
▁ge	-10.0868
▁ke	-10.0874
▁fans	-10.0877
▁notice	-10.0878
▁fighting	-10.0885
▁freelance	-10.0885
▁leading	-10.0886
game	-10.0891
▁1.9	-10.0896
▁sorry	-10.0896
▁heroku	-10.0896
▁partnership	-10.0897
▁rising	-10.0897
▁peek	-10.0897
▁stolen	-10.0898
▁hang	-10.09
▁overflow	-10.09
▁housing	-10.0909
▁doomed	-10.0911
▁rocket	-10.0914
▁speaks	-10.0919
▁1.5	-10.093
▁him	-10.0932
▁fi	-10.0935
▁cor	-10.0947
▁mining	-10.0953
▁visualiz	-10.0958
▁alert	-10.0966
▁announcement	-10.0969
▁ticket	-10.097
▁character	-10.097
▁graphs	-10.0975
▁discuss	-10.0985
▁string	-10.0986
▁submissions	-10.099
▁nation	-10.0995
▁teen	-10.0996
board	-10.1004
▁ideal	-10.1011
tweet	-10.1012
▁cart	-10.1017
ham	-10.1018
▁metrics	-10.1021
▁thousands	-10.1035
▁recipes	-10.1041
▁plane	-10.1043
▁risks	-10.1053
ke	-10.1056
▁templates	-10.1066
▁award	-10.1067
▁lie	-10.1072
▁equal	-10.1076
▁loop	-10.1082
▁berkeley	-10.1088
▁caught	-10.1088
▁concurrency	-10.1088
▁indonesia	-10.1088
▁transfer	-10.1088
▁lunch	-10.1089
▁lcd	-10.1089
▁france	-10.1089
▁multicore	-10.109
▁delicious	-10.1092
▁weather	-10.1092
▁powerpoint	-10.1092
war	-10.1093
▁background	-10.1096
▁caching	-10.1096
▁meaning	-10.11
▁cutting	-10.1101
▁spark	-10.1107
▁(199	-10.1109
▁kick	-10.111
▁setup	-10.1113
▁continue	-10.1122
men	-10.1122
▁pen	-10.1126
ina	-10.1129
▁bi	-10.113
▁implementing	-10.1141
lin	-10.1142
post	-10.1149
▁healthy	-10.116
▁max	-10.1169
▁trailer	-10.117
▁grows	-10.1182
power	-10.1189
▁wallpapers	-10.1192
"?	-10.1195
▁groups	-10.1198
▁su	-10.1204
house	-10.1205
▁unlock	-10.1208
ens	-10.1209
screen	-10.121
fe	-10.1215
gov	-10.1232
lu	-10.1247
▁el	-10.1258
▁para	-10.1258
▁artists	-10.1258
▁minds	-10.1264
▁electronics	-10.1266
▁rc	-10.1271
ap	-10.1271
▁members	-10.1281
▁objective	-10.1282
dy	-10.1282
▁affiliate	-10.1284
▁buchheit	-10.1284
▁extreme	-10.1284
▁psychology	-10.1285
▁garden	-10.1285
▁crowdsourcing	-10.1285
▁solid	-10.1285
▁society	-10.1285
▁warren	-10.1286
▁complexity	-10.1286
▁golf	-10.1288
▁upcoming	-10.1288
▁defend	-10.1295
▁stealth	-10.1296
▁rush	-10.1298
▁dave	-10.1299
tor	-10.13
▁taxes	-10.1305
▁timeline	-10.1311
▁stone	-10.1324
ping	-10.133
▁webkit	-10.1332
lt	-10.1333
nt	-10.1335
ring	-10.1342
▁indie	-10.1344
▁counting	-10.135
▁lights	-10.135
ler	-10.1352
▁#	-10.1365
▁degree	-10.1368
▁managers	-10.1369
▁visa	-10.1369
▁keyword	-10.137
▁nerd	-10.1373
▁makers	-10.1375
▁town	-10.1394
▁invites	-10.1398
▁driven	-10.1407
twitter	-10.1413
▁tracker	-10.1414
▁publishers	-10.142
ruby	-10.1424
▁ning	-10.1424
▁driver	-10.1437
▁$50	-10.1438
▁spin	-10.1438
▁vm	-10.1445
▁atom	-10.145
bi	-10.1452
▁ta	-10.1454
ped	-10.1456
▁counter	-10.1464
▁russia	-10.1476
▁atlanta	-10.1484
▁dilemma	-10.1484
▁luxury	-10.1484
▁marriage	-10.1484
▁mccain	-10.1484
▁competitive	-10.1484
▁robert	-10.1484
▁adwords	-10.1484
▁browsing	-10.1485
▁import	-10.1485
▁elevator	-10.1485
▁techmeme	-10.1486
▁bash	-10.1486
▁builder	-10.1486
▁grey	-10.1486
▁calculator	-10.1486
▁jail	-10.1486
▁aggregator	-10.1487
▁adoption	-10.1487
▁transition	-10.1487
▁safety	-10.1488
▁fame	-10.1488
▁100%	-10.1488
▁bottom	-10.1488
▁authentication	-10.1489
▁powerset	-10.1489
▁fantasy	-10.149
▁posterous	-10.1491
▁mathematical	-10.1493
▁lift	-10.1493
▁specific	-10.1504
▁hill	-10.1504
fu	-10.1504
▁xmpp	-10.1512
▁hurt	-10.1516
▁organic	-10.1529
▁drawing	-10.1534
car	-10.154
founders	-10.1541
▁points	-10.1544
▁cheaper	-10.1551
▁breaks	-10.1555
▁meetings	-10.1563
0+	-10.157
▁bell	-10.1575
▁material	-10.1577
70	-10.1579
▁op	-10.1585
▁connection	-10.1589
▁pros	-10.1589
▁effects	-10.1591
▁printer	-10.16
▁invite	-10.1603
▁admin	-10.1607
▁awards	-10.1614
good	-10.1617
▁extend	-10.1619
0,000	-10.1619
made	-10.1624
▁classifieds	-10.1626
talk	-10.1631
▁tab	-10.1657
more	-10.1657
▁wa	-10.1659
ence	-10.1662
▁alternatives	-10.1666
▁rapid	-10.1677
▁dress	-10.1683
▁batteries	-10.1688
▁innovative	-10.1688
▁nightmare	-10.1688
▁drupal	-10.1688
▁greasemonkey	-10.1688
▁tradition	-10.1688
▁guidelines	-10.1689
▁subversion	-10.1689
▁entry	-10.1689
▁harmful	-10.1689
▁shipping	-10.1689
▁50%	-10.1691
▁positive	-10.1691
▁bootstrapping	-10.1691
▁20%	-10.1692
▁stake	-10.1693
▁explanation	-10.1694
▁wine	-10.1694
▁premium	-10.1695
▁macworld	-10.1696
▁bust	-10.1696
▁prison	-10.1696
▁winning	-10.1696
▁min	-10.1697
ise	-10.1698
▁shock	-10.17
▁masses	-10.1702
▁memo	-10.1703
▁spring	-10.1705
▁followers	-10.1706
▁chain	-10.1706
▁merger	-10.1707
▁reveal	-10.171
▁born	-10.1711
()	-10.1713
▁apart	-10.1716
▁productive	-10.1718
▁ko	-10.1721
▁advertisers	-10.1726
ai	-10.1727
▁competitors	-10.1729
▁howto	-10.1732
▁presentations	-10.1736
▁owner	-10.174
▁fonts	-10.1749
rk	-10.175
▁rental	-10.1763
▁alive	-10.1765
mark	-10.179
▁begin	-10.1793
▁implement	-10.1824
oriented	-10.1824
linux	-10.1826
▁fa	-10.1829
▁express	-10.1834
hand	-10.1849
▁fees	-10.1857
▁80	-10.1859
▁merge	-10.186
▁luck	-10.1887
▁thin	-10.1888
▁cook	-10.1888
▁isps	-10.1895
▁currency	-10.1897
▁negative	-10.1897
▁passenger	-10.1897
▁surprising	-10.1897
▁identify	-10.1897
▁trillion	-10.1897
▁department	-10.1897
▁september	-10.1899
▁checklist	-10.1899
▁handling	-10.19
▁movement	-10.1902
▁anymore	-10.1902
▁guru	-10.1902
▁wtf	-10.1902
▁academic	-10.1904
▁phishing	-10.1904
▁bruc	-10.1907
▁hotmail	-10.1907
▁primer	-10.1912
▁fusion	-10.1913
▁ki	-10.1915
▁keys	-10.1922
▁mc	-10.1932
▁players	-10.1932
▁given	-10.1941
review	-10.1941
▁rant	-10.1949
▁leaders	-10.1956
▁ditch	-10.1957
wi	-10.1961
▁tu	-10.1962
term	-10.1963
900	-10.1967
▁layer	-10.1969
▁1.1	-10.1972
▁tape	-10.1986
win	-10.1989
▁fixed	-10.1992
▁scores	-10.1996
▁graduate	-10.2004
▁conversion	-10.2004
load	-10.2005
▁#2	-10.2007
▁speaker	-10.2016
▁feeling	-10.2022
▁oo	-10.2027
▁score	-10.2027
vc	-10.2028
▁tea	-10.2029
")	-10.2029
▁goals	-10.2052
▁communications	-10.2055
ja	-10.2059
▁seconds	-10.2063
▁beer	-10.2063
now	-10.2064
▁clouds	-10.2065
▁tags	-10.2069
▁ap	-10.207
11	-10.208
25	-10.2098
▁charl	-10.2104
ming	-10.2105
ake	-10.2108
▁treat	-10.2109
▁mental	-10.2109
▁feedburner	-10.211
▁schneier	-10.211
▁monday	-10.211
▁simply	-10.211
▁utility	-10.211
▁horse	-10.211
▁simplicity	-10.211
▁thailand	-10.211
▁weird	-10.211
▁texas	-10.211
▁critique	-10.211
▁everybody	-10.2111
▁monetization	-10.2111
▁wood	-10.2113
▁einstein	-10.2114
▁detection	-10.2114
▁nobel	-10.2114
▁spider	-10.2115
ki	-10.2117
▁chi	-10.2118
99	-10.2123
▁rare	-10.213
▁impressions	-10.2141
den	-10.2158
▁realtime	-10.2158
▁coders	-10.2159
king	-10.2173
mu	-10.2175
▁mar	-10.2177
▁er	-10.218
▁iq	-10.2188
ec	-10.2191
ture	-10.2194
▁shift	-10.2201
▁deliver	-10.2202
▁forever	-10.2203
▁insider	-10.2205
▁vacation	-10.2228
▁seat	-10.223
▁organization	-10.2231
▁structures	-10.2231
▁agreement	-10.2233
▁station	-10.2235
▁title	-10.2238
▁sci	-10.2245
▁capitalist	-10.2246
work	-10.2248
search	-10.2252
vis	-10.2279
this	-10.2281
lisp	-10.2291
▁square	-10.23
▁kid	-10.2307
cl	-10.231
ask	-10.2313
▁journey	-10.2325
▁balance	-10.2325
▁celebrity	-10.2327
▁exploring	-10.2327
▁sequoia	-10.2327
▁fedora	-10.2327
▁praise	-10.2327
▁television	-10.2327
▁urban	-10.2327
▁spectrum	-10.2327
▁starbucks	-10.2327
▁query	-10.2327
▁firebug	-10.2328
ology	-10.233
▁chess	-10.2331
▁moore	-10.2332
▁translation	-10.2333
▁tri	-10.2333
▁radical	-10.2334
▁overload	-10.2335
▁army	-10.2347
▁cube	-10.2351
▁bridge	-10.2354
▁cuil	-10.2355
▁flip	-10.2356
▁completely	-10.2359
▁jon	-10.2364
que	-10.2365
▁brad	-10.2369
fl	-10.2372
lee	-10.238
▁accident	-10.2383
▁fortune	-10.2388
using	-10.2388
real	-10.2397
▁thank	-10.2398
▁parents	-10.2402
▁excel	-10.2409
▁wire	-10.2409
bl	-10.2411
ile	-10.2412
▁22	-10.2416
▁filtering	-10.2448
▁isp	-10.2455
▁danger	-10.2456
▁relationship	-10.2459
▁promise	-10.2461
▁element	-10.2474
▁1:	-10.2483
▁buyers	-10.2494
▁diamond	-10.2501
▁main	-10.2502
▁pitching	-10.2503
tri	-10.2505
▁ranking	-10.2512
▁rolls	-10.2512
▁neuro	-10.2513
▁fan	-10.2519
▁pulls	-10.2537
09	-10.254
▁enjoy	-10.2545
▁se	-10.2547
mon	-10.2547
▁disney	-10.2549
▁cult	-10.2549
▁compatibility	-10.2549
▁compensation	-10.2549
▁equipment	-10.2549
▁florida	-10.2549
▁lyrics	-10.2549
▁religion	-10.2549
▁technorati	-10.2549
▁offshore	-10.2549
▁gladwell	-10.2549
▁bezos	-10.2549
▁football	-10.255
▁construction	-10.255
▁leap	-10.255
▁linus	-10.255
▁bright	-10.2551
▁powershell	-10.2551
▁vietnam	-10.2552
▁martin	-10.2552
▁intellectual	-10.2558
▁relation	-10.2563
▁purpose	-10.2563
▁eee	-10.2565
▁2006	-10.2565
▁converter	-10.2574
▁10,000	-10.2581
▁motion	-10.2583
▁providers	-10.2586
▁dual	-10.2587
name	-10.2588
▁required	-10.2591
▁posting	-10.2592
▁limited	-10.2595
▁meme	-10.2596
▁soft	-10.2598
▁angels	-10.2625
▁flying	-10.2633
bar	-10.2642
▁amd	-10.2643
▁fully	-10.2644
15	-10.2655
▁smaller	-10.2659
ern	-10.266
gan	-10.2665
▁errors	-10.2668
base	-10.2668
▁skill	-10.2675
maker	-10.2676
ux	-10.2678
▁decade	-10.2686
▁island	-10.2686
▁nam	-10.2689
▁mid	-10.269
▁teens	-10.2692
▁deploy	-10.2694
▁eco	-10.2695
cent	-10.2697
▁claim	-10.2699
click	-10.2704
▁screencast	-10.2706
▁signal	-10.2718
▁optimiz	-10.2727
▁draw	-10.2729
▁normal	-10.2736
▁inner	-10.2736
▁twit	-10.2746
90	-10.2753
hosting	-10.2755
▁fac	-10.2763
mit	-10.2774
▁quest	-10.2776
▁female	-10.2776
▁garbage	-10.2776
▁knuth	-10.2776
▁nintendo	-10.2776
▁spolsky	-10.2776
▁toyota	-10.2776
▁vehicle	-10.2776
▁cambridge	-10.2777
▁breast	-10.2777
▁george	-10.2777
▁360	-10.2779
▁pair	-10.2781
▁palin	-10.2781
▁cognitive	-10.2781
▁closing	-10.2783
▁queue	-10.2786
▁applied	-10.2792
▁reminder	-10.2792
data	-10.2793
▁confirmed	-10.2797
▁tried	-10.28
du	-10.2802
▁cio	-10.2802
▁zone	-10.2805
▁pool	-10.2808
▁integrated	-10.2809
ated	-10.2812
▁los	-10.2826
▁experimental	-10.2836
▁serial	-10.2837
▁zoom	-10.2847
▁closes	-10.2849
▁tune	-10.2874
lab	-10.2883
▁forward	-10.2887
▁took	-10.2894
▁bus	-10.2901
media	-10.2907
▁targeting	-10.2911
▁joke	-10.2912
▁rank	-10.2913
▁mad	-10.2914
▁reform	-10.2915
week	-10.2918
br	-10.2918
▁mob	-10.2918
script	-10.292
ward	-10.2924
tel	-10.2926
▁analyst	-10.2927
▁effort	-10.2927
sharing	-10.2936
value	-10.2938
iphone	-10.2952
▁bu	-10.2962
▁brains	-10.2965
▁inter	-10.2971
av	-10.2977
▁invent	-10.2977
2)	-10.2977
▁$7	-10.2979
▁abandon	-10.2986
▁gear	-10.2989
▁mine	-10.3005
▁cons	-10.3007
▁korea	-10.3008
▁comparing	-10.3009
▁yelp	-10.3009
▁trek	-10.3009
▁meltdown	-10.3009
▁lazy	-10.301
▁pressure	-10.3011
▁fitness	-10.3011
▁euro	-10.3012
▁raid	-10.3013
▁matrix	-10.3013
reaches	-10.3014
▁nobody	-10.3014
▁electricity	-10.3014
▁ruin	-10.3016
▁demos	-10.3017
▁generating	-10.302
note	-10.3023
▁ic	-10.3024
▁consulting	-10.3025
▁ssd	-10.3025
▁typing	-10.3027
▁following	-10.3028
▁soul	-10.3029
ə	-10.3031
▁courses	-10.3037
▁kay	-10.3038
12	-10.3042
▁strikes	-10.3052
▁speaking	-10.3057
ey	-10.3062
08	-10.3062
▁breach	-10.3074
▁profiles	-10.3078
▁scrap	-10.3085
▁2:	-10.3095
▁yo	-10.3099
▁mega	-10.3103
only	-10.3104
▁relationships	-10.3104
▁warns	-10.3106
▁ball	-10.3106
▁bra	-10.3108
▁chen	-10.3121
▁gains	-10.3127
▁farm	-10.314
▁blocking	-10.3145
▁picks	-10.315
proof	-10.3151
▁bang	-10.316
icio	-10.3168
▁charges	-10.3173
▁ya	-10.3177
▁formal	-10.3183
▁processor	-10.3197
▁organize	-10.3198
▁adam	-10.3206
▁shoot	-10.3221
▁brands	-10.3232
▁israel	-10.3234
▁cl	-10.3238
▁director	-10.3245
▁stephen	-10.3246
▁9.04	-10.3247
▁afraid	-10.3247
▁increasing	-10.3247
▁mahalo	-10.3247
▁statistical	-10.3247
▁strategic	-10.3247
▁zappos	-10.3247
▁amateur	-10.3247
▁apollo	-10.3247
▁britain	-10.3247
▁navigation	-10.3247
▁forecast	-10.3247
▁appeal	-10.3248
▁everywhere	-10.3249
▁finger	-10.3249
▁woes	-10.325
ya	-10.3251
▁damn	-10.3252
▁mountain	-10.3253
▁anyway	-10.3255
▁similar	-10.3257
▁balancing	-10.3257
▁paris	-10.3257
▁detailed	-10.3258
▁freemium	-10.3259
▁dragon	-10.3263
▁fill	-10.3264
▁anderson	-10.3269
▁accounting	-10.3277
pre	-10.3285
▁clip	-10.3285
▁union	-10.3289
▁$8	-10.329
▁peak	-10.3292
▁figures	-10.3298
▁snap	-10.3299
books	-10.3305
key	-10.3305
▁male	-10.3307
ory	-10.3314
▁sk	-10.332
▁closed	-10.3323
▁sc	-10.3329
hack	-10.334
bot	-10.3341
▁drivers	-10.3347
95	-10.335
▁pic	-10.3352
▁generated	-10.3356
▁opening	-10.336
▁useless	-10.3375
▁connections	-10.3376
▁08)	-10.3377
▁origin	-10.3379
▁closures	-10.3381
▁sneak	-10.3411
▁throw	-10.3413
▁gun	-10.3418
@	-10.3419
service	-10.3419
▁fundamental	-10.3421
▁moment	-10.3422
75	-10.3424
▁candidate	-10.3425
▁nail	-10.3428
▁guess	-10.3432
▁worry	-10.3434
ship	-10.3444
▁robotic	-10.3452
▁threads	-10.3455
▁branding	-10.3465
code	-10.3472
▁expose	-10.3473
▁difficult	-10.3479
▁acquisitions	-10.3481
ana	-10.3482
ative	-10.3482
▁si	-10.3488
▁illusion	-10.3491
▁league	-10.3491
▁neural	-10.3491
▁sergey	-10.3491
▁joost	-10.3491
▁mercurial	-10.3491
▁kansas	-10.3491
▁october	-10.3491
▁gossip	-10.3491
▁couple	-10.3492
▁trump	-10.3492
▁nbc	-10.3492
▁desk	-10.3492
▁valuable	-10.3492
▁simulation	-10.3492
mod	-10.3493
▁rating	-10.3493
▁ni	-10.3494
▁glass	-10.3494
sf	-10.3497
▁slashdot	-10.3497
▁personalized	-10.3498
▁appengine	-10.3499
▁aid	-10.3502
form	-10.3511
▁intelligent	-10.3512
▁sink	-10.3513
just	-10.3519
▁rain	-10.3522
▁joy	-10.3523
▁experiences	-10.3524
09)	-10.3526
▁milk	-10.3529
came	-10.3531
▁shake	-10.3531
▁orbit	-10.3536
▁haven	-10.3539
4)	-10.3544
ang	-10.3546
▁rim	-10.3551
ins	-10.3553
▁cnet	-10.3561
▁transform	-10.3564
▁plant	-10.3566
▁input	-10.3567
▁ror	-10.3587
fer	-10.3588
▁icons	-10.3592
▁waiting	-10.3593
▁3.1	-10.3611
▁disc	-10.3611
▁packages	-10.3614
▁metal	-10.363
▁nerds	-10.3631
fa	-10.3644
▁puzzles	-10.3654
ev	-10.3661
▁architect	-10.3672
making	-10.3675
▁notebook	-10.3677
brain	-10.3677
▁invention	-10.3679
▁sue	-10.3679
▁tw	-10.368
▁citizen	-10.3685
300	-10.3689
▁fool	-10.369
▁piece	-10.3691
▁marketers	-10.3694
are	-10.3694
▁chair	-10.3699
▁ken	-10.3713
cy	-10.3716
▁thinks	-10.3717
fire	-10.3722
air	-10.3725
▁optimize	-10.3729
▁sch	-10.3734
rank	-10.3739
▁favor	-10.3741
▁album	-10.3741
▁annual	-10.3741
▁duthel	-10.3741
▁genome	-10.3741
▁monopoly	-10.3741
▁24/7	-10.3741
▁rfid	-10.3741
▁infringement	-10.3741
▁senate	-10.3741
▁zoho	-10.3741
▁twice	-10.3742
▁reserve	-10.3742
▁trademark	-10.3742
▁species	-10.3742
▁validation	-10.3742
▁portability	-10.3743
▁flock	-10.3744
▁hide	-10.3745
▁elite	-10.3745
▁avatar	-10.3746
▁parser	-10.3746
▁industrial	-10.3748
▁tower	-10.3748
▁goldman	-10.3748
▁injection	-10.375
▁shark	-10.3751
▁proxy	-10.3751
▁delivery	-10.3754
▁makeover	-10.3757
▁restful	-10.3757
▁platforms	-10.3757
▁memcached	-10.3761
▁invented	-10.3766
red	-10.377
▁alone	-10.377
▁writer	-10.3771
▁easter	-10.3776
▁provides	-10.378
start	-10.3781
▁fewer	-10.3783
▁addiction	-10.3806
▁$20	-10.3806
▁ring	-10.3826
▁2000	-10.3835
▁failing	-10.3845
host	-10.385
▁requests	-10.3851
tion	-10.3856
▁rejects	-10.3861
▁older	-10.3861
▁$15	-10.3864
market	-10.3867
▁_	-10.3869
kin	-10.387
▁donate	-10.3884
▁asus	-10.3887
▁pays	-10.3891
▁scripts	-10.3898
▁menu	-10.3907
tz	-10.3908
nic	-10.3913
▁rentals	-10.3917
▁28	-10.3917
follow	-10.3926
▁leak	-10.3927
▁$500	-10.3928
▁27	-10.3929
▁gi	-10.3932
▁criminal	-10.3938
▁strip	-10.3942
▁collect	-10.3942
▁technique	-10.3944
▁figure	-10.3952
rm	-10.3975
▁serve	-10.3987
▁promo	-10.3992
▁leader	-10.3993
▁invests	-10.3995
▁catalog	-10.3997
▁manufacturing	-10.3997
▁murdoch	-10.3997
▁pownce	-10.3997
▁studies	-10.3997
▁vulnerable	-10.3997
▁zealand	-10.3997
▁accessories	-10.3997
▁kitchen	-10.3998
▁legacy	-10.3998
▁knol	-10.3998
▁entertainment	-10.3998
▁array	-10.3998
▁flexible	-10.3998
▁salary	-10.3998
▁impressive	-10.3998
▁spotify	-10.3999
▁acid	-10.3999
▁rejection	-10.3999
▁escape	-10.3999
▁duck	-10.4
▁actual	-10.4
▁phoenix	-10.4
▁collider	-10.4
▁photography	-10.4001
▁selection	-10.4002
▁engagement	-10.4004
▁resolution	-10.4006
▁quiz	-10.4008
▁capitalism	-10.4012
▁bits	-10.4012
▁oldest	-10.4015
://	-10.4022
ou	-10.4023
▁processes	-10.4027
▁ceos	-10.4028
▁suggests	-10.4028
▁crap	-10.4036
▁2.5	-10.4045
▁$300	-10.4046
▁conversations	-10.4049
▁unite	-10.4049
ery	-10.4055
▁blocked	-10.4058
▁alex	-10.4068
▁causes	-10.4072
▁gr	-10.4081
rate	-10.4085
▁fields	-10.4085
▁enable	-10.4095
right	-10.4107
▁bob	-10.4108
1)	-10.4116
▁fired	-10.4118
▁taken	-10.4118
▁explore	-10.4132
graph	-10.4134
master	-10.4148
▁switching	-10.4151
▁cluster	-10.4152
▁benchmark	-10.4164
▁ro	-10.4169
▁featured	-10.4176
chan	-10.4186
▁je	-10.4188
microsoft	-10.4189
▁olympics	-10.4205
▁hires	-10.4207
hr	-10.4211
▁beginner	-10.4213
▁strike	-10.4215
▁include	-10.4216
ung	-10.4244
▁90	-10.4245
▁motors	-10.4248
ever	-10.4251
▁nick	-10.426
▁malcolm	-10.4261
▁obsolete	-10.4261
▁universities	-10.4261
▁meebo	-10.4261
▁ocean	-10.4261
▁measuring	-10.4261
▁sarah	-10.4261
▁august	-10.4261
▁azure	-10.4261
▁craig	-10.4261
▁summit	-10.4261
▁garage	-10.4261
▁lightweight	-10.4261
▁binary	-10.4261
▁automatically	-10.4261
▁compression	-10.4262
▁simulator	-10.4263
▁panic	-10.4264
▁betting	-10.4264
▁dropbox	-10.4264
▁replacement	-10.4264
▁workplace	-10.4265
▁torvalds	-10.4265
▁sunday	-10.427
▁kiss	-10.4275
▁4.0	-10.4281
▁corner	-10.4283
▁seriously	-10.4288
▁range	-10.4298
▁targeted	-10.4323
▁te	-10.4324
▁fu	-10.4331
pan	-10.4332
▁cast	-10.4337
▁$30	-10.4343
▁sent	-10.4357
▁cracking	-10.4357
▁dc	-10.4359
▁noni	-10.436
▁oriented	-10.4361
lock	-10.4362
ious	-10.4374
▁items	-10.4375
promotional	-10.438
▁paint	-10.4382
▁editors	-10.4395
▁son	-10.4396
▁comet	-10.4402
▁hopes	-10.4408
▁trace	-10.4429
page	-10.4434
▁scenes	-10.4439
▁26	-10.444
▁ru	-10.4442
▁fr	-10.4442
class	-10.4459
facebook	-10.446
pt	-10.4462
ple	-10.4464
aw	-10.4468
rt	-10.4468
▁argument	-10.4486
▁receive	-10.449
▁'08	-10.4493
▁rescue	-10.4501
▁approve	-10.4505
▁maintain	-10.4515
▁gate	-10.4525
table	-10.4525
▁egg	-10.4526
▁darwin	-10.453
▁casino	-10.4531
▁groovy	-10.4531
▁muscle	-10.4531
▁necessary	-10.4531
▁nielsen	-10.4531
▁struggle	-10.4531
▁tipjoy	-10.4531
▁wwdc	-10.4531
▁queries	-10.4531
▁vegas	-10.4531
▁dominate	-10.4531
▁continuous	-10.4531
▁gpu	-10.4531
▁regard	-10.4531
▁impossible	-10.4531
▁llc	-10.4531
▁execution	-10.4531
▁jvm	-10.4532
▁rackspace	-10.4532
▁tumblr	-10.4532
▁coast	-10.4532
▁disruptive	-10.4532
▁firmware	-10.4533
▁banner	-10.4533
5%	-10.4534
▁insights	-10.4536
▁sight	-10.4537
▁5800	-10.4538
▁ipv	-10.4538
▁probe	-10.454
▁dance	-10.4542
ach	-10.4543
▁ecommerce	-10.4544
▁coolest	-10.4546
▁nsa	-10.4547
▁investments	-10.455
▁msn	-10.456
▁fixes	-10.4563
600	-10.4565
▁billing	-10.4579
▁conduct	-10.4587
▁spa	-10.459
▁testers	-10.459
▁requirements	-10.4598
aka	-10.4601
ay	-10.4611
▁came	-10.4612
▁cancel	-10.4619
lar	-10.4619
tu	-10.462
▁whi	-10.4624
▁spammers	-10.4625
▁cu	-10.4627
▁cow	-10.4638
▁tracks	-10.4657
▁concerns	-10.4661
▁2008)	-10.4664
▁celebrate	-10.4667
▁landing	-10.4674
▁discusse	-10.4675
point	-10.4677
▁1000	-10.4681
verse	-10.4693
▁opt	-10.4693
▁builds	-10.4694
paper	-10.47
▁br	-10.4705
▁operations	-10.4712
antitrust	-10.4714
▁urge	-10.4714
▁sounds	-10.4718
▁died	-10.4724
▁settle	-10.4726
▁sh	-10.4734
ug	-10.4735
▁prof	-10.4736
school	-10.4737
evolutionary	-10.4749
▁vendors	-10.4751
▁ability	-10.4755
▁speak	-10.4755
▁determine	-10.4756
lic	-10.4757
online	-10.4763
▁suggest	-10.4769
camp	-10.4778
well	-10.4781
some	-10.4788
▁sending	-10.4799
▁kar	-10.4801
▁propose	-10.4804
xi	-10.4805
▁virgin	-10.4808
▁chapter	-10.4809
▁consolidation	-10.4809
▁detroit	-10.4809
▁encourage	-10.4809
▁mumbai	-10.4809
▁negotiation	-10.4809
▁syndrome	-10.4809
▁themselves	-10.4809
▁transparency	-10.4809
▁vulnerabilities	-10.4809
▁wrote	-10.4809
▁false	-10.4809
▁typography	-10.4809
▁fruit	-10.4809
▁bollywood	-10.4809
▁pizza	-10.4809
▁milestone	-10.4809
▁ecosystem	-10.4809
▁nytimes	-10.4809
▁internship	-10.4809
▁wimax	-10.4809
▁biology	-10.4809
▁8.04	-10.481
▁dhh	-10.481
▁madoff	-10.481
▁warcraft	-10.481
▁reboot	-10.4811
▁exactly	-10.4811
▁divorce	-10.4812
▁xhtml	-10.4812
▁documentary	-10.4812
▁taught	-10.4814
▁dictionary	-10.4814
▁airport	-10.4815
▁thu	-10.4816
▁incredible	-10.4818
▁dust	-10.4819
▁sponsor	-10.482
▁reply	-10.482
▁export	-10.4821
har	-10.483
▁scanner	-10.4833
▁nh	-10.4833
▁ver	-10.4838
▁whatever	-10.4845
▁perform	-10.4845
▁moral	-10.4849
▁rendering	-10.485
▁:)	-10.4859
bn	-10.486
▁yard	-10.486
▁pot	-10.4861
▁frank	-10.4863
▁ycombinator	-10.4875
mar	-10.4887
▁origins	-10.4889
▁rumors	-10.4895
▁vint	-10.4904
▁applicants	-10.4905
▁solved	-10.4917
▁stealing	-10.4923
▁seem	-10.4933
ui	-10.4957
▁improved	-10.4966
800	-10.4971
zi	-10.4973
fly	-10.4993
▁sad	-10.4993
play	-10.5009
check	-10.5019
▁09	-10.502
profit	-10.502
beta	-10.5034
tag	-10.5039
▁pl	-10.5039
▁grant	-10.5047
apps	-10.505
▁300	-10.5051
▁homes	-10.5054
ification	-10.5071
▁benefit	-10.5072
▁suggestion	-10.5074
▁module	-10.5075
▁debut	-10.5075
▁customize	-10.5085
best	-10.5087
▁laugh	-10.5092
▁twist	-10.5093
▁divide	-10.5094
▁anniversary	-10.5094
▁arduino	-10.5094
▁furniture	-10.5094
▁hammer	-10.5094
▁messenger	-10.5094
▁vector	-10.5094
▁vertical	-10.5094
▁icahn	-10.5094
▁portfolio	-10.5095
▁straight	-10.5095
▁criticism	-10.5095
▁thumb	-10.5095
▁radar	-10.5095
▁slick	-10.5095
▁unemployment	-10.5095
▁chaos	-10.5095
▁knight	-10.5096
▁fault	-10.5096
▁wife	-10.5096
▁spent	-10.5097
▁border	-10.5098
▁reaction	-10.5098
▁tinyurl	-10.5098
▁definition	-10.5099
▁quietly	-10.51
rn	-10.5102
▁diego	-10.5102
▁charles	-10.5102
▁truly	-10.5102
▁cr	-10.5103
▁payday	-10.5107
▁contacts	-10.5108
▁cheapest	-10.5108
▁sl	-10.5111
▁pilot	-10.5119
▁irc	-10.5121
▁cartoon	-10.5121
▁bold	-10.5126
▁published	-10.5133
▁integrate	-10.5136
▁effectively	-10.5137
▁publish	-10.5138
▁benchmarks	-10.5149
head	-10.5152
000	-10.5152
▁hop	-10.516
▁shaw	-10.5175
▁agent	-10.5175
za	-10.5176
▁32	-10.5177
▁meter	-10.5184
▁unveiled	-10.5192
▁bots	-10.5192
ight	-10.5194
▁matching	-10.5195
set	-10.5206
long	-10.5207
▁zed	-10.5217
▁asia	-10.5218
▁declare	-10.5222
▁centers	-10.5229
fish	-10.5238
▁3-	-10.5239
▁eating	-10.524
▁holding	-10.5246
▁airline	-10.5247
▁et	-10.5251
▁experiments	-10.5273
▁crowds	-10.5273
▁hu	-10.5276
pay	-10.5287
funded	-10.5301
stream	-10.5304
generated	-10.5316
browser	-10.5317
platform	-10.5317
▁drink	-10.532
▁loading	-10.5322
geek	-10.5323
▁gamers	-10.5326
▁shrink	-10.5332
stage	-10.5333
▁mashups	-10.5338
▁notifications	-10.5356
party	-10.5358
▁individual	-10.5367
fs	-10.5373
▁doctor	-10.5373
▁holidays	-10.5374
▁statement	-10.5381
▁tank	-10.5387
▁accessibility	-10.5388
▁dilbert	-10.5388
▁initiative	-10.5388
▁licensing	-10.5388
▁mysterious	-10.5388
▁pentagon	-10.5388
▁wizard	-10.5388
▁icann	-10.5389
▁austin	-10.5389
▁emergency	-10.5389
▁aaron	-10.5389
▁plastic	-10.5389
▁(2007)	-10.5389
▁wholesale	-10.5389
▁philip	-10.5389
▁tired	-10.5389
▁baseball	-10.5389
▁enhancement	-10.539
▁boring	-10.539
▁define	-10.5391
▁multitouch	-10.5391
▁ghost	-10.5392
dev	-10.5392
▁gender	-10.5392
▁gut	-10.5392
▁hong	-10.5394
▁animated	-10.5394
▁georgia	-10.5394
▁workshop	-10.5396
▁colleges	-10.5399
face	-10.5399
▁heroes	-10.5399
▁attract	-10.54
▁fbi	-10.5401
▁reduc	-10.5402
▁label	-10.5403
▁airlines	-10.5404
ker	-10.5405
▁forbes	-10.5406
▁trap	-10.5406
▁uc	-10.5406
▁assembly	-10.5407
▁gary	-10.541
▁pixel	-10.5411
▁reviewed	-10.5413
▁pitches	-10.5413
▁gnome	-10.5414
▁directly	-10.5415
▁lucky	-10.5416
▁rethinking	-10.5417
nch	-10.5417
▁doom	-10.5418
▁angeles	-10.542
▁seems	-10.5422
▁quite	-10.5429
▁stor	-10.5438
▁phd	-10.5439
▁alto	-10.544
▁confessions	-10.5442
▁perils	-10.5452
▁cannot	-10.5456
▁stocks	-10.5462
▁payments	-10.5471
▁writers	-10.5479
server	-10.5479
▁sin	-10.5481
▁pan	-10.5484
▁plants	-10.5485
▁pie	-10.5497
fin	-10.5497
round	-10.55
▁earnings	-10.5501
tur	-10.5504
ches	-10.5515
▁falls	-10.5519
▁cop	-10.5522
▁hy	-10.5536
▁sorting	-10.5538
zing	-10.5544
block	-10.5556
▁arrives	-10.5561
▁opensource	-10.5564
01	-10.5569
mine	-10.5575
▁bat	-10.558
▁vid	-10.5585
▁fights	-10.5594
▁streams	-10.5596
▁carl	-10.5609
related	-10.562
▁toys	-10.5623
▁staying	-10.5625
month	-10.5627
▁execs	-10.5628
▁rings	-10.5629
hour	-10.563
▁gig	-10.5635
step	-10.5642
hut	-10.5645
▁spaces	-10.5645
cc	-10.565
gate	-10.5651
tree	-10.5654
▁sand	-10.5656
▁upon	-10.5658
▁bullet	-10.5659
▁wear	-10.5664
kill	-10.5664
▁dar	-10.5665
▁45	-10.5682
▁insight	-10.5688
▁abstract	-10.5689
▁titan	-10.5691
▁dedicated	-10.5692
▁distraction	-10.5692
▁implications	-10.5692
▁mechanics	-10.5692
▁saturday	-10.5692
▁ubiquity	-10.5692
▁enemy	-10.5692
▁spore	-10.5692
▁telescope	-10.5692
▁properties	-10.5692
▁initial	-10.5692
▁toronto	-10.5692
▁curious	-10.5692
▁forgotten	-10.5692
▁catalyst	-10.5692
ville	-10.5692
▁accuse	-10.5693
▁tagging	-10.5693
▁campus	-10.5693
▁bonus	-10.5694
gram	-10.5694
▁ssl	-10.5695
▁procrastination	-10.5695
▁textmate	-10.5696
bug	-10.5696
▁handset	-10.5696
▁botnet	-10.5698
▁simpledb	-10.5699
▁stem	-10.5701
▁fact	-10.5702
▁injury	-10.5704
▁sheets	-10.5705
▁truck	-10.5707
▁expression	-10.5708
card	-10.5708
▁israeli	-10.5709
▁brown	-10.5709
▁viable	-10.571
▁floating	-10.5717
works	-10.572
▁boxes	-10.5721
▁agree	-10.5721
▁approaches	-10.5722
▁jan	-10.5733
▁missed	-10.5735
▁frame	-10.5738
▁handy	-10.5739
rc	-10.5746
▁iii	-10.5747
▁shrinking	-10.575
▁clones	-10.5751
▁beach	-10.5752
▁checking	-10.5753
lr	-10.5792
▁savings	-10.5796
▁tom	-10.5801
▁linking	-10.5801
▁signals	-10.5804
put	-10.5815
▁halt	-10.5819
yn	-10.5821
▁delivers	-10.5829
own	-10.5831
▁md	-10.584
ities	-10.5858
▁kicks	-10.5859
▁unusual	-10.5866
▁prepar	-10.5875
▁reporter	-10.5875
pp	-10.5877
roll	-10.5884
state	-10.5892
▁2005	-10.5893
▁correct	-10.5894
▁yui	-10.5901
64	-10.5901
▁ch	-10.5903
apple	-10.5903
ris	-10.5904
▁met	-10.5918
▁holes	-10.592
▁boys	-10.5921
cur	-10.5923
domain	-10.5932
def	-10.5934
ycombinator	-10.5935
useful	-10.5935
▁gov	-10.5944
info	-10.5944
▁clicks	-10.5945
▁animals	-10.5949
chat	-10.5949
ok	-10.5956
cost	-10.5961
▁modeling	-10.5964
▁alt	-10.5964
press	-10.5966
aware	-10.5967
▁99	-10.5968
beat	-10.597
▁fold	-10.5978
2009	-10.5979
▁orders	-10.598
▁drag	-10.5984
▁buttons	-10.5997
windows	-10.6001
▁extract	-10.6003
▁honest	-10.6003
▁certificate	-10.6004
▁comprehensive	-10.6004
▁infinite	-10.6004
▁poverty	-10.6004
▁seinfeld	-10.6004
▁simplify	-10.6004
▁symbian	-10.6004
▁thomas	-10.6004
▁trojan	-10.6004
▁wozniak	-10.6004
▁respect	-10.6004
▁perkins	-10.6004
▁tahiti	-10.6004
▁doctorow	-10.6004
▁gigaom	-10.6004
▁dashboard	-10.6004
▁orange	-10.6005
▁migration	-10.6005
▁billionaire	-10.6006
▁parsing	-10.6006
▁echo	-10.6006
▁filing	-10.6006
▁iranian	-10.6006
▁grip	-10.6007
▁insert	-10.6007
▁prank	-10.6008
▁adventure	-10.6009
▁overrated	-10.6009
▁member	-10.6009
▁plain	-10.6009
▁casual	-10.601
cell	-10.601
▁coder	-10.6011
▁sketch	-10.6015
▁telecom	-10.6015
▁reward	-10.6016
▁regulation	-10.6017
▁commit	-10.6019
▁african	-10.6019
▁personality	-10.6021
▁serving	-10.6021
mann	-10.6021
▁protest	-10.6024
▁browse	-10.6025
▁county	-10.6025
▁losses	-10.6034
▁rat	-10.6036
▁podcasts	-10.6045
sort	-10.6046
▁versions	-10.6047
▁bird	-10.6047
▁choices	-10.6048
▁larger	-10.6052
▁labor	-10.6053
▁beginners	-10.6062
▁leaks	-10.6073
sea	-10.6073
▁advantages	-10.6081
▁1,	-10.6084
gle	-10.6088
sphere	-10.6089
▁raised	-10.6089
▁osx	-10.6091
doc	-10.6102
▁48	-10.6134
▁tactics	-10.6142
▁2.2	-10.6147
▁picking	-10.6155
▁rev	-10.6162
▁provid	-10.617
may	-10.6172
▁williams	-10.6175
▁xss	-10.6192
run	-10.6199
▁heads	-10.6209
▁reported	-10.6216
▁(1	-10.6219
ari	-10.622
▁cleaning	-10.6228
▁assets	-10.6228
cat	-10.6231
▁joining	-10.6231
▁heading	-10.6241
af	-10.6242
print	-10.6251
flash	-10.6256
grid	-10.6256
speed	-10.6257
plus	-10.6258
▁journalists	-10.6264
▁cam	-10.6274
▁vp	-10.6279
watch	-10.6282
▁$12	-10.6282
▁trash	-10.6284
▁hosts	-10.6293
▁sap	-10.6297
▁achieve	-10.6299
32	-10.6301
▁trolls	-10.6301
dis	-10.6302
▁io	-10.6303
▁brin	-10.6312
your	-10.6313
▁colon	-10.6313
▁recording	-10.6315
▁rewards	-10.6319
▁bootstrap	-10.6326
▁approval	-10.6327
▁bacteria	-10.6327
▁chocolate	-10.6327
▁conflict	-10.6327
▁invitation	-10.6327
▁recursion	-10.6327
▁repository	-10.6327
▁senior	-10.6327
▁tunnel	-10.6327
▁reliable	-10.6327
▁dutch	-10.6327
▁clothing	-10.6327
▁administration	-10.6327
▁murder	-10.6327
▁further	-10.6327
▁ocaml	-10.6327
▁dmca	-10.6327
▁gateway	-10.6327
▁firewall	-10.6328
▁stallman	-10.6328
▁settlement	-10.6328
▁toilet	-10.6328
▁filesystem	-10.6328
▁valleywag	-10.6329
▁bump	-10.6329
▁motorcycle	-10.633
▁authority	-10.6332
▁toolbar	-10.6332
▁norvig	-10.6333
▁knew	-10.6333
▁lessig	-10.6333
▁recap	-10.6333
▁shame	-10.6333
met	-10.6333
▁adopters	-10.6335
▁tokyo	-10.6335
▁cbs	-10.6335
▁scary	-10.6336
▁grab	-10.6337
▁volume	-10.6337
▁abuse	-10.6338
▁doubleclick	-10.6338
▁cake	-10.6339
▁brother	-10.634
▁pad	-10.634
▁ease	-10.6343
▁remain	-10.6343
▁10%	-10.6346
▁ri	-10.6347
▁tribe	-10.6349
▁germany	-10.6349
▁router	-10.635
▁differences	-10.6351
▁crashes	-10.6353
▁seek	-10.6355
▁lamp	-10.6357
▁doug	-10.6358
▁lib	-10.6358
ik	-10.6361
▁foot	-10.6361
▁dean	-10.6361
▁exposed	-10.6362
▁mash	-10.6363
▁va	-10.637
▁surfing	-10.6371
▁mag	-10.6374
▁programm	-10.6385
▁successfully	-10.6396
▁motor	-10.6398
▁soar	-10.6401
▁2.1	-10.6403
oke	-10.641
▁1)	-10.6411
nc	-10.6414
▁cooking	-10.6416
▁hints	-10.6418
▁knows	-10.6419
▁ratings	-10.6419
▁macs	-10.6421
ised	-10.6422
▁eff	-10.6429
▁revenues	-10.6431
▁rolling	-10.6436
▁lua	-10.644
par	-10.644
ney	-10.6453
▁ces	-10.6456
▁deadly	-10.6459
▁focused	-10.6461
▁burning	-10.6463
▁steel	-10.6465
▁rewrite	-10.6467
▁upgrades	-10.6477
tric	-10.6483
shirts	-10.6485
mind	-10.6488
▁ratio	-10.6496
row	-10.6501
▁$	-10.6502
plan	-10.6503
▁giants	-10.6513
▁sem	-10.6516
▁developed	-10.6527
▁row	-10.6539
▁onto	-10.6539
▁added	-10.6552
▁pipe	-10.6556
▁contracts	-10.6558
▁xo	-10.6564
▁monetiz	-10.6573
▁newest	-10.6578
rb	-10.658
launch	-10.6584
high	-10.6587
dollar	-10.6588
second	-10.6588
▁opinions	-10.6593
ain	-10.6599
▁thefunded	-10.66
▁broadcast	-10.6603
ink	-10.6603
▁weigh	-10.6611
▁broke	-10.6622
▁uni	-10.6629
▁troll	-10.6632
3,	-10.6639
▁translate	-10.664
▁surge	-10.6642
▁evaluat	-10.6646
▁evolve	-10.665
▁showing	-10.6658
▁appliance	-10.666
▁conficker	-10.666
▁incorporate	-10.666
▁maintenance	-10.666
▁marijuana	-10.666
▁promising	-10.666
▁relevant	-10.666
▁stackoverflow	-10.666
▁wednesday	-10.666
▁blogosphere	-10.666
▁draft	-10.666
▁javafx	-10.666
▁presence	-10.666
▁scrum	-10.666
▁hydrogen	-10.666
▁unicode	-10.666
▁garmin	-10.666
▁sentence	-10.666
▁geolocation	-10.6661
▁surgery	-10.6661
▁radiohead	-10.6661
▁automation	-10.6662
▁msft	-10.6662
▁bail	-10.6662
▁revision	-10.6663
▁mentor	-10.6663
▁stuck	-10.6663
▁2012	-10.6664
▁crunchies	-10.6664
▁apparently	-10.6665
▁railsconf	-10.6665
▁naked	-10.6666
▁terminal	-10.6666
▁daniel	-10.6666
▁expressions	-10.6667
▁heavy	-10.6669
▁filters	-10.667
▁robo	-10.667
▁evan	-10.6672
▁unknown	-10.6672
▁roman	-10.6673
▁viruses	-10.6674
▁concepts	-10.6674
▁psp	-10.6674
ide	-10.6674
▁invisible	-10.6674
▁palo	-10.6675
▁uber	-10.6676
▁rough	-10.6677
▁paste	-10.6678
▁pig	-10.668
▁restaurant	-10.6681
▁pump	-10.6682
▁distance	-10.6685
▁respond	-10.6686
▁principle	-10.6688
▁fuck	-10.6691
▁lifestyle	-10.6694
▁brick	-10.6695
▁cookie	-10.6695
cut	-10.6696
▁appear	-10.6697
▁extended	-10.6698
▁improvement	-10.6699
▁webcam	-10.6701
▁forces	-10.6706
▁par	-10.6712
town	-10.6713
ass	-10.6714
▁xen	-10.6717
▁craft	-10.6722
▁sta	-10.6724
▁iron	-10.6724
fr	-10.6732
▁structured	-10.6732
▁folks	-10.6738
rad	-10.6739
yr	-10.6745
▁extending	-10.6754
▁robotics	-10.6755
38	-10.6775
ender	-10.6788
ea	-10.6789
▁wasn	-10.6798
comic	-10.68
6)	-10.6804
▁admits	-10.6807
▁masters	-10.6808
▁carriers	-10.681
3%	-10.6818
istic	-10.682
hot	-10.6826
▁displays	-10.6827
ible	-10.6831
▁researcher	-10.6833
▁cal	-10.6836
▁along	-10.6839
▁lee	-10.6848
dog	-10.6853
nathan	-10.6855
▁certain	-10.6856
cam	-10.686
▁saying	-10.6873
▁characters	-10.6875
ade	-10.6885
▁told	-10.6888
▁bookmarks	-10.6889
php	-10.6903
▁100,000	-10.691
▁roots	-10.6915
field	-10.6916
▁carr	-10.6924
▁700	-10.6926
count	-10.6928
▁auctions	-10.6931
▁35	-10.6941
pad	-10.6951
ren	-10.6959
▁complain	-10.6963
ular	-10.6965
▁concurrent	-10.7005
▁confidence	-10.7005
▁institute	-10.7005
▁medicine	-10.7005
▁tuesday	-10.7005
▁unexpected	-10.7005
▁dinner	-10.7005
▁excuse	-10.7005
▁guest	-10.7005
▁industries	-10.7005
▁weebly	-10.7005
▁hoax	-10.7005
▁barrier	-10.7005
▁brought	-10.7005
▁drunk	-10.7005
▁above	-10.7005
▁persistent	-10.7005
▁smoke	-10.7005
▁breath	-10.7005
▁population	-10.7005
▁colorado	-10.7005
▁section	-10.7005
▁diabetes	-10.7005
▁manipulation	-10.7006
▁deserve	-10.7006
▁mvp	-10.7006
▁harness	-10.7006
▁facial	-10.7006
▁antivirus	-10.7006
▁unlimited	-10.7006
▁transparent	-10.7009
▁kleiner	-10.7009
▁pu	-10.701
▁circle	-10.7011
▁innovate	-10.7012
▁topics	-10.7016
▁toolbox	-10.7019
▁doctors	-10.7024
ose	-10.7029
▁debuts	-10.7035
▁sample	-10.7038
▁schema	-10.7038
arious	-10.7041
▁weak	-10.7054
▁sco	-10.7064
▁nda	-10.7064
▁notification	-10.7066
▁$250	-10.7077
will	-10.7081
px	-10.7081
▁simon	-10.7092
▁removed	-10.7095
▁ethics	-10.7103
▁significant	-10.7107
int	-10.7111
lew	-10.7111
ust	-10.7118
pr	-10.7124
▁viacom	-10.7143
▁whe	-10.7144
▁hired	-10.7146
▁offered	-10.7169
ji	-10.717
▁hundreds	-10.7172
▁quits	-10.7179
▁pat	-10.7181
▁400	-10.7183
▁sw	-10.7186
▁tabs	-10.7187
▁bowl	-10.7208
▁wouldn	-10.7212
▁dig	-10.7222
▁1.2	-10.725
▁webos	-10.7253
▁pin	-10.7262
control	-10.7264
where	-10.7268
flow	-10.7273
▁weapon	-10.7277
▁professionals	-10.728
▁las	-10.7285
water	-10.7289
factor	-10.729
security	-10.729
django	-10.729
think	-10.7291
rea	-10.73
▁textbooks	-10.7304
case	-10.7305
▁spell	-10.7305
..."	-10.7309
▁emi	-10.7321
▁lighting	-10.7323
big	-10.733
ken	-10.7332
▁improvements	-10.7335
▁coloring	-10.7335
nna	-10.7336
▁finish	-10.7338
▁arrest	-10.7339
▁pipes	-10.7341
▁sla	-10.7345
▁cho	-10.7353
▁bag	-10.7355
▁cafe	-10.7356
▁liquid	-10.7358
▁retire	-10.7361
▁bluetooth	-10.7362
▁chicken	-10.7362
▁controversy	-10.7362
▁convince	-10.7362
▁doubt	-10.7362
▁economies	-10.7362
▁krugman	-10.7362
▁merchant	-10.7362
▁mirror	-10.7362
▁nginx	-10.7362
▁plaxo	-10.7362
▁stumble	-10.7362
▁swartz	-10.7362
▁treadmill	-10.7362
▁underground	-10.7362
▁alcohol	-10.7362
▁faith	-10.7362
▁plunge	-10.7362
▁defeat	-10.7362
▁prompt	-10.7362
▁inauguration	-10.7362
▁salaries	-10.7362
▁fbfund	-10.7362
▁compliance	-10.7362
▁loud	-10.7362
▁slashbe	-10.7362
▁therapy	-10.7362
▁democracy	-10.7362
▁breed	-10.7362
▁legend	-10.7363
▁sector	-10.7363
▁darpa	-10.7363
▁deadpool	-10.7363
▁curse	-10.7363
▁walmart	-10.7363
▁tivo	-10.7363
▁frontier	-10.7364
▁healthcare	-10.7364
▁guilty	-10.7366
▁fluid	-10.7367
▁ob	-10.7367
▁logos	-10.7368
val	-10.737
▁blank	-10.737
▁tcp	-10.7373
▁stopped	-10.7374
▁shadow	-10.7374
reader	-10.7374
sky	-10.7375
▁branch	-10.7375
▁miller	-10.7377
▁hall	-10.7379
▁usana	-10.738
▁satisfaction	-10.7382
▁etch	-10.7382
▁mount	-10.7382
▁shoe	-10.7383
▁cup	-10.7383
▁trail	-10.7384
▁availability	-10.7385
▁phase	-10.7385
▁humor	-10.7386
▁freak	-10.7387
▁smallest	-10.7387
▁spec	-10.7391
▁pushes	-10.7396
▁region	-10.7397
▁advance	-10.7397
▁proposed	-10.74
▁feet	-10.7401
▁premier	-10.7403
nh	-10.7405
▁corporation	-10.7409
▁nav	-10.7412
cap	-10.7412
▁screwed	-10.7414
▁bond	-10.7415
▁highest	-10.7415
▁layoff	-10.7418
▁dsl	-10.742
▁ext	-10.7425
▁downtime	-10.7433
▁millionaire	-10.7433
▁sport	-10.7436
▁scams	-10.7437
hub	-10.7437
▁5.3	-10.7445
▁caused	-10.7448
▁fools	-10.7448
▁controller	-10.7451
▁contain	-10.7455
▁mobileme	-10.7456
▁folders	-10.7456
▁64-	-10.746
▁vu	-10.746
▁throws	-10.7465
tta	-10.7466
▁guns	-10.7467
lf	-10.7469
del	-10.7473
pen	-10.7476
▁tam	-10.7478
pping	-10.7488
▁pit	-10.7492
▁hunting	-10.7497
▁fears	-10.7504
▁weblog	-10.7508
▁1,000	-10.7512
▁rankings	-10.7512
type	-10.7516
bin	-10.7519
▁viewing	-10.7524
▁worthless	-10.7527
css	-10.7538
▁monitors	-10.7539
▁hear	-10.7539
▁forex	-10.7558
try	-10.756
complete	-10.7562
hard	-10.7569
▁cha	-10.7583
▁reporting	-10.7598
▁accidental	-10.7606
ram	-10.761
too	-10.7629
▁consultants	-10.7631
▁cellphones	-10.7644
van	-10.7644
▁ink	-10.7645
pot	-10.7651
▁cases	-10.7653
found	-10.7654
==	-10.7654
▁bucks	-10.766
machine	-10.766
programmer	-10.7661
▁recover	-10.7666
▁crypto	-10.7667
image	-10.7667
great	-10.7673
developer	-10.7674
▁attend	-10.7675
▁$25	-10.7681
▁gem	-10.7684
order	-10.7687
▁sm	-10.7707
▁doors	-10.7715
▁analog	-10.7721
▁mathematica	-10.7724
▁phil	-10.7724
wiki	-10.7726
▁strength	-10.7726
see	-10.7727
▁symbol	-10.7729
▁investigat	-10.773
▁equation	-10.7732
▁fantastic	-10.7732
▁gartner	-10.7732
▁gawker	-10.7732
▁immigration	-10.7732
▁optimal	-10.7732
▁revenge	-10.7732
▁songkick	-10.7732
▁surveillance	-10.7732
▁bullshit	-10.7732
▁newsletter	-10.7732
▁competing	-10.7732
▁consumption	-10.7732
▁abroad	-10.7732
▁alliance	-10.7732
▁berners	-10.7732
▁clothes	-10.7732
▁zimbra	-10.7732
▁brew	-10.7732
▁persistence	-10.7732
centric	-10.7732
▁commandments	-10.7732
▁angry	-10.7733
▁elastic	-10.7733
▁cinema	-10.7733
▁exciting	-10.7733
▁assistant	-10.7733
▁ddos	-10.7733
▁encyclopedia	-10.7733
▁netscape	-10.7733
▁fallacy	-10.7733
▁virginia	-10.7733
▁airplane	-10.7734
▁barcode	-10.7734
▁seesmic	-10.7734
▁genes	-10.7735
▁conway	-10.7735
▁dojo	-10.7736
▁idol	-10.7736
▁blast	-10.7736
▁handbook	-10.7738
▁calculus	-10.7739
▁ninja	-10.7739
▁church	-10.7739
▁gphone	-10.774
▁myself	-10.774
▁evolving	-10.7742
▁historical	-10.7742
▁generic	-10.7743
▁functionality	-10.7743
▁installation	-10.7743
▁dick	-10.7744
▁null	-10.7746
▁misses	-10.7746
▁busy	-10.7751
▁gtd	-10.7753
▁svn	-10.7758
ane	-10.7759
▁mouth	-10.7761
▁alien	-10.7765
▁triple	-10.7769
▁cry	-10.777
▁ssh	-10.7771
▁zip	-10.7772
▁shit	-10.7772
any	-10.7776
▁recruiting	-10.7779
ving	-10.7779
ld	-10.778
nation	-10.7782
▁eggs	-10.7789
vent	-10.7792
▁wikia	-10.7793
▁recommended	-10.7794
▁cracked	-10.7797
▁animal	-10.7798
▁08	-10.7801
rin	-10.7806
▁intern	-10.7806
▁textbook	-10.7814
ison	-10.7815
▁stat	-10.7815
▁fb	-10.782
▁aging	-10.7825
▁(2006	-10.7825
▁ria	-10.783
▁adams	-10.7847
▁musicians	-10.785
▁includes	-10.785
▁instance	-10.7856
wa	-10.7865
▁freelancers	-10.7866
▁csi	-10.7871
other	-10.7874
▁5.0	-10.7875
▁aig	-10.7878
vin	-10.7879
▁listening	-10.7879
▁allen	-10.788
▁prop	-10.7885
▁sellers	-10.7911
▁arms	-10.7924
▁resig	-10.7924
700	-10.7924
▁tweaks	-10.7924
▁bare	-10.7928
han	-10.7929
▁scan	-10.7936
2005)	-10.7939
▁levels	-10.7944
▁keywords	-10.795
▁creators	-10.7956
friend	-10.7963
inch	-10.7974
care	-10.799
stone	-10.7998
▁shots	-10.8013
▁sv	-10.8014
▁macros	-10.8034
▁64	-10.8038
lib	-10.8039
▁mal	-10.8041
▁cia	-10.8043
speak	-10.8045
podcast	-10.8045
[	-10.8045
first	-10.8045
hy	-10.8046
billion	-10.8049
almost	-10.8051
cool	-10.8054
▁counts	-10.8058
store	-10.8058
▁jailbreak	-10.8059
▁ebooks	-10.8059
▁disappear	-10.8059
▁journalist	-10.8068
▁posted	-10.8069
▁ku	-10.8071
▁hasn	-10.8074
buy	-10.8075
▁values	-10.8078
▁enhance	-10.808
▁render	-10.8082
▁cameras	-10.8083
feed	-10.8086
hold	-10.8087
▁hal	-10.8091
ill	-10.8099
▁sharp	-10.8102
▁youth	-10.8111
▁2.6	-10.8111
aqi	-10.8112
▁disrupt	-10.8113
possibly	-10.8117
▁alleged	-10.8117
▁capacity	-10.8117
▁configuration	-10.8117
▁demonstrate	-10.8117
▁gambling	-10.8117
▁heaven	-10.8117
▁influential	-10.8117
▁lehman	-10.8117
▁overhaul	-10.8117
▁rogue	-10.8117
▁segway	-10.8117
▁sugar	-10.8117
▁toshiba	-10.8117
▁transplant	-10.8117
▁memories	-10.8117
▁parrot	-10.8117
▁supply	-10.8117
▁tetris	-10.8117
▁floor	-10.8117
▁retain	-10.8117
▁douglas	-10.8117
▁aussie	-10.8117
▁orkut	-10.8117
▁buffer	-10.8117
▁aggregation	-10.8117
▁museum	-10.8117
▁biological	-10.8117
▁creek	-10.8117
▁spike	-10.8117
▁duplicate	-10.8117
▁smell	-10.8117
▁theorem	-10.8117
▁basecamp	-10.8118
▁expectations	-10.8118
▁thiel	-10.8118
▁defcon	-10.8118
▁inflation	-10.8118
▁western	-10.8118
▁physicists	-10.8118
▁classroom	-10.8118
▁blueprint	-10.8118
▁dreamhost	-10.8119
▁madness	-10.8119
▁roadmap	-10.8119
▁shutdown	-10.812
▁vps	-10.8121
▁lonely	-10.8121
▁touchscreen	-10.8121
▁shuffle	-10.8121
▁diary	-10.8122
▁wake	-10.8123
▁datacenter	-10.8123
▁commentary	-10.8123
▁kpss	-10.8126
▁fee	-10.8126
▁randy	-10.8126
▁output	-10.8132
▁sick	-10.8132
▁gray	-10.8136
....	-10.8137
▁below	-10.8138
▁ce	-10.8141
▁switches	-10.8141
▁bind	-10.8141
▁swarm	-10.8144
▁helpful	-10.8144
▁gravity	-10.8144
home	-10.8147
▁saw	-10.8149
▁molecule	-10.816
▁cdn	-10.8168
▁1.6	-10.8169
▁29	-10.8173
▁anger	-10.8183
rich	-10.8183
▁thrive	-10.8192
ow	-10.8193
ography	-10.8194
▁olympic	-10.8199
▁vendor	-10.8201
serv	-10.8203
▁mai	-10.8215
▁shortcuts	-10.8239
▁authors	-10.8244
▁bro	-10.8244
low	-10.8251
▁ol	-10.8259
▁flag	-10.8262
call	-10.8268
▁igoogle	-10.8272
72	-10.8285
idea	-10.8286
▁2)	-10.8295
gra	-10.8299
▁qt	-10.8322
amp	-10.8325
▁revolutionize	-10.8326
▁climb	-10.8332
▁worked	-10.8337
tract	-10.8341
71	-10.8342
▁innovators	-10.8347
▁films	-10.8348
▁coin	-10.8355
▁cent	-10.8361
▁strings	-10.837
▁31	-10.8377
▁bets	-10.8377
edge	-10.8381
4%	-10.8381
door	-10.8381
▁moo	-10.8391
▁cad	-10.8392
▁(198	-10.8392
110	-10.8408
▁economists	-10.8409
via	-10.8413
▁executives	-10.8419
ror	-10.842
▁sessions	-10.8422
hire	-10.8425
write	-10.8428
die	-10.8431
▁officer	-10.8431
html	-10.8438
▁partial	-10.8441
sense	-10.8442
depth	-10.8443
jack	-10.8443
sheet	-10.8444
ubuntu	-10.8445
scheme	-10.8445
voice	-10.8446
software	-10.8446
have	-10.8447
rie	-10.8448
▁aliens	-10.8449
spam	-10.8452
▁solo	-10.8454
soft	-10.8455
▁adapt	-10.8457
▁gil	-10.8458
project	-10.846
▁exam	-10.8464
▁mor	-10.8469
fp	-10.847
entrepreneur	-10.8472
killer	-10.8474
▁fighter	-10.8479
shop	-10.8489
▁fran	-10.8499
▁caps	-10.85
▁adventures	-10.8514
▁lunar	-10.8516
▁mock	-10.8516
▁horizon	-10.8517
▁spirit	-10.8517
▁acceleration	-10.8517
▁agencies	-10.8517
▁cabinet	-10.8517
▁caffeine	-10.8517
▁category	-10.8517
▁desperate	-10.8517
▁elephant	-10.8517
▁inevitable	-10.8517
▁kurzweil	-10.8517
▁ozzie	-10.8517
▁ponzi	-10.8517
▁psystar	-10.8517
▁ridiculous	-10.8517
▁skydiving	-10.8517
▁smoking	-10.8517
▁truemors	-10.8517
▁volunteer	-10.8517
▁yegge	-10.8517
▁carmack	-10.8517
▁christian	-10.8517
▁profiling	-10.8517
▁refactoring	-10.8517
▁microsystems	-10.8517
▁xpressmusic	-10.8517
▁prototyping	-10.8517
▁skateboard	-10.8517
▁swiss	-10.8517
▁sudoku	-10.8517
▁8.10	-10.8517
▁landscape	-10.8517
▁festival	-10.8517
▁engadget	-10.8517
▁embed	-10.8517
▁encoding	-10.8517
▁empty	-10.8517
▁motivate	-10.8517
▁juice	-10.8517
▁cliff	-10.8517
▁ownership	-10.8518
▁quake	-10.8518
▁fossil	-10.8518
▁90%	-10.8518
▁acne	-10.8518
▁theories	-10.8518
▁bounce	-10.8518
▁subway	-10.8519
▁passionate	-10.8519
▁burst	-10.852
▁cdma	-10.852
▁chairman	-10.852
▁external	-10.8521
▁recall	-10.8522
▁maris	-10.8522
▁steam	-10.8522
▁freebsd	-10.8523
▁overnight	-10.8523
▁prolog	-10.8523
▁overtake	-10.8524
▁explosion	-10.8524
▁hospital	-10.8524
▁malicious	-10.8524
▁showdown	-10.8525
▁nuke	-10.8526
▁revolutionary	-10.8527
ipod	-10.8529
▁chemical	-10.853
▁deadline	-10.8531
▁gwt	-10.8533
▁chemistry	-10.8533
▁reuse	-10.8534
▁friendster	-10.8537
▁multitasking	-10.8537
▁inspirational	-10.8537
▁junk	-10.8538
▁oc	-10.8539
▁lying	-10.8541
▁businessweek	-10.8543
▁atari	-10.8547
▁nj	-10.8547
ude	-10.8549
▁annoying	-10.8555
fit	-10.8556
paid	-10.8562
▁gay	-10.8562
▁crawler	-10.8562
▁environmental	-10.8567
▁remotely	-10.8568
▁jay	-10.8574
▁included	-10.8574
▁accepted	-10.8576
2%	-10.8578
▁sir	-10.8582
▁webmaster	-10.8583
▁dry	-10.8584
ky	-10.8585
▁mood	-10.8587
▁develops	-10.8588
▁steroids	-10.8591
▁1%	-10.8594
▁ear	-10.8606
nov	-10.8608
▁bottle	-10.8608
▁charged	-10.8609
▁victim	-10.861
bionic	-10.8615
working	-10.8616
▁estimate	-10.8616
▁shortener	-10.8618
▁buck	-10.8622
▁flowers	-10.8632
▁asian	-10.8632
▁8-	-10.8632
▁headed	-10.864
▁tube	-10.864
▁mpg	-10.864
bel	-10.8646
▁processors	-10.8647
▁grads	-10.8648
ending	-10.8667
▁shareholders	-10.8671
ven	-10.8683
▁rom	-10.8685
▁titles	-10.87
berg	-10.8714
hop	-10.8714
▁tru	-10.8717
▁speakers	-10.872
umb	-10.8722
gl	-10.8727
bed	-10.8739
photo	-10.8739
▁materials	-10.874
ties	-10.8751
▁den	-10.8756
▁bull	-10.8761
▁iv	-10.8765
▁stra	-10.877
▁'09	-10.8777
▁semi	-10.8785
▁byte	-10.8793
▁mathematicians	-10.8793
sourced	-10.8802
▁eliminate	-10.8807
▁feds	-10.8811
tune	-10.8819
▁expands	-10.8821
tube	-10.8826
az	-10.8828
engineering	-10.8831
85	-10.8843
▁minimal	-10.8846
▁wing	-10.8852
craft	-10.8853
again	-10.8859
▁colors	-10.8859
programming	-10.8862
simple	-10.8862
people	-10.8862
▁audit	-10.8862
prime	-10.8864
fall	-10.887
▁mayer	-10.8871
▁gather	-10.8879
byte	-10.8884
▁tasks	-10.8888
▁surf	-10.8891
▁mostly	-10.8891
version	-10.8892
02	-10.8894
▁macro	-10.8895
▁har	-10.89
away	-10.8907
▁knock	-10.8909
ition	-10.8911
room	-10.8912
▁swap	-10.8913
▁dom	-10.8913
zilla	-10.8918
▁greed	-10.8922
▁seeing	-10.8927
▁route	-10.8927
drive	-10.8927
▁describe	-10.893
▁arizona	-10.8934
▁bizarre	-10.8934
▁cocaine	-10.8934
▁description	-10.8934
▁expansion	-10.8934
▁gvke	-10.8934
▁jaiku	-10.8934
▁leverage	-10.8934
▁lithium	-10.8934
▁prospect	-10.8934
▁retention	-10.8934
▁singapore	-10.8934
▁supreme	-10.8934
▁surviving	-10.8934
▁terrible	-10.8934
▁yesterday	-10.8934
▁easiest	-10.8934
▁scrabulous	-10.8934
▁lhc	-10.8934
▁smith	-10.8934
▁affair	-10.8934
▁carpet	-10.8934
▁bmw	-10.8934
▁stunning	-10.8934
▁volt	-10.8934
▁embedding	-10.8934
▁beacon	-10.8934
▁dispute	-10.8934
▁foreclosure	-10.8934
▁bloom	-10.8934
▁activerecord	-10.8934
▁bicycle	-10.8934
▁footprint	-10.8934
▁conspiracy	-10.8934
▁ignorance	-10.8934
▁medium	-10.8934
▁sachs	-10.8934
▁river	-10.8934
▁harry	-10.8935
▁cracks	-10.8935
▁distro	-10.8935
▁shuttle	-10.8936
▁wonderful	-10.8936
▁replication	-10.8936
▁height	-10.8936
▁evaluation	-10.8937
▁profitability	-10.8937
▁insane	-10.8937
▁stir	-10.8937
▁pimp	-10.8937
▁breakdown	-10.8938
▁massage	-10.8938
▁mashable	-10.8938
uc	-10.8941
▁accurate	-10.8941
▁bonuses	-10.8942
▁except	-10.8942
▁skip	-10.8942
▁stupidity	-10.8943
▁retweet	-10.8943
▁npr	-10.8943
▁adjust	-10.8944
▁ur	-10.8944
▁takeover	-10.8944
▁vice	-10.8945
▁santa	-10.8947
▁mixx	-10.8948
▁dash	-10.8949
▁refuse	-10.8949
prk	-10.8954
▁smartphones	-10.8954
▁tar	-10.8954
▁winer	-10.8955
▁fried	-10.8958
late	-10.8959
hole	-10.896
▁harm	-10.896
fast	-10.8964
▁stronger	-10.897
▁monkeys	-10.8971
▁organizer	-10.8973
uck	-10.8976
▁fo	-10.8978
▁implemented	-10.898
▁dive	-10.8981
shot	-10.8985
▁registered	-10.8988
▁gathering	-10.8991
▁hearing	-10.9
▁slowly	-10.9005
trust	-10.9008
▁140	-10.901
▁amid	-10.9016
▁swing	-10.9022
▁examin	-10.9029
▁passed	-10.903
▁differently	-10.9033
▁von	-10.9036
▁younger	-10.9037
▁founding	-10.9041
6%	-10.9046
▁diagram	-10.9047
▁consultant	-10.9049
▁thousand	-10.9051
▁analyze	-10.9065
frame	-10.9066
▁flaws	-10.907
ini	-10.9078
▁walking	-10.908
▁kde	-10.9084
cri	-10.9085
▁mario	-10.9086
▁1.3	-10.9087
▁pix	-10.9088
▁parking	-10.9092
▁complaint	-10.9096
▁steven	-10.9099
▁votes	-10.9102
tory	-10.9107
▁dangers	-10.9111
▁uptime	-10.9112
ura	-10.9116
▁controls	-10.9127
▁grails	-10.913
▁fre	-10.9138
aug	-10.914
▁fla	-10.9151
▁ter	-10.9177
▁70	-10.918
yes	-10.918
▁failures	-10.922
train	-10.9221
url	-10.9231
▁dimension	-10.9232
▁itch	-10.9236
▁bills	-10.9242
▁teachers	-10.9244
ign	-10.9246
▁wrap	-10.9247
ear	-10.9247
under	-10.9264
▁#3	-10.9264
á	-10.9265
▁sit	-10.9268
▁integrat	-10.9268
body	-10.9276
▁captchas	-10.928
word	-10.9288
▁automat	-10.929
▁screens	-10.9291
45	-10.9294
▁slowing	-10.9295
reddit	-10.9296
filter	-10.9296
dvd	-10.9297
digital	-10.9298
fail	-10.9299
street	-10.9299
green	-10.93
safe	-10.9302
ku	-10.9302
▁lands	-10.9303
▁rod	-10.9304
▁replac	-10.9305
▁goal	-10.9309
▁$100,000	-10.9314
▁hates	-10.9316
atic	-10.9317
▁dj	-10.9318
pedia	-10.9324
eek	-10.9326
▁depend	-10.9335
▁mile	-10.9346
▁threats	-10.9349
▁wanna	-10.9352
▁walks	-10.9353
▁absolute	-10.9357
rr	-10.9358
▁lawsuits	-10.9362
▁civil	-10.9368
▁redirect	-10.9368
▁collaborate	-10.9368
▁dallas	-10.9368
▁diligence	-10.9368
▁dubai	-10.9368
▁dummies	-10.9368
▁familiar	-10.9368
▁helicopter	-10.9368
▁irrational	-10.9368
▁november	-10.9368
▁numbrosia	-10.9368
▁pakistan	-10.9368
▁perception	-10.9368
▁plummet	-10.9368
▁previous	-10.9368
▁pyramid	-10.9368
▁sequence	-10.9368
▁technological	-10.9368
▁treasure	-10.9368
▁whale	-10.9368
▁wikileaks	-10.9368
▁yammer	-10.9368
▁borrow	-10.9368
▁comscore	-10.9368
▁minimum	-10.9368
▁silent	-10.9368
▁snake	-10.9368
▁sweden	-10.9368
▁accelerator	-10.9368
▁combat	-10.9368
▁czar	-10.9368
▁dyson	-10.9368
▁pragmatic	-10.9368
▁costume	-10.9368
▁squeeze	-10.9368
▁fellow	-10.9369
▁slicehost	-10.9369
▁cerf	-10.9369
▁mcdonald	-10.9369
▁packaging	-10.9369
▁jetpack	-10.9369
▁membership	-10.9369
▁champion	-10.9369
▁tuning	-10.9369
▁logging	-10.9369
▁foster	-10.9369
▁observations	-10.9369
▁guardian	-10.9369
▁godaddy	-10.9369
▁kiva	-10.9369
▁hiv	-10.9369
▁mexico	-10.937
▁relief	-10.937
▁spotlight	-10.937
▁pwn	-10.937
▁packet	-10.9371
▁giveaway	-10.9371
▁renewable	-10.9371
▁multimedia	-10.9371
▁redux	-10.9372
▁smash	-10.9372
▁imaging	-10.9373
▁30%	-10.9373
▁uncover	-10.9373
▁cringely	-10.9373
▁quitting	-10.9374
▁atlas	-10.9374
▁iraq	-10.9374
▁venturebeat	-10.9375
▁fires	-10.9375
▁woz	-10.9375
▁jose	-10.9375
▁village	-10.9375
includ	-10.9376
▁poetic	-10.9376
▁clinton	-10.9377
▁blacklist	-10.9378
▁optical	-10.9378
▁theater	-10.9379
▁shortage	-10.9379
▁comeback	-10.938
▁dropping	-10.9383
▁cigarette	-10.9383
▁everyday	-10.9383
▁sexual	-10.9383
▁crowdsourced	-10.9384
ations	-10.9384
▁wales	-10.9385
▁appstore	-10.9386
▁revisited	-10.9388
eb	-10.9389
▁dancing	-10.9393
east	-10.9396
▁lending	-10.9396
▁arrested	-10.9397
▁boat	-10.9398
▁crm	-10.9401
▁combine	-10.9402
▁jones	-10.9403
▁rooms	-10.9405
▁bray	-10.9408
▁agents	-10.9409
ads	-10.9409
▁listings	-10.941
▁fl	-10.9413
ov	-10.9414
shirt	-10.9429
▁lake	-10.9431
▁magnetic	-10.9434
▁pillows	-10.9434
▁ju	-10.9435
▁feb	-10.9439
▁inline	-10.9441
▁mixed	-10.9441
▁upside	-10.9441
▁hug	-10.9441
▁flawed	-10.9444
▁highlight	-10.9445
trade	-10.9448
▁rob	-10.9448
▁goog	-10.945
▁sever	-10.9452
wall	-10.9452
ning	-10.9458
▁fork	-10.9459
hear	-10.946
▁ff	-10.9463
lace	-10.9464
drop	-10.9464
▁printed	-10.9476
▁delay	-10.9479
▁position	-10.9479
▁chairs	-10.9481
bility	-10.9483
▁acm	-10.9487
▁goo	-10.9488
▁homeless	-10.9492
utter	-10.9493
▁aka	-10.9494
▁candidates	-10.9496
▁clue	-10.9496
▁escort	-10.9497
▁zombie	-10.9499
▁suffer	-10.9499
▁undo	-10.95
▁classified	-10.9509
donald	-10.951
▁plot	-10.9511
▁presents	-10.9515
▁oop	-10.9518
▁referral	-10.9521
▁efforts	-10.9525
mobiles	-10.9527
▁letters	-10.953
▁allowed	-10.953
▁asset	-10.9533
▁speeding	-10.9536
bra	-10.9541
▁tourist	-10.9546
610	-10.9548
▁ends	-10.955
▁acts	-10.9553
▁$99	-10.9558
active	-10.9561
mini	-10.9562
take	-10.9565
▁lite	-10.9566
▁components	-10.9566
▁sal	-10.9568
▁torrent	-10.9571
8%	-10.9577
▁sur	-10.9586
▁shine	-10.959
▁neo	-10.9597
▁indexing	-10.9599
▁convention	-10.9603
▁wise	-10.9619
▁dogs	-10.9626
▁ilike	-10.963
www	-10.9635
▁sen	-10.9637
rl	-10.964
ute	-10.9641
▁ain	-10.9643
▁licenses	-10.9643
▁800	-10.9649
43	-10.9667
14	-10.9668
▁highlights	-10.9684
▁recruit	-10.9687
29	-10.9695
▁woo	-10.9697
▁period	-10.9697
▁pal	-10.9698
led	-10.9702
aid	-10.9712
▁sy	-10.9715
▁signing	-10.9715
▁graphical	-10.9717
look	-10.9723
▁rec	-10.9731
▁exits	-10.9731
▁ars	-10.9732
▁rap	-10.9733
▁mb	-10.9736
▁def	-10.9739
rey	-10.9745
system	-10.9748
torrent	-10.9749
reduce	-10.9749
internet	-10.9751
javascript	-10.9751
sql	-10.9752
▁scar	-10.9756
million	-10.9757
dead	-10.9757
▁damage	-10.976
alpha	-10.976
▁attorneys	-10.9761
super	-10.9762
▁commons	-10.9765
bre	-10.9765
bank	-10.9766
hit	-10.9768
▁dip	-10.9769
▁replica	-10.977
digg	-10.9772
jet	-10.9778
▁dow	-10.9797
▁flood	-10.9799
▁bidd	-10.9804
▁brothers	-10.9805
cation	-10.9809
make	-10.981
▁slim	-10.9818
▁subject	-10.9821
▁transport	-10.9821
▁twenty	-10.9823
▁asynchron	-10.9823
▁astronomy	-10.9823
▁belief	-10.9823
▁collision	-10.9823
▁commodity	-10.9823
▁controversial	-10.9823
▁earthquake	-10.9823
▁elegant	-10.9823
▁hurricane	-10.9823
▁jakob	-10.9823
▁joomla	-10.9823
▁muxtape	-10.9823
▁phenomenon	-10.9823
▁plague	-10.9823
▁rainbow	-10.9823
▁thieves	-10.9823
▁triumph	-10.9823
▁yield	-10.9823
▁ambient	-10.9823
▁ambition	-10.9823
▁bogus	-10.9823
▁demise	-10.9823
▁globe	-10.9823
▁hawking	-10.9823
▁llvm	-10.9823
▁spiral	-10.9823
▁cobol	-10.9823
▁glue	-10.9823
▁relax	-10.9823
▁autism	-10.9823
▁fowa	-10.9823
▁carolina	-10.9823
▁nanotechnology	-10.9823
▁blockbuster	-10.9823
▁priority	-10.9823
▁denver	-10.9823
▁syntheti	-10.9823
▁destination	-10.9823
▁traction	-10.9824
▁limitations	-10.9824
▁responsible	-10.9824
▁prius	-10.9824
▁awareness	-10.9824
▁extinction	-10.9824
▁seedcamp	-10.9824
▁chronicle	-10.9824
▁postmortem	-10.9825
▁joyent	-10.9825
▁valve	-10.9825
▁fog	-10.9825
▁bartz	-10.9825
▁friedman	-10.9825
▁girlfriend	-10.9825
▁gentle	-10.9826
▁accessible	-10.9826
▁dropped	-10.9826
▁zfs	-10.9826
▁cruise	-10.9827
▁portland	-10.9827
▁chef	-10.9827
▁rescuetime	-10.9827
▁crush	-10.9827
▁transit	-10.9828
▁complicated	-10.9828
▁macintosh	-10.9828
▁eula	-10.9829
▁bands	-10.9829
▁submitting	-10.9829
▁deck	-10.983
▁qik	-10.9831
▁tourism	-10.9831
▁chromium	-10.9831
▁hilarious	-10.9831
▁rubik	-10.9831
▁thursday	-10.9831
▁ftc	-10.9832
▁prevention	-10.9833
▁openoffice	-10.9833
▁guido	-10.9834
▁acceptable	-10.9834
▁ethical	-10.9835
▁specification	-10.9835
▁viaweb	-10.9838
▁fe	-10.9839
▁tie	-10.9842
▁employment	-10.9842
▁typical	-10.9843
crypt	-10.9845
▁taleb	-10.9845
▁delayed	-10.9847
▁topic	-10.9848
▁2001	-10.9848
▁reset	-10.985
▁pmarca	-10.9852
▁sticky	-10.9856
▁buyout	-10.9857
▁freebase	-10.9858
▁$9	-10.986
▁fourth	-10.9862
▁photographer	-10.9862
▁tall	-10.9862
▁savvy	-10.9862
05	-10.9865
▁grants	-10.9866
▁hol	-10.9867
▁enhanced	-10.9869
▁busted	-10.9877
▁bother	-10.9882
▁bingo	-10.9884
▁diff	-10.9884
sync	-10.9886
▁cred	-10.9892
ua	-10.9899
▁leg	-10.9901
▁ramp	-10.9905
▁risky	-10.9905
wear	-10.9906
▁med	-10.9907
▁salt	-10.9915
▁redesigned	-10.9923
▁benchmarking	-10.9924
▁kp	-10.9926
▁tales	-10.9926
▁asked	-10.993
▁worrying	-10.9932
▁bookmark	-10.9932
▁mil	-10.9938
▁deploying	-10.994
37	-10.9942
▁walt	-10.9946
rick	-10.995
ase	-10.9952
loop	-10.9955
▁caus	-10.9963
▁meat	-10.9971
▁spreadsheet	-10.9978
▁commands	-10.9981
▁mathematician	-10.9984
▁contributions	-10.9984
▁ft	-10.9984
▁dam	-10.9986
▁analysts	-10.9987
chi	-10.9989
ii	-10.999
▁spying	-10.9991
▁trader	-10.9996
▁operation	-11.0006
▁publisher	-11.0009
▁projector	-11.0015
▁spi	-11.0015
ez	-11.0029
▁scann	-11.0029
▁atomic	-11.0033
▁kan	-11.0042
▁grade	-11.0044
▁bed	-11.0048
▁teacher	-11.0049
▁yu	-11.0059
▁ending	-11.006
▁terrorists	-11.0062
16	-11.0066
▁bite	-11.0067
▁cc	-11.0071
▁imagine	-11.0084
▁billions	-11.0088
▁publishe	-11.0093
logger	-11.0094
force	-11.0103
rant	-11.0105
▁uf	-11.0107
xp	-11.0109
▁33	-11.011
player	-11.0113
lm	-11.0114
▁irs	-11.0116
▁alerts	-11.0126
▁bin	-11.0128
hz	-11.0128
▁nations	-11.0133
▁spreadsheets	-11.0139
▁conferences	-11.015
▁$700	-11.0153
▁cur	-11.0153
▁stops	-11.0161
▁backed	-11.0162
anti	-11.0164
tracking	-11.0168
▁miles	-11.017
▁diagrams	-11.0171
▁bites	-11.0174
▁ty	-11.0177
▁tele	-11.0179
▁estimates	-11.0182
▁mont	-11.0185
engine	-11.0188
fill	-11.0189
▁zo	-11.0203
▁blues	-11.0207
▁censor	-11.0217
▁internals	-11.0218
▁interns	-11.0218
motion	-11.0224
▁rand	-11.0224
piracy	-11.0227
efficient	-11.0227
interview	-11.0227
stock	-11.023
voting	-11.0231
black	-11.0232
51	-11.0232
berry	-11.0234
vision	-11.0245
aging	-11.0249
▁gang	-11.0258
▁sum	-11.0263
▁emotion	-11.0265
location	-11.0267
cow	-11.0267
▁soup	-11.027
burg	-11.027
▁remains	-11.0275
gold	-11.0288
non	-11.0289
▁texting	-11.0291
▁definiti	-11.0292
▁blows	-11.0293
totally	-11.0295
resident	-11.0296
▁billionaires	-11.0297
▁trans	-11.0297
▁disappoint	-11.0298
▁greenspun	-11.0299
▁activities	-11.0299
▁aesthetic	-11.0299
▁alternate	-11.0299
▁behaviour	-11.0299
▁bundle	-11.0299
▁cappuccino	-11.0299
▁consequences	-11.0299
▁cricket	-11.0299
▁cryptography	-11.0299
▁cubicle	-11.0299
▁december	-11.0299
▁ecmascript	-11.0299
▁glimpse	-11.0299
▁miami	-11.0299
▁mongrel	-11.0299
▁nicholas	-11.0299
▁pausch	-11.0299
▁pogue	-11.0299
▁proprietary	-11.0299
▁scenario	-11.0299
▁simpson	-11.0299
▁swedish	-11.0299
▁treasury	-11.0299
▁constant	-11.0299
▁hotornot	-11.0299
▁tethering	-11.0299
▁calorie	-11.0299
▁protein	-11.0299
▁tomtom	-11.0299
▁asteroid	-11.0299
▁webmynd	-11.0299
▁association	-11.0299
▁dissect	-11.0299
▁shuttleworth	-11.0299
▁extensible	-11.0299
▁bathroom	-11.0299
▁lenovo	-11.0299
▁cloning	-11.0299
▁arrow	-11.0299
▁commencement	-11.0299
▁dozen	-11.0299
▁purple	-11.0299
▁feld	-11.0299
▁mae	-11.0299
▁qualities	-11.03
▁resistance	-11.03
▁livejournal	-11.03
▁bayesian	-11.03
▁fingerprint	-11.03
▁pearl	-11.03
▁warfare	-11.03
▁hoffman	-11.03
▁imagination	-11.03
▁exploration	-11.03
▁jsconf	-11.03
▁dentist	-11.03
▁babies	-11.03
▁clickpass	-11.03
▁microblogging	-11.03
▁transcription	-11.03
▁delhi	-11.03
▁momentum	-11.0301
▁fiber	-11.0301
▁awful	-11.0301
▁tiger	-11.0301
▁promoting	-11.0301
▁achievement	-11.0301
▁ruling	-11.0301
▁speculation	-11.0301
▁1999	-11.0301
▁victory	-11.0302
▁ryan	-11.0302
▁shout	-11.0302
▁40%	-11.0302
▁drain	-11.0302
▁soldier	-11.0303
▁lenny	-11.0303
▁slump	-11.0303
▁roadster	-11.0303
▁slowdown	-11.0303
▁infection	-11.0303
▁relaunches	-11.0304
▁backpack	-11.0304
▁separate	-11.0305
-8	-11.0305
▁sitting	-11.0306
▁dude	-11.0306
▁drama	-11.0307
▁involved	-11.0307
▁kong	-11.0309
▁bread	-11.0309
▁fell	-11.031
▁bigtable	-11.0311
▁workflow	-11.0312
▁shield	-11.0312
▁restore	-11.0312
backed	-11.0314
▁stroke	-11.0315
▁cern	-11.0316
,000,000	-11.0317
▁raw	-11.0318
txt	-11.032
rap	-11.0321
▁greg	-11.0323
▁lane	-11.0323
▁humanity	-11.0325
▁unofficial	-11.0325
▁eagle	-11.0326
▁rur	-11.0331
▁emerge	-11.0333
gging	-11.0341
▁analyzer	-11.0341
still	-11.0345
▁bride	-11.0347
▁ranked	-11.0348
▁alter	-11.0349
▁safer	-11.0353
▁doc	-11.0356
conf	-11.0364
▁tear	-11.0365
▁installer	-11.0365
yard	-11.0372
▁deeper	-11.0377
▁berry	-11.0377
▁shutter	-11.0386
rock	-11.0389
▁orm	-11.0393
very	-11.0393
▁sourced	-11.0398
▁ordered	-11.0405
file	-11.0416
▁signup	-11.0421
1%	-11.043
▁subscribers	-11.0437
▁forced	-11.044
▁pdfs	-11.0441
ice	-11.0441
ential	-11.045
▁communicate	-11.0464
▁trusted	-11.0466
ack	-11.0474
ml	-11.0481
▁magazines	-11.0487
▁algorithmic	-11.0489
▁mann	-11.0491
▁ren	-11.0493
bet	-11.0503
▁screenshot	-11.0505
▁presenting	-11.0507
▁happening	-11.0513
▁boosts	-11.0523
▁suits	-11.0527
▁250	-11.0529
▁coal	-11.0539
▁connected	-11.055
▁bolt	-11.0554
▁coll	-11.0558
arc	-11.0563
tar	-11.0572
▁gamer	-11.0578
▁idiots	-11.0582
▁ye	-11.0585
sec	-11.0592
dom	-11.0602
▁ski	-11.0603
▁copying	-11.061
▁ping	-11.0612
▁emerges	-11.062
310	-11.0621
▁dec	-11.0625
▁viewer	-11.0627
▁techies	-11.0627
▁adults	-11.0644
ano	-11.0644
▁essays	-11.065
ski	-11.0656
▁bye	-11.0661
▁viewers	-11.0667
510	-11.0667
yet	-11.0668
▁tel	-11.0687
ht	-11.0691
supported	-11.0694
▁ipods	-11.0698
▁poster	-11.07
550	-11.0706
pg	-11.0709
▁bubbles	-11.071
▁commenting	-11.0714
▁jumps	-11.0715
▁$3.	-11.072
mir	-11.072
wide	-11.0721
virus	-11.0725
install	-11.0727
youtube	-11.0728
framework	-11.0731
▁millionaires	-11.0731
place	-11.0732
▁defin	-11.0738
▁planes	-11.0746
▁wo	-11.0747
▁gt	-11.0754
learning	-11.0756
heal	-11.0756
action	-11.076
▁$14	-11.0766
▁cookies	-11.0767
pass	-11.0769
▁doll	-11.0769
▁remind	-11.077
night	-11.0775
▁debunk	-11.0776
▁revisit	-11.0776
two	-11.0782
▁incredibl	-11.0783
really	-11.0783
▁advertise	-11.0787
28	-11.0788
oil	-11.0793
ional	-11.0795
▁morph	-11.0795
full	-11.0797
▁yellow	-11.0799
▁vancouver	-11.0799
achieving	-11.0799
▁celebrities	-11.0799
▁credibility	-11.0799
▁crystal	-11.0799
▁declining	-11.0799
▁estimating	-11.0799
▁etherpad	-11.0799
▁february	-11.0799
▁frenzy	-11.0799
▁halloween	-11.0799
▁irrelevant	-11.0799
▁pandemic	-11.0799
▁signature	-11.0799
▁silence	-11.0799
▁situation	-11.0799
▁stanley	-11.0799
▁translator	-11.0799
▁domestic	-11.0799
▁exceed	-11.0799
▁scandal	-11.0799
atch	-11.0799
▁melbourne	-11.0799
▁responsibility	-11.0799
▁vimeo	-11.0799
▁albert	-11.0799
▁psychological	-11.0799
▁commission	-11.0799
▁ireland	-11.0799
▁ships	-11.0799
▁mootools	-11.0799
▁certification	-11.0799
▁greek	-11.0799
▁pledge	-11.0799
▁obesity	-11.08
▁planned	-11.08
▁telephone	-11.08
▁charm	-11.08
▁bunch	-11.08
▁appoint	-11.08
▁paintball	-11.08
▁disorder	-11.08
▁sandbox	-11.0801
▁twins	-11.0801
▁jerem	-11.0801
▁toxic	-11.0801
▁liquidity	-11.0801
▁transportation	-11.0801
▁participation	-11.0801
▁tight	-11.0802
▁pound	-11.0802
▁investigation	-11.0802
▁addition	-11.0802
▁atheist	-11.0803
▁unfair	-11.0803
▁showcase	-11.0803
▁fireball	-11.0804
▁italy	-11.0804
▁sourceforge	-11.0804
▁arctic	-11.0804
▁measurement	-11.0804
▁bri	-11.0805
▁customization	-11.0805
▁flies	-11.0806
▁neighborhood	-11.0806
▁curb	-11.0807
▁chatbot	-11.0807
▁transformation	-11.0807
▁shiny	-11.0807
▁comedy	-11.0808
▁ustream	-11.0808
▁latitude	-11.0809
▁portrait	-11.0809
▁rubinius	-11.0809
▁balloon	-11.0809
▁svg	-11.0811
▁glasses	-11.0811
▁lifestream	-11.0812
▁agrees	-11.0814
▁sept	-11.0815
▁disclosure	-11.0817
▁canonical	-11.0817
izer	-11.0819
▁cave	-11.0819
▁chuck	-11.0821
▁dreamit	-11.0822
▁stunt	-11.0823
▁disabled	-11.0824
forms	-11.0826
cious	-11.0832
▁mtv	-11.0833
▁epic	-11.0835
▁jar	-11.0835
▁cpm	-11.0836
▁belong	-11.0836
▁kf	-11.0837
▁broker	-11.0845
▁richest	-11.0845
▁denie	-11.0846
▁specialist	-11.0848
▁shorten	-11.0851
▁ze	-11.0855
▁producer	-11.0859
1.0	-11.0861
sign	-11.0864
▁overcom	-11.0865
era	-11.0867
▁07)	-11.0868
▁controlled	-11.0869
▁wil	-11.0871
comment	-11.0871
cover	-11.0874
▁nest	-11.0875
▁replicat	-11.0877
▁attending	-11.0877
▁dependenc	-11.0888
▁traits	-11.0892
▁markup	-11.0895
band	-11.0897
▁clusters	-11.0901
▁warm	-11.0903
▁metro	-11.0903
help	-11.0907
▁discussions	-11.0909
pending	-11.0911
dale	-11.0925
▁watches	-11.0932
▁kal	-11.0957
▁continuations	-11.096
▁spreading	-11.0979
▁seal	-11.0979
▁quote	-11.0983
63	-11.0989
▁detail	-11.0989
▁tony	-11.1002
26	-11.1002
▁particle	-11.1005
ama	-11.1007
they	-11.1008
▁mill	-11.101
▁metric	-11.1016
▁webcast	-11.1017
law	-11.102
▁dataset	-11.1024
▁slate	-11.103
tool	-11.1032
▁stations	-11.1034
▁bow	-11.1039
▁innovations	-11.1042
tools	-11.1042
▁gestures	-11.1046
pin	-11.1048
▁rail	-11.105
mag	-11.1054
yan	-11.1054
ient	-11.106
preneur	-11.1063
▁forest	-11.1065
▁enabl	-11.1066
320	-11.1078
wn	-11.1088
▁passing	-11.1089
▁cheating	-11.109
▁relative	-11.1095
▁directions	-11.1097
▁degrees	-11.1101
unit	-11.1101
dimensional	-11.1103
coder	-11.1106
▁gore	-11.112
▁trailers	-11.1124
▁ipos	-11.1126
bble	-11.1129
size	-11.1134
▁bl	-11.1142
▁km	-11.1144
▁badge	-11.1145
▁chu	-11.1156
even	-11.1159
▁freeze	-11.1164
gr	-11.1171
smic	-11.1186
▁arch	-11.1187
03	-11.1189
ord	-11.119
▁maximize	-11.119
7%	-11.1194
▁soa	-11.1196
▁pt	-11.12
▁sitemap	-11.1203
▁recognize	-11.1203
far	-11.1203
▁cents	-11.121
▁shutt	-11.1217
▁34	-11.1221
astic	-11.1223
▁crawl	-11.1229
▁scans	-11.1231
▁mic	-11.1231
▁div	-11.1234
▁careers	-11.1243
▁halo	-11.1246
▁specs	-11.1247
music	-11.1251
enabled	-11.1252
shift	-11.1253
secret	-11.1254
technical	-11.1254
language	-11.1254
object	-11.1254
hello	-11.1254
5,000	-11.1257
shell	-11.1259
xml	-11.1259
brand	-11.126
shoot	-11.126
realistic	-11.1262
stic	-11.1262
biz	-11.1263
most	-11.1271
▁resumes	-11.1273
erry	-11.1283
logic	-11.1294
rack	-11.1295
94	-11.1299
west	-11.1305
esy	-11.1307
▁keyboards	-11.1312
▁epi	-11.1313
▁glitch	-11.1319
matic	-11.132
▁disable	-11.1321
▁repeat	-11.1322
▁participat	-11.1323
stitution	-11.1323
add	-11.1324
▁brazil	-11.1324
▁represent	-11.1324
▁bankrupt	-11.1325
▁conservative	-11.1325
▁dijkstra	-11.1325
▁favicon	-11.1325
▁indicator	-11.1325
▁instinct	-11.1325
▁instrument	-11.1325
▁january	-11.1325
▁misconceptions	-11.1325
▁oxford	-11.1325
▁photosynth	-11.1325
▁playground	-11.1325
▁releasing	-11.1325
▁scooter	-11.1325
▁slinkset	-11.1325
▁vitamin	-11.1325
▁caution	-11.1325
▁england	-11.1325
▁mafia	-11.1325
▁playstation	-11.1325
▁sustainable	-11.1325
▁futurist	-11.1325
▁henry	-11.1325
▁warehouse	-11.1325
▁activation	-11.1325
▁wufoo	-11.1325
▁enigma	-11.1325
▁sharding	-11.1325
▁reflections	-11.1325
▁(2000)	-11.1326
▁britney	-11.1326
▁freakonomics	-11.1326
▁democratic	-11.1326
▁smooth	-11.1326
▁inheritance	-11.1326
▁ooxml	-11.1326
▁clutter	-11.1326
▁kelly	-11.1326
▁1/3	-11.1326
▁handheld	-11.1326
▁contribute	-11.1326
▁morris	-11.1326
▁obsession	-11.1326
▁slams	-11.1326
▁polish	-11.1326
▁denial	-11.1327
▁katz	-11.1327
▁scoop	-11.1327
▁latin	-11.1327
▁80%	-11.1327
▁dept	-11.1327
▁kamen	-11.1327
▁pixar	-11.1327
▁roof	-11.1327
▁hubble	-11.1327
▁za	-11.1328
▁copies	-11.1328
▁$40	-11.1329
▁sqlite	-11.1329
▁gaza	-11.1329
▁mention	-11.1329
▁ensure	-11.133
▁symbolic	-11.133
▁minister	-11.133
▁sail	-11.1331
▁mlb	-11.1331
▁auctomatic	-11.1331
▁coworking	-11.1332
▁2011	-11.1332
▁hobby	-11.1332
▁walkman	-11.1333
▁percentage	-11.1333
▁randomness	-11.1333
▁nc	-11.1335
▁mull	-11.1337
▁pulse	-11.1338
▁limo	-11.1339
▁elon	-11.1341
▁selector	-11.1343
▁wolf	-11.1344
▁intuitive	-11.1344
▁404	-11.1346
▁secretary	-11.1346
▁encrypted	-11.1346
▁virtualbox	-11.1347
▁zoo	-11.1347
▁actor	-11.1349
▁increases	-11.1351
▁slip	-11.1352
▁neat	-11.1354
▁gar	-11.1356
▁avi	-11.1356
▁connectu	-11.1356
▁cheer	-11.1359
▁arrived	-11.136
▁ponder	-11.1363
▁stable	-11.1364
▁rel	-11.1365
▁tracing	-11.1366
▁stu	-11.137
▁recently	-11.1371
▁batch	-11.1371
▁fry	-11.1372
▁evaluate	-11.1374
▁includ	-11.1374
marketing	-11.1374
pri	-11.1374
▁oct	-11.1375
▁carry	-11.1375
stein	-11.1378
▁finder	-11.1378
▁covers	-11.138
▁parties	-11.1381
hacking	-11.1382
24	-11.1382
▁twi	-11.1383
▁scope	-11.1389
▁(5	-11.14
nix	-11.1402
▁interests	-11.1403
▁$150	-11.1407
who	-11.1408
▁cables	-11.1409
▁plt	-11.1413
▁imac	-11.1415
▁talented	-11.1418
▁fade	-11.1419
▁downloading	-11.1422
▁folding	-11.1423
worker	-11.1427
▁channels	-11.143
▁5.1	-11.1434
▁blo	-11.1435
▁dial	-11.144
▁quiet	-11.1448
▁dealer	-11.1451
tsu	-11.1454
▁foo	-11.1458
▁inventions	-11.1465
▁feels	-11.1471
zy	-11.1475
▁visualize	-11.1477
9%	-11.1477
▁ci	-11.1479
▁ignor	-11.1488
13	-11.149
▁wikis	-11.1492
▁prints	-11.1493
▁measures	-11.15
date	-11.1507
▁managed	-11.151
▁balls	-11.1515
▁dad	-11.1523
▁ros	-11.1524
▁fate	-11.153
▁rider	-11.1531
▁remov	-11.1532
▁aids	-11.1532
sale	-11.1536
▁screencasts	-11.1537
▁factors	-11.1537
▁arrive	-11.154
▁condition	-11.1547
▁silly	-11.1552
▁employers	-11.1552
▁paradigm	-11.1556
▁trigger	-11.1557
▁bars	-11.1557
▁variable	-11.1558
▁odd	-11.1559
▁abstraction	-11.156
▁innovator	-11.1561
▁apartment	-11.1561
▁retailers	-11.1565
.”	-11.1565
▁moved	-11.1568
▁rage	-11.1568
▁atm	-11.1571
▁agreements	-11.1572
▁ants	-11.1577
▁standing	-11.1583
smart	-11.1585
ani	-11.1587
dict	-11.1592
▁2.3	-11.1595
▁direction	-11.1595
pol	-11.1607
▁secur	-11.1607
▁logs	-11.1616
220	-11.1617
▁converting	-11.1629
▁roi	-11.1636
pop	-11.1636
▁variables	-11.164
last	-11.1641
▁controll	-11.1646
tab	-11.165
▁musical	-11.1651
ically	-11.1658
▁supposed	-11.1663
▁analyz	-11.1665
zo	-11.1667
▁owned	-11.1685
iff	-11.1691
▁interviewed	-11.1709
▁torrents	-11.1715
▁rivals	-11.1717
aj	-11.1724
je	-11.1727
5)	-11.1738
▁nov	-11.1752
▁hr	-11.1755
▁boo	-11.1759
49	-11.1767
rated	-11.1782
▁fur	-11.1785
▁flights	-11.1786
update	-11.1789
▁gems	-11.1794
▁hijack	-11.1799
blogging	-11.1801
computer	-11.1807
process	-11.1808
publish	-11.1809
speech	-11.1809
index	-11.1809
audio	-11.1809
compete	-11.181
weight	-11.181
guy	-11.181
corp	-11.181
▁migrat	-11.181
mysql	-11.1811
▁ste	-11.1812
tail	-11.1813
▁bags	-11.1814
finder	-11.1819
paste	-11.1819
▁margin	-11.1821
pack	-11.1826
▁$11	-11.1827
ternity	-11.1831
num	-11.1834
▁appears	-11.1836
▁idiot	-11.1837
stats	-11.184
that	-11.1846
illu	-11.1846
▁4-	-11.1851
▁cooler	-11.1852
▁establish	-11.1857
ara	-11.1868
▁simulat	-11.187
▁sup	-11.1872
▁broad	-11.1873
17	-11.1873
▁corrupt	-11.1878
▁fabric	-11.1879
▁defect	-11.1879
▁commits	-11.1879
▁prince	-11.188
▁birds	-11.188
▁bureau	-11.1881
▁keepontalking	-11.1881
enhancing	-11.1881
▁anonymity	-11.1881
▁arithmetic	-11.1881
▁autonomous	-11.1881
▁bangalore	-11.1881
▁bargain	-11.1881
▁benjamin	-11.1881
▁buxfer	-11.1881
▁capistrano	-11.1881
▁chrysler	-11.1881
▁consensus	-11.1881
▁daemon	-11.1881
▁families	-11.1881
▁fannie	-11.1881
▁fowler	-11.1881
▁freelancing	-11.1881
▁hudson	-11.1881
▁imminent	-11.1881
▁massachusetts	-11.1881
▁minnesota	-11.1881
▁miracle	-11.1881
▁mossberg	-11.1881
▁naruto	-11.1881
▁negotiating	-11.1881
▁permanent	-11.1881
▁premature	-11.1881
▁procedure	-11.1881
▁schwartz	-11.1881
▁shirky	-11.1881
▁tackle	-11.1881
▁telephony	-11.1881
▁thriving	-11.1881
▁turbine	-11.1881
▁backlash	-11.1881
▁compact	-11.1881
▁delusion	-11.1881
▁mysteries	-11.1881
▁nissan	-11.1881
▁handbags	-11.1881
▁harvest	-11.1881
▁openmoko	-11.1881
▁pursue	-11.1881
▁rebate	-11.1881
▁slightly	-11.1881
▁micropayments	-11.1881
▁regret	-11.1881
▁concert	-11.1881
▁restrictions	-11.1881
▁density	-11.1881
▁poetry	-11.1881
▁superior	-11.1881
▁priorities	-11.1881
▁sicp	-11.1881
▁greenspan	-11.1881
▁routing	-11.1881
▁opposite	-11.1881
▁irish	-11.1881
▁sproutcore	-11.1881
▁scholarship	-11.1881
▁coach	-11.1881
▁sauce	-11.1881
▁riddle	-11.1881
▁boeing	-11.1881
▁himself	-11.1881
▁parameter	-11.1881
▁backwards	-11.1881
▁honor	-11.1882
▁spanish	-11.1882
▁petition	-11.1882
▁probability	-11.1882
▁hunch	-11.1882
▁kara	-11.1882
▁brazilian	-11.1882
▁bored	-11.1882
▁teaser	-11.1883
▁penny	-11.1883
▁digits	-11.1883
▁loose	-11.1883
▁doodle	-11.1883
▁stink	-11.1883
▁hostile	-11.1883
▁telco	-11.1883
▁euler	-11.1883
▁calculation	-11.1883
▁tata	-11.1883
▁dtrace	-11.1883
▁inkling	-11.1883
▁moonlight	-11.1883
▁provision	-11.1883
▁friendship	-11.1884
▁cert	-11.1884
▁pycon	-11.1884
▁shootout	-11.1884
▁remix	-11.1885
▁rockstar	-11.1885
▁mentality	-11.1885
▁headset	-11.1885
▁reflect	-11.1885
▁seaside	-11.1886
▁twel	-11.1886
▁hierarchy	-11.1886
▁pong	-11.1887
▁equivalent	-11.1887
▁shower	-11.1888
perl	-11.1888
▁mindset	-11.1888
▁cfo	-11.1889
▁hans	-11.1889
▁backtype	-11.189
▁nfl	-11.189
▁passive	-11.189
▁shall	-11.1891
▁swan	-11.1891
▁epidemic	-11.1892
ssica	-11.1893
▁retro	-11.1893
▁collector	-11.1893
▁prism	-11.1894
▁capable	-11.1895
ulation	-11.1895
▁till	-11.1896
▁column	-11.1897
▁dresses	-11.1897
▁checkout	-11.1898
▁spare	-11.19
▁patches	-11.1901
▁techtalk	-11.1903
▁nasdaq	-11.1904
▁heel	-11.1907
▁debug	-11.1909
▁absolutely	-11.1911
▁arthu	-11.1913
▁surgeon	-11.1913
▁gb	-11.1915
▁temporary	-11.1917
▁hood	-11.1917
▁png	-11.1918
▁bram	-11.1919
▁linear	-11.1921
▁pur	-11.1921
acy	-11.1922
▁kickstart	-11.1922
▁cargo	-11.1922
stand	-11.1923
▁entirely	-11.1923
▁mesh	-11.1925
▁flop	-11.1926
▁bankers	-11.1932
▁scared	-11.1936
▁lovers	-11.1936
▁sins	-11.1936
ban	-11.1936
▁lining	-11.1936
▁held	-11.1941
andme	-11.1946
▁symptoms	-11.1947
▁simplest	-11.1951
▁(37	-11.1953
mile	-11.1957
▁scare	-11.196
rip	-11.1961
▁pulled	-11.1963
▁ringtones	-11.1966
▁readable	-11.1967
▁bur	-11.1971
▁0.9	-11.1971
ica	-11.1974
▁fif	-11.1976
▁proto	-11.1979
-2008	-11.1985
▁operate	-11.199
▁canon	-11.1991
▁pill	-11.1995
▁shr	-11.1997
▁deleted	-11.1997
▁conf	-11.2006
▁shooting	-11.2018
▁headlines	-11.2023
jerk	-11.2023
▁prepared	-11.2024
▁openness	-11.2027
teen	-11.2029
▁pieces	-11.203
▁waves	-11.2032
▁refund	-11.2035
▁installed	-11.2036
▁snippets	-11.2039
itting	-11.2041
roy	-11.2044
▁shown	-11.2054
▁existing	-11.2057
2008	-11.206
▁monads	-11.2061
▁farms	-11.2073
▁increased	-11.2076
▁pac	-11.2081
▁ji	-11.2097
tial	-11.2101
▁nap	-11.2105
risk	-11.2106
▁speeds	-11.2119
▁fractals	-11.2138
▁toll	-11.214
▁shifts	-11.2142
▁newbie	-11.2147
▁william	-11.215
▁closure	-11.2151
▁wallpaper	-11.2156
glo	-11.2156
▁habit	-11.2156
▁checks	-11.2157
etc	-11.2175
▁aware	-11.2184
tb	-11.2186
▁newbies	-11.2196
▁devs	-11.2198
fo	-11.2205
lies	-11.2206
▁odds	-11.2215
▁slows	-11.2216
dir	-11.2217
74	-11.2217
▁entering	-11.2217
▁hook	-11.2221
▁viewed	-11.2221
▁pois	-11.2229
magic	-11.2233
▁formats	-11.2237
vm	-11.2251
▁backups	-11.2261
▁couldn	-11.2263
gent	-11.2279
96	-11.2292
ggle	-11.2297
bound	-11.23
git	-11.2308
▁slap	-11.2325
▁lan	-11.2326
lov	-11.2339
400	-11.234
▁jobless	-11.2345
▁lin	-11.2346
▁fuels	-11.2351
lk	-11.2358
▁combin	-11.2362
▁calculate	-11.2362
▁mall	-11.2362
ates	-11.2363
focus	-11.2373
▁subscriptions	-11.2374
▁roles	-11.2374
sub	-11.2382
▁lag	-11.2387
▁advances	-11.2388
generation	-11.2393
▁satellites	-11.2393
▁swim	-11.2395
▁mailing	-11.2396
through	-11.2396
specific	-11.2397
release	-11.2397
pattern	-11.2397
sia	-11.2397
electric	-11.2397
minute	-11.2398
virtual	-11.2398
–	-11.2398
spot	-11.2398
turn	-11.24
front	-11.2401
american	-11.2401
team	-11.2403
▁refresh	-11.2412
▁ill	-11.2412
▁tick	-11.2412
▁annoy	-11.2413
gear	-11.2413
boot	-11.2416
▁gcc	-11.2416
▁rethink	-11.2419
solve	-11.2432
foot	-11.2434
▁approaching	-11.244
max	-11.2442
▁plea	-11.2442
▁encrypt	-11.2445
lift	-11.2447
▁resign	-11.245
▁norm	-11.2452
istics	-11.2455
▁guarantee	-11.2458
▁kits	-11.2462
▁regex	-11.2462
▁afford	-11.2465
▁disagree	-11.2468
▁endorse	-11.2469
▁sweat	-11.2469
▁academia	-11.2469
▁armstrong	-11.2469
▁basketball	-11.2469
▁beijing	-11.2469
▁creature	-11.2469
▁curriculum	-11.2469
▁demonstration	-11.2469
▁explicit	-11.2469
▁fascinating	-11.2469
▁hawaii	-11.2469
▁honeymoon	-11.2469
▁illinois	-11.2469
▁incident	-11.2469
▁incremental	-11.2469
▁jersey	-11.2469
▁kedrosky	-11.2469
▁maglev	-11.2469
▁mandatory	-11.2469
▁mogul	-11.2469
▁mosquito	-11.2469
▁parliament	-11.2469
▁perfume	-11.2469
▁plentyoffish	-11.2469
▁prescription	-11.2469
▁registrar	-11.2469
▁rumble	-11.2469
▁sinatra	-11.2469
▁stewart	-11.2469
▁terabyte	-11.2469
▁upgrading	-11.2469
▁worried	-11.2469
▁benford	-11.2469
▁consciousness	-11.2469
▁pitfalls	-11.2469
▁squeak	-11.2469
▁ghetto	-11.2469
▁gnip	-11.2469
▁metaphor	-11.2469
definitely	-11.2469
▁terminator	-11.2469
▁cohen	-11.2469
▁imeem	-11.2469
▁scalp	-11.2469
▁visible	-11.2469
▁tongue	-11.2469
▁forensic	-11.2469
▁ikea	-11.2469
▁domino	-11.2469
▁italian	-11.2469
▁workstation	-11.2469
▁saudi	-11.2469
▁verdict	-11.247
▁spawn	-11.247
▁(2008)	-11.247
▁embargo	-11.247
▁humble	-11.247
▁spock	-11.247
▁turbo	-11.247
▁imaginary	-11.247
▁handwriting	-11.247
▁biography	-11.247
▁punch	-11.247
▁napster	-11.247
▁primary	-11.247
▁loyalty	-11.247
▁photobucket	-11.247
▁nanotube	-11.247
▁crunchpad	-11.247
▁align	-11.247
▁cybersecurity	-11.247
▁navigator	-11.2471
▁discipline	-11.2471
▁redeye	-11.2471
▁lease	-11.2471
▁tdd	-11.2471
▁republican	-11.2471
▁uncertainty	-11.2471
▁liability	-11.2471
▁modify	-11.2471
▁hotspot	-11.2472
▁methodology	-11.2472
▁adaptive	-11.2472
▁fancy	-11.2472
▁typeface	-11.2472
▁spyware	-11.2472
▁actionscript	-11.2472
▁corruption	-11.2472
▁tapping	-11.2472
▁quad	-11.2472
▁berlin	-11.2472
▁chase	-11.2473
▁household	-11.2473
▁disruption	-11.2473
▁spotted	-11.2473
▁flame	-11.2474
np	-11.2474
▁lisa	-11.2475
▁heap	-11.2476
▁envy	-11.2476
▁valentine	-11.2476
▁skeptical	-11.2476
▁suddenly	-11.2477
▁rewriting	-11.2477
▁parallelism	-11.2478
▁evernote	-11.2478
▁removal	-11.2478
▁justice	-11.2478
▁bible	-11.2478
▁upvote	-11.2479
▁johnson	-11.2479
▁cuda	-11.248
▁workforce	-11.2481
▁chatting	-11.2483
▁decorat	-11.2483
▁novell	-11.2484
▁inject	-11.2484
▁ocr	-11.2484
ubi	-11.2485
▁clickjacking	-11.2485
▁lottery	-11.2485
▁morgan	-11.2486
▁placement	-11.2486
▁blink	-11.2486
▁1984	-11.2489
▁planner	-11.2489
▁slice	-11.2489
▁organizing	-11.249
▁modest	-11.249
▁tao	-11.2492
▁mice	-11.2492
bio	-11.2493
▁opengl	-11.2493
▁detector	-11.2496
▁polar	-11.2497
▁either	-11.2498
▁solaris	-11.2499
▁2003	-11.2503
kar	-11.2504
▁tipping	-11.2505
▁runtime	-11.2507
▁longest	-11.2508
▁purely	-11.2509
▁workspace	-11.2513
▁buyer	-11.2517
pics	-11.2518
vul	-11.2518
▁vie	-11.2521
▁motivated	-11.2522
▁compress	-11.2522
eye	-11.2523
▁tan	-11.2523
▁layouts	-11.253
▁slider	-11.253
▁painful	-11.2534
▁tested	-11.2536
▁steals	-11.2537
▁instantly	-11.254
thread	-11.254
7)	-11.2541
▁bali	-11.2543
▁amount	-11.2543
▁highlighting	-11.2547
▁panels	-11.2549
▁soap	-11.2553
▁42	-11.2555
▁brave	-11.2556
lum	-11.2562
fully	-11.2564
▁arguments	-11.2568
▁$1.2	-11.2569
▁bal	-11.257
▁psd	-11.2576
article	-11.2576
bots	-11.2579
▁geeky	-11.258
▁projection	-11.258
▁visualized	-11.2581
▁depth	-11.2584
▁spacex	-11.2587
uda	-11.2598
▁lifetime	-11.2598
destruct	-11.2598
▁supplements	-11.26
games	-11.2605
blo	-11.2606
▁settings	-11.2609
▁node	-11.2614
▁charger	-11.2614
▁scammers	-11.262
▁demands	-11.2622
fest	-11.2623
▁melt	-11.2624
▁scraping	-11.2626
▁realize	-11.2627
▁notebooks	-11.2629
jam	-11.2637
bay	-11.2643
pac	-11.2644
▁wp	-11.2659
▁rogers	-11.2661
▁predicted	-11.2662
▁starter	-11.2663
▁finalists	-11.2664
▁replaced	-11.2667
▁videogame	-11.2675
▁valid	-11.2677
▁critics	-11.2682
▁$60	-11.2699
▁saga	-11.2707
▁photographs	-11.272
▁advisors	-11.2722
ility	-11.2726
50,000	-11.273
rf	-11.2733
iness	-11.2739
▁doubles	-11.2748
▁vacations	-11.2749
▁confirm	-11.2751
▁farmers	-11.2753
▁acc	-11.2753
▁addict	-11.2754
▁43	-11.2759
▁ix	-11.277
▁patient	-11.277
▁manufacturer	-11.2773
▁terrorist	-11.2774
▁tweak	-11.2775
lite	-11.2778
▁outline	-11.2781
▁pirated	-11.2782
▁gra	-11.2787
▁nomad	-11.2795
▁holograph	-11.2805
fun	-11.2806
vr	-11.2806
▁um	-11.2806
▁hurts	-11.2815
▁cab	-11.2824
▁bath	-11.2828
▁mat	-11.2829
▁stands	-11.2836
▁printers	-11.2837
▁graphing	-11.2857
▁shops	-11.2857
▁ux	-11.286
rence	-11.2868
35	-11.2871
keeper	-11.2872
79	-11.2886
▁meant	-11.2889
moo	-11.289
▁$13	-11.2894
▁xm	-11.2901
▁delays	-11.2908
▁lookup	-11.2919
▁applie	-11.2924
wag	-11.2925
▁complaints	-11.2928
▁nut	-11.293
▁stab	-11.2935
build	-11.2939
mc	-11.2946
▁techie	-11.2947
cd	-11.2947
▁temp	-11.2957
▁ode	-11.2959
▁qa	-11.2971
▁#4	-11.2983
▁mas	-11.2998
▁audi	-11.3
fund	-11.3002
▁timing	-11.3002
lim	-11.3009
arro	-11.3009
▁dsls	-11.3011
▁controllers	-11.3016
human	-11.3018
semantic	-11.3022
cheap	-11.3022
changing	-11.3022
performance	-11.3023
knowledge	-11.3023
amazon	-11.3023
about	-11.3023
funny	-11.3023
pit	-11.3023
bird	-11.3023
when	-11.3024
hook	-11.3026
includes	-11.303
price	-11.3031
wise	-11.3033
▁uploads	-11.3037
▁resist	-11.3045
updated	-11.3052
lead	-11.3054
▁featur	-11.3055
quality	-11.3063
tell	-11.3065
▁$22	-11.3066
▁chia	-11.3067
▁accelerate	-11.3067
uf	-11.3069
uz	-11.3076
▁qi	-11.3082
ati	-11.3083
▁technica	-11.3084
▁stole	-11.3086
charge	-11.3087
ajax	-11.309
pix	-11.309
▁interrupt	-11.3092
▁needle	-11.3093
▁louis	-11.3094
▁alzheimer	-11.3094
▁ambitious	-11.3094
▁badminton	-11.3094
▁biofuel	-11.3094
▁conundrum	-11.3094
▁explode	-11.3094
▁favourite	-11.3094
▁flourish	-11.3094
▁galaxy	-11.3094
▁grammar	-11.3094
▁hackathon	-11.3094
▁hypothesis	-11.3094
▁jazz	-11.3094
▁mechanism	-11.3094
▁paradise	-11.3094
▁philadelphia	-11.3094
▁plurk	-11.3094
▁policies	-11.3094
▁repositories	-11.3094
▁routine	-11.3094
▁supernova	-11.3094
▁survivor	-11.3094
▁sydney	-11.3094
▁thrift	-11.3094
▁ubiquitous	-11.3094
▁violence	-11.3094
▁categories	-11.3094
▁census	-11.3094
▁length	-11.3094
▁movable	-11.3094
▁picasa	-11.3094
▁reuters	-11.3094
▁stretch	-11.3094
▁destruction	-11.3094
▁khosla	-11.3094
▁gamble	-11.3094
▁(1998)	-11.3094
▁razr	-11.3094
▁cream	-11.3094
▁desert	-11.3094
▁orlando	-11.3094
▁unlikely	-11.3094
▁predator	-11.3094
▁tonido	-11.3094
▁lewis	-11.3094
▁rfc	-11.3094
▁(2003)	-11.3094
▁sirius	-11.3094
▁russell	-11.3094
▁contextual	-11.3094
▁geographic	-11.3095
▁vesting	-11.3095
▁saturn	-11.3095
▁nationwide	-11.3095
▁certified	-11.3095
▁beatles	-11.3095
▁70%	-11.3095
▁musk	-11.3095
▁curiosity	-11.3095
▁appearance	-11.3095
▁verify	-11.3095
▁existence	-11.3095
▁microscope	-11.3095
▁maven	-11.3096
▁honey	-11.3096
▁deriv	-11.3096
▁bones	-11.3096
▁missile	-11.3096
▁rapidshare	-11.3096
▁advertisement	-11.3096
▁lulu	-11.3096
▁optimisation	-11.3096
▁recruitment	-11.3096
▁relaunch	-11.3096
▁crappy	-11.3096
▁yoga	-11.3096
▁centos	-11.3096
▁retirement	-11.3097
▁iceland	-11.3097
▁combination	-11.3097
▁gimp	-11.3097
▁bacon	-11.3097
▁prosper	-11.3098
▁iminlikewithyou	-11.3098
▁storefront	-11.3098
▁directories	-11.3099
▁1997	-11.3099
▁tighten	-11.3099
▁representation	-11.3099
▁scout	-11.3099
▁potter	-11.3099
▁lord	-11.31
▁lens	-11.31
▁whiteboard	-11.31
▁limb	-11.31
▁nasty	-11.3101
▁rice	-11.3101
▁yale	-11.3101
▁rdf	-11.3101
▁betty	-11.3101
▁superstar	-11.3102
nomic	-11.3102
▁poem	-11.3103
▁wage	-11.3103
▁optimism	-11.3103
▁replay	-11.3104
▁playlist	-11.3104
▁wrapper	-11.3104
▁rake	-11.3104
cia	-11.3105
▁spur	-11.3105
▁blackboard	-11.3105
need	-11.3105
98	-11.3105
▁confused	-11.3105
▁effectiveness	-11.3105
▁legitimate	-11.3106
▁vaccine	-11.3106
▁flavor	-11.3106
▁robust	-11.3107
▁verified	-11.3107
▁$10,000	-11.3108
▁readability	-11.3108
▁reg	-11.311
▁restart	-11.311
▁convenience	-11.3111
▁essentials	-11.3114
▁bret	-11.3114
▁latex	-11.3115
▁cp	-11.3115
ivity	-11.3115
▁begun	-11.3115
▁takedown	-11.3115
▁devil	-11.3116
▁irony	-11.3116
▁poetically	-11.3117
▁korean	-11.3118
▁bypass	-11.3118
▁cultural	-11.3121
▁sol	-11.3123
▁slideshow	-11.3125
▁conferencing	-11.3125
▁oscon	-11.3126
▁wasting	-11.3129
▁logical	-11.3132
▁shy	-11.3135
▁emc	-11.3136
friends	-11.3136
▁pickup	-11.3137
pirate	-11.3137
▁statements	-11.3137
▁backend	-11.3138
lay	-11.3139
▁poly	-11.3141
▁evolved	-11.3144
▁renew	-11.3148
cto	-11.3149
▁aggregate	-11.315
▁combined	-11.3157
hd	-11.3161
▁heron	-11.3165
▁currently	-11.3172
▁awarded	-11.3173
▁served	-11.3174
▁nu	-11.3179
▁hq	-11.3179
ault	-11.3179
▁grown	-11.3183
▁noticed	-11.3185
▁freeware	-11.3189
▁hc	-11.319
▁apologizes	-11.3191
▁microformats	-11.3191
uri	-11.3192
▁corn	-11.3197
▁calculat	-11.3202
▁broadcasting	-11.3205
liner	-11.321
▁destroyed	-11.3211
▁reached	-11.3215
▁6.0	-11.3221
axis	-11.3223
▁trainer	-11.3223
▁exception	-11.3224
▁minimalist	-11.3227
▁thesis	-11.3228
layer	-11.3231
ddle	-11.3234
▁styl	-11.3234
▁visually	-11.3237
▁transforming	-11.3243
▁picker	-11.3243
wives	-11.3244
▁mighty	-11.3251
▁est	-11.3254
▁immun	-11.3254
▁thinkers	-11.3258
▁citizens	-11.3258
▁cite	-11.3259
▁incomplete	-11.3265
▁periodic	-11.3271
▁mur	-11.3273
wal	-11.3273
wood	-11.3276
▁demographics	-11.3278
▁unlocking	-11.3285
▁moments	-11.3286
▁alum	-11.3286
▁charter	-11.3287
66	-11.3292
▁5%	-11.3295
mix	-11.3295
fold	-11.3304
kb	-11.3308
▁infect	-11.3313
▁threading	-11.3317
▁transactions	-11.332
▁conc	-11.3325
▁marketer	-11.3337
gian	-11.3339
▁haz	-11.3347
▁telling	-11.3347
▁ea	-11.3351
▁maximu	-11.3352
▁ml	-11.3355
▁stickers	-11.3359
▁eve	-11.336
bad	-11.337
lly	-11.3375
▁eats	-11.3378
▁react	-11.3379
lang	-11.3383
▁operators	-11.3386
isation	-11.3386
building	-11.3393
▁organizations	-11.3393
turned	-11.3394
path	-11.3396
mode	-11.34
▁wipe	-11.3405
▁moz	-11.3409
elect	-11.3411
▁ports	-11.3413
gene	-11.3416
▁wages	-11.3416
▁reject	-11.3417
▁concern	-11.3419
▁todo	-11.3423
▁lifts	-11.3426
▁gro	-11.3427
▁patients	-11.3429
▁meal	-11.3429
▁gesture	-11.3439
▁hundred	-11.3441
ode	-11.3446
▁numeric	-11.3447
oid	-11.3449
▁archives	-11.3457
▁notation	-11.347
▁badly	-11.3472
nda	-11.3472
▁triggers	-11.3473
▁apartments	-11.3473
▁gour	-11.3473
▁elections	-11.3479
▁simulate	-11.3481
▁overcome	-11.3482
▁datasets	-11.3495
▁ross	-11.3497
▁hum	-11.35
▁catche	-11.35
▁acquir	-11.3509
▁spots	-11.3514
intended	-11.352
▁announcements	-11.3524
▁tons	-11.3527
360	-11.3529
52	-11.3535
▁header	-11.3538
bee	-11.3539
▁webpage	-11.3541
▁comics	-11.3546
▁shirt	-11.3547
▁exists	-11.3549
find	-11.3559
▁zombies	-11.3561
▁suffers	-11.3562
▁dimensions	-11.3573
▁nova	-11.3573
loo	-11.358
▁shi	-11.3585
▁govt	-11.3586
▁fp	-11.3589
▁trains	-11.3593
hash	-11.3595
▁cats	-11.3598
▁victims	-11.3606
ado	-11.3612
tera	-11.3628
gun	-11.3629
▁stages	-11.363
tips	-11.3641
▁xcode	-11.3645
07	-11.3646
usa	-11.3647
hackers	-11.3665
robot	-11.367
▁vend	-11.367
▁jp	-11.3672
▁corporations	-11.3673
office	-11.3676
▁plate	-11.3676
▁weapons	-11.3679
scribe	-11.3683
switch	-11.3689
science	-11.3689
guide	-11.3689
memory	-11.3689
firefox	-11.369
please	-11.369
next	-11.369
color	-11.3691
better	-11.3692
solar	-11.3693
website	-11.3696
▁lively	-11.3697
cache	-11.3698
fair	-11.3698
born	-11.3701
model	-11.3702
▁float	-11.3704
▁cru	-11.3706
▁brainstorm	-11.3706
interesting	-11.3707
▁pumps	-11.3718
▁compile	-11.372
lio	-11.3725
api	-11.3729
▁restaurants	-11.373
string	-11.3734
tie	-11.3734
▁snip	-11.3736
meter	-11.3736
▁restrict	-11.3737
▁conquer	-11.3738
center	-11.3739
runner	-11.3741
▁galactic	-11.3747
▁advise	-11.3748
▁frequent	-11.3749
▁skeptic	-11.3751
▁compute	-11.3752
email	-11.3755
▁barcamp	-11.3758
▁terror	-11.3758
▁federat	-11.3759
aries	-11.3759
▁pseudo	-11.3761
▁advocate	-11.3761
▁argue	-11.3761
▁branson	-11.3761
▁carnival	-11.3761
▁columbia	-11.3761
▁contributor	-11.3761
▁dataportability	-11.3761
▁dawkins	-11.3761
▁dvorak	-11.3761
▁elusive	-11.3761
▁emulator	-11.3761
▁exploding	-11.3761
▁happier	-11.3761
▁horrible	-11.3761
▁ingredient	-11.3761
▁jabber	-11.3761
▁laboratory	-11.3761
▁latency	-11.3761
▁literally	-11.3761
▁refinance	-11.3761
▁registry	-11.3761
▁rubber	-11.3761
▁semiconductor	-11.3761
▁submarine	-11.3761
▁supplier	-11.3761
▁tattoo	-11.3761
▁thompson	-11.3761
▁tufte	-11.3761
▁voyage	-11.3761
▁zeitgeist	-11.3761
▁enthusiast	-11.3761
▁rupert	-11.3761
▁sbcl	-11.3761
▁clash	-11.3761
▁cryptographic	-11.3761
▁undergrad	-11.3761
▁postfix	-11.3761
▁younoodle	-11.3761
▁gordon	-11.3761
▁norway	-11.3761
▁surrender	-11.3761
gnolia	-11.3761
▁petabyte	-11.3761
▁queen	-11.3761
▁sperm	-11.3761
▁emissions	-11.3761
▁shoppers	-11.3761
eukhost	-11.3761
▁dvcs	-11.3761
▁tinker	-11.3761
▁bloomberg	-11.3761
▁fanboy	-11.3761
▁facility	-11.3761
▁linden	-11.3761
▁gdp	-11.3761
▁heysan	-11.3761
▁noob	-11.3761
▁edward	-11.3761
▁mimic	-11.3761
▁musings	-11.3761
▁resizing	-11.3761
▁debugger	-11.3761
▁eager	-11.3761
▁overseas	-11.3761
▁hazard	-11.3761
▁bootstrapped	-11.3762
▁rossum	-11.3762
▁attributes	-11.3762
▁microchip	-11.3762
▁pretend	-11.3762
▁ellison	-11.3762
▁automattic	-11.3762
▁supercomputing	-11.3762
▁acai	-11.3762
▁buzzword	-11.3762
▁curry	-11.3763
▁proposition	-11.3763
▁intuition	-11.3763
▁contrast	-11.3763
▁indeed	-11.3763
▁frontpage	-11.3763
▁doerr	-11.3763
▁awake	-11.3763
▁cyberwar	-11.3763
▁junkies	-11.3764
▁aftermath	-11.3764
▁twine	-11.3765
▁revive	-11.3765
▁evangelist	-11.3765
▁ohio	-11.3765
▁aircraft	-11.3765
▁nonsense	-11.3765
▁dental	-11.3766
▁flee	-11.3766
▁spacecraft	-11.3766
smtp	-11.3766
ovi	-11.3767
▁reactor	-11.3767
▁forgot	-11.3767
▁transactional	-11.3767
▁vanity	-11.3767
▁cookbook	-11.3767
▁skinny	-11.3768
▁lawmaker	-11.3768
▁gruber	-11.3769
▁temperature	-11.3769
▁espn	-11.3769
▁stall	-11.3769
▁decent	-11.377
▁though	-11.377
▁runway	-11.3771
▁clay	-11.3771
▁breakfast	-11.3771
▁omnia	-11.3771
▁delight	-11.3772
▁diggbar	-11.3772
▁hardcore	-11.3774
▁libertarian	-11.3774
▁brink	-11.3775
▁simplified	-11.3776
▁monty	-11.3777
▁majority	-11.3778
▁frequency	-11.3779
▁nba	-11.378
▁interact	-11.378
▁bt	-11.3781
▁cosmo	-11.3781
zone	-11.3782
assim	-11.3782
▁$400	-11.3784
▁concerned	-11.3785
▁voters	-11.3785
▁cmu	-11.3785
▁lowest	-11.3786
▁trucks	-11.3786
ological	-11.3788
▁slot	-11.3789
range	-11.379
▁nowhere	-11.379
▁unleashed	-11.3792
▁debunked	-11.3792
▁lifehacker	-11.3792
▁guard	-11.3793
▁launchbox	-11.3793
▁grass	-11.3794
▁lame	-11.3795
▁cute	-11.3796
▁wsgi	-11.38
▁tribute	-11.3804
▁$18	-11.3805
peer	-11.3805
alam	-11.381
▁apocalypse	-11.3811
▁clubs	-11.3811
▁alltop	-11.3813
▁fax	-11.3815
76	-11.3819
▁brainstorming	-11.3819
▁pets	-11.3825
▁awk	-11.3827
▁config	-11.3829
▁owe	-11.3831
ometer	-11.3832
▁slashe	-11.3834
▁poorly	-11.3842
▁5,000	-11.3844
zu	-11.3844
▁migrate	-11.3845
▁cops	-11.3846
▁bound	-11.3846
▁positioning	-11.385
▁ego	-11.3852
▁dotcom	-11.3853
▁trials	-11.3856
▁candy	-11.3859
▁intentional	-11.386
▁bul	-11.3862
five	-11.3862
▁hive	-11.3866
▁followup	-11.3868
▁imap	-11.3873
▁dare	-11.3876
▁lett	-11.3877
▁dupe	-11.3877
▁dx	-11.3877
job	-11.3878
trace	-11.3881
▁admissions	-11.3887
▁weren	-11.389
pal	-11.3892
cube	-11.3892
bill	-11.3894
▁optional	-11.3895
▁drinking	-11.3896
▁tend	-11.3896
▁rick	-11.3896
demo	-11.3898
▁teache	-11.3899
▁nz	-11.39
foo	-11.39
▁defined	-11.3903
▁engineered	-11.3904
▁collecting	-11.3916
▁criminals	-11.3922
ssert	-11.3926
▁splash	-11.3929
▁shifting	-11.3945
▁enabled	-11.3957
▁answered	-11.3957
▁fundamentals	-11.3958
▁dish	-11.3958
rain	-11.3958
▁solver	-11.396
alone	-11.3967
▁preferences	-11.398
▁aug	-11.3986
▁fits	-11.4
▁incentives	-11.4003
▁strangers	-11.4011
▁jokes	-11.4014
▁inch	-11.4033
▁bol	-11.4034
▁nate	-11.4048
▁sensors	-11.405
▁newton	-11.4052
▁accidents	-11.4066
▁hardy	-11.4066
ette	-11.4067
ese	-11.4071
▁bab	-11.4078
amien	-11.4079
27	-11.4085
ock	-11.4099
▁exceptions	-11.4104
aking	-11.4104
▁dur	-11.411
▁manufacturers	-11.4121
▁hooks	-11.4136
▁rot	-11.4137
event	-11.4137
▁carol	-11.4144
▁expense	-11.4148
▁component	-11.4154
▁operator	-11.4155
▁carrier	-11.4157
▁grail	-11.4158
▁280	-11.4159
▁tactic	-11.4162
▁fractal	-11.4165
▁paradigms	-11.4167
▁podcasting	-11.4168
▁redefin	-11.4174
▁visas	-11.4176
▁contractor	-11.4183
▁farmer	-11.4187
▁inspire	-11.4187
▁rename	-11.4188
▁particles	-11.4191
▁fare	-11.4192
nik	-11.42
▁pla	-11.4201
▁admit	-11.4205
▁sleeping	-11.4225
▁ling	-11.4229
▁violate	-11.4232
▁patented	-11.4234
▁rands	-11.4237
▁eli	-11.4237
direct	-11.4246
▁shirts	-11.4255
▁answering	-11.4256
▁ufo	-11.4263
▁organ	-11.4274
pur	-11.4283
behavioral	-11.4284
▁polling	-11.4289
▁beck	-11.4289
▁shan	-11.4294
logged	-11.4295
illa	-11.4297
ony	-11.4304
earth	-11.4307
dial	-11.4309
eur	-11.431
▁shorteners	-11.4316
▁reap	-11.4317
crunch	-11.4324
owned	-11.433
2/	-11.4338
▁supercomputers	-11.434
▁references	-11.434
▁treatments	-11.434
▁fart	-11.4342
ius	-11.4342
lips	-11.4343
person	-11.4348
fight	-11.4352
izz	-11.4367
▁experimenting	-11.4367
▁gross	-11.4377
▁esp	-11.4377
▁greater	-11.4383
▁tweeting	-11.4386
▁professors	-11.4388
cycle	-11.4391
55	-11.4393
▁bonds	-11.4399
written	-11.4399
&#34;	-11.4401
coding	-11.4401
broken	-11.4403
debian	-11.4403
london	-11.4403
built	-11.4403
yourself	-11.4404
target	-11.4404
normal	-11.4404
finally	-11.4405
blue	-11.4405
plug	-11.4405
logy	-11.4406
▁cofounders	-11.4406
mash	-11.4408
hint	-11.4409
myspace	-11.4412
▁liver	-11.4412
▁molecul	-11.4414
copy	-11.4416
rule	-11.4419
▁spreads	-11.4419
wanted	-11.4421
group	-11.4424
▁cloak	-11.443
ality	-11.443
▁electron	-11.4431
quick	-11.4433
▁buffet	-11.4434
▁thrill	-11.4444
▁seize	-11.4451
▁suspect	-11.4451
easy	-11.4454
▁celeb	-11.4458
heads	-11.4458
▁cra	-11.446
fighting	-11.4462
▁surpass	-11.4465
▁collide	-11.4467
▁cuba	-11.4468
▁teenage	-11.4468
loss	-11.4472
twit	-11.4472
▁assess	-11.4475
neutral	-11.4475
▁absurd	-11.4475
▁assassin	-11.4475
▁automotive	-11.4475
▁accomplish	-11.4475
▁anxiety	-11.4475
▁balsamiq	-11.4475
▁camcorder	-11.4475
▁capabilities	-11.4475
▁cassandra	-11.4475
▁chamber	-11.4475
▁cosmetic	-11.4475
▁crockford	-11.4475
▁deception	-11.4475
▁facilities	-11.4475
▁fatigue	-11.4475
▁fountain	-11.4475
▁franchise	-11.4475
▁hilton	-11.4475
▁hologram	-11.4475
▁independence	-11.4475
▁leonard	-11.4475
▁levchin	-11.4475
▁literacy	-11.4475
▁literature	-11.4475
▁mccarthy	-11.4475
▁meditation	-11.4475
▁mercury	-11.4475
▁misleading	-11.4475
▁mullenweg	-11.4475
▁neanderthal	-11.4475
▁negotiate	-11.4475
▁nehalem	-11.4475
▁netbeans	-11.4475
▁phusion	-11.4475
▁pittsburgh	-11.4475
▁plenty	-11.4475
▁puppy	-11.4475
▁regulate	-11.4475
▁reliability	-11.4475
▁reshape	-11.4475
▁stearns	-11.4475
▁sunglasses	-11.4475
▁sysadmin	-11.4475
▁taylor	-11.4475
▁telepresence	-11.4475
▁variation	-11.4475
▁vodafone	-11.4475
▁xerox	-11.4475
▁yudkowsky	-11.4475
▁asperger	-11.4475
▁autistic	-11.4475
▁colour	-11.4475
▁ethernet	-11.4475
▁ignite	-11.4475
▁inspection	-11.4475
▁kodak	-11.4475
▁leather	-11.4475
▁married	-11.4475
▁atlantic	-11.4475
▁falcon	-11.4475
▁thesubway	-11.4475
▁barbie	-11.4475
interoperability	-11.4475
▁citigroup	-11.4475
▁frugal	-11.4475
▁sterling	-11.4475
▁subtle	-11.4475
▁mutation	-11.4475
▁inequality	-11.4475
▁proud	-11.4475
▁twilio	-11.4475
▁smackdown	-11.4475
▁knee	-11.4475
▁nurse	-11.4475
▁slacker	-11.4475
▁strict	-11.4475
▁flirt	-11.4475
▁farewell	-11.4475
▁neuroscience	-11.4476
▁jailbroken	-11.4476
▁tagged	-11.4476
▁veoh	-11.4476
▁confusing	-11.4476
▁burger	-11.4476
▁senator	-11.4476
▁metaprogramming	-11.4476
▁titanium	-11.4476
▁kept	-11.4476
▁microcontroller	-11.4476
▁drill	-11.4477
▁convertible	-11.4477
▁visualisation	-11.4477
▁turkey	-11.4477
▁yank	-11.4477
▁$0	-11.4477
▁permission	-11.4477
lunarpages	-11.4477
▁toast	-11.4477
▁haque	-11.4477
▁harsh	-11.4477
▁multiplayer	-11.4477
▁confirmation	-11.4478
▁temple	-11.4478
▁remedies	-11.4478
▁vanish	-11.4479
▁chimp	-11.4479
▁teeth	-11.4479
▁pants	-11.4479
holic	-11.4479
▁10.5	-11.448
gp	-11.448
▁legit	-11.4481
▁$50,000	-11.4482
▁rockyou	-11.4482
▁submitted	-11.4482
▁earlier	-11.4482
▁sharepoint	-11.4483
▁vow	-11.4483
▁consistent	-11.4484
▁inspiring	-11.4484
▁manhattan	-11.4484
▁obvious	-11.4484
▁neck	-11.4484
▁wright	-11.4484
▁spaceship	-11.4485
▁smile	-11.4486
▁advisory	-11.4486
▁lime	-11.4487
▁giga	-11.4487
▁vast	-11.4488
▁scheduling	-11.4489
▁frames	-11.449
▁centre	-11.4491
▁acer	-11.4491
▁homo	-11.4492
▁macruby	-11.4494
▁personalization	-11.4494
▁lotus	-11.4494
▁circa	-11.4495
▁ivy	-11.4496
tik	-11.4497
▁deposit	-11.4498
▁convenient	-11.45
▁excerpt	-11.45
▁sensitiv	-11.45
▁infected	-11.4501
▁addicted	-11.4502
▁erp	-11.4503
▁chill	-11.4505
▁appreciated	-11.4505
▁ascii	-11.4506
▁harmony	-11.4506
▁reasonable	-11.4506
▁frequently	-11.4507
▁fatal	-11.4509
▁proper	-11.451
▁electro	-11.451
▁smartest	-11.4511
▁plead	-11.4511
▁publicity	-11.4512
▁sniffing	-11.4513
extraordinary	-11.4513
▁0.1	-11.4513
▁sock	-11.4514
▁tarp	-11.4516
án	-11.4517
▁geni	-11.4517
▁automate	-11.452
config	-11.4521
▁bosses	-11.4523
▁heist	-11.4524
▁20,000	-11.4524
▁eval	-11.4524
▁riches	-11.4524
▁traps	-11.4524
▁tanks	-11.4527
▁mold	-11.4527
▁chad	-11.4531
▁2004	-11.4531
▁snag	-11.4531
▁sig	-11.4535
▁span	-11.4535
▁emotional	-11.4538
▁endless	-11.4538
▁inventory	-11.4539
▁bj	-11.4539
seo	-11.4539
▁mri	-11.4541
▁criticize	-11.4545
▁0.2	-11.4547
getting	-11.4547
▁abandoned	-11.4549
▁&#34;	-11.455
▁modules	-11.4552
▁lander	-11.4556
▁magical	-11.4557
▁rtm	-11.4561
lma	-11.4561
bali	-11.4561
▁indi	-11.4572
▁lure	-11.4575
▁webserver	-11.4582
▁adapter	-11.4583
▁lex	-11.4583
▁$17	-11.4587
▁approved	-11.4588
▁spelling	-11.4594
obe	-11.4596
mob	-11.4596
▁sab	-11.4596
▁aspects	-11.4611
▁tin	-11.4611
▁determin	-11.4614
track	-11.4621
▁lol	-11.4621
▁dock	-11.4623
here	-11.4625
▁ict	-11.4627
▁optimized	-11.4629
▁clustering	-11.4638
▁legally	-11.4645
taking	-11.4664
▁shed	-11.4666
▁enforc	-11.4669
▁architects	-11.4676
▁evening	-11.4677
told	-11.4679
▁usernames	-11.4686
▁hurting	-11.4688
▁suing	-11.4692
▁greener	-11.4698
▁eliminat	-11.4702
vp	-11.4708
▁signed	-11.4709
810	-11.4714
▁protected	-11.472
▁digi	-11.4729
caster	-11.4731
mass	-11.4732
▁rounded	-11.4738
▁magnets	-11.4739
▁cloned	-11.474
than	-11.4741
testing	-11.4749
▁ranks	-11.4757
▁publicly	-11.4762
hq	-11.4763
▁usenet	-11.4766
competent	-11.4772
▁decades	-11.4773
▁np	-11.4776
java	-11.4778
▁simpler	-11.4785
▁attitudes	-11.4787
position	-11.4804
phy	-11.4834
▁nuts	-11.4848
▁graduates	-11.4848
▁conversions	-11.4848
match	-11.4852
▁photograph	-11.4853
▁marine	-11.4866
▁joint	-11.4872
▁$350	-11.4874
▁rebuild	-11.4877
▁headers	-11.4879
▁clo	-11.4882
eti	-11.4889
▁admins	-11.489
ista	-11.489
▁cher	-11.4892
▁pills	-11.4892
36	-11.4894
save	-11.4896
9)	-11.4898
▁valu	-11.4898
zer	-11.4906
▁advisor	-11.4909
▁abstractions	-11.4913
▁conditions	-11.4914
▁astronaut	-11.4918
▁attitude	-11.4919
▁sensor	-11.492
▁sel	-11.4921
▁teenager	-11.4927
▁rely	-11.4931
bury	-11.4935
250	-11.4936
▁prep	-11.4939
▁employer	-11.4947
▁discovering	-11.4954
▁arena	-11.4965
change	-11.4965
▁36	-11.4968
▁jew	-11.4971
▁retailer	-11.4983
▁decode	-11.4987
spark	-11.4995
▁warn	-11.5008
▁redefine	-11.5008
▁robb	-11.5011
▁sting	-11.5013
▁grades	-11.5016
▁clues	-11.5016
there	-11.5018
▁positions	-11.502
▁outer	-11.5026
uous	-11.504
▁dirt	-11.5043
scope	-11.5061
▁rational	-11.5072
▁cope	-11.5074
▁construct	-11.5088
▁oops	-11.5088
reid	-11.5088
▁painting	-11.509
▁posters	-11.5091
▁thrives	-11.5093
▁jit	-11.5093
breaking	-11.5117
▁hel	-11.5119
▁mt	-11.5124
exe	-11.5124
self	-11.5127
network	-11.5138
reading	-11.514
▁moto	-11.514
▁dm	-11.5154
▁bc	-11.5156
sourcing	-11.5157
official	-11.5167
mission	-11.5167
agging	-11.517
▁samples	-11.5171
cartoon	-11.5172
gadget	-11.5172
flex	-11.5172
guitar	-11.5172
multi	-11.5173
perfect	-11.5173
effective	-11.5173
widget	-11.5173
girl	-11.5177
▁jul	-11.5177
chair	-11.518
wave	-11.518
flight	-11.5186
▁codec	-11.5192
brick	-11.5194
▁gif	-11.5198
oh	-11.5199
node	-11.5204
▁3000	-11.5204
missing	-11.5205
▁beam	-11.5205
▁bead	-11.5207
▁ties	-11.5225
▁identifie	-11.5227
▁crowdsource	-11.5228
▁distribute	-11.5231
▁discontinue	-11.5232
▁creep	-11.5233
india	-11.5237
▁mona	-11.5238
onomics	-11.5239
personal	-11.5242
separat	-11.5243
▁uncertain	-11.5243
boss	-11.5243
▁meteor	-11.5244
▁orient	-11.5244
▁akamai	-11.5244
▁algebra	-11.5244
▁blizzard	-11.5244
▁boulder	-11.5244
▁commodore	-11.5244
▁customizable	-11.5244
▁dolphin	-11.5244
▁foursquare	-11.5244
▁invisibility	-11.5244
▁leveraging	-11.5244
▁liberty	-11.5244
▁lighttpd	-11.5244
▁marathon	-11.5244
▁memorial	-11.5244
▁memristor	-11.5244
▁merging	-11.5244
▁mmorpg	-11.5244
▁obscure	-11.5244
▁offshoring	-11.5244
▁ourselves	-11.5244
▁outbreak	-11.5244
▁paranoid	-11.5244
▁penalty	-11.5244
▁penetration	-11.5244
▁penguin	-11.5244
▁plagiarism	-11.5244
▁spectacular	-11.5244
▁sphinx	-11.5244
▁stroustrup	-11.5244
▁summize	-11.5244
▁symantec	-11.5244
▁synthesis	-11.5244
▁transistor	-11.5244
▁unravel	-11.5244
▁wysiwy	-11.5244
▁deciding	-11.5244
▁deconstruct	-11.5244
▁district	-11.5244
▁dominance	-11.5244
▁heuristic	-11.5244
▁jwz	-11.5244
▁lobby	-11.5244
▁microisv	-11.5244
▁recursive	-11.5244
▁revolt	-11.5244
▁supplies	-11.5244
▁unsecured	-11.5244
▁committee	-11.5244
▁mutual	-11.5244
▁nursing	-11.5244
▁domination	-11.5244
▁infinity	-11.5244
▁nomination	-11.5244
▁quirk	-11.5244
▁herbal	-11.5244
▁implant	-11.5244
▁vinod	-11.5244
▁arab	-11.5244
▁frog	-11.5244
▁glam	-11.5244
▁excited	-11.5244
▁innodb	-11.5244
▁outstanding	-11.5244
▁thunderbird	-11.5244
▁reiser	-11.5244
▁utah	-11.5244
▁theoretical	-11.5245
▁disturbing	-11.5245
▁sweep	-11.5245
▁mpaa	-11.5245
▁gotcha	-11.5245
▁sgh	-11.5245
▁nominate	-11.5245
▁composition	-11.5245
▁grandcentral	-11.5245
▁recurr	-11.5245
▁gemstone	-11.5245
▁judgment	-11.5245
▁kidding	-11.5245
▁flowchart	-11.5245
▁bytecode	-11.5245
▁monk	-11.5245
▁twilight	-11.5245
▁horizontal	-11.5245
▁iowa	-11.5245
mair	-11.5245
▁commute	-11.5245
▁tomato	-11.5245
▁utf	-11.5245
▁childhood	-11.5245
▁darcs	-11.5245
▁verification	-11.5245
▁frind	-11.5245
▁royalty	-11.5245
▁dawn	-11.5246
▁minority	-11.5246
▁declaration	-11.5246
▁princeton	-11.5246
▁hiding	-11.5246
▁(2009)	-11.5246
▁uncann	-11.5246
▁division	-11.5246
▁nike	-11.5246
▁terrorism	-11.5246
▁modification	-11.5246
▁iteration	-11.5246
▁loving	-11.5246
▁apology	-11.5246
▁seagate	-11.5246
▁disappointment	-11.5247
▁facelift	-11.5247
▁expertise	-11.5247
▁baja	-11.5247
▁lightning	-11.5247
▁modified	-11.5247
▁unemployed	-11.5248
▁uh	-11.5248
▁banana	-11.5248
▁clueless	-11.5248
▁digest	-11.5248
▁panda	-11.5249
▁keypad	-11.5249
▁couch	-11.5249
▁dialog	-11.5249
▁careful	-11.525
▁biotech	-11.525
▁$3.5	-11.525
▁duke	-11.525
▁flick	-11.5251
▁alexis	-11.5251
▁distan	-11.5252
▁nonprofit	-11.5252
▁burnout	-11.5253
▁weaken	-11.5253
▁penis	-11.5253
▁prosthetic	-11.5253
▁discrimination	-11.5253
▁liveblogging	-11.5254
▁teamwork	-11.5254
▁containers	-11.5254
▁suv	-11.5254
▁fever	-11.5255
▁thinkpad	-11.5255
surpasses	-11.5255
▁fence	-11.5256
▁zenter	-11.5256
▁dismiss	-11.5257
▁cleantech	-11.5258
▁ftp	-11.5258
▁repl	-11.5259
▁socket	-11.526
▁homemade	-11.5262
▁oscar	-11.5263
oogle	-11.5263
▁spies	-11.5264
▁75%	-11.5264
▁fallout	-11.5264
▁inexpensive	-11.5265
▁techno	-11.5265
▁mmo	-11.5265
▁mms	-11.5266
▁replies	-11.5267
task	-11.527
▁shack	-11.5271
▁depart	-11.5272
cms	-11.5273
▁correctly	-11.5274
▁matches	-11.5274
▁atwood	-11.5274
▁searchwiki	-11.5275
awk	-11.5275
▁hackernews	-11.5276
▁ifund	-11.5277
▁desire	-11.5277
toy	-11.5279
▁equi	-11.528
▁bluff	-11.5281
ably	-11.5282
▁blub	-11.5282
▁coke	-11.5285
▁perfection	-11.5285
▁riot	-11.5286
▁orwell	-11.5286
▁newsweek	-11.5288
conscious	-11.5288
▁withdraw	-11.5289
▁cleaners	-11.5289
▁alley	-11.5289
▁75	-11.529
▁payne	-11.529
▁noble	-11.5292
▁nanotech	-11.5293
▁scrolling	-11.5293
iblog	-11.5297
▁automobile	-11.5297
▁256	-11.5297
▁redis	-11.5301
▁individuals	-11.5303
labor	-11.5303
▁drinks	-11.5307
▁quarterly	-11.5309
▁webby	-11.5309
▁suggested	-11.5311
▁classical	-11.5314
▁resize	-11.5318
▁sourcing	-11.5319
▁caterin	-11.5321
▁9.5	-11.5322
▁bsd	-11.5329
▁outlet	-11.533
▁crawling	-11.5331
mba	-11.5334
▁assumptions	-11.5338
vu	-11.5339
▁tron	-11.534
▁runner	-11.5345
▁parc	-11.5351
▁ycnews	-11.5355
aci	-11.5355
▁pose	-11.5359
ridge	-11.536
▁disappearing	-11.5363
▁grosse	-11.5364
▁ferriss	-11.5365
▁taxpayers	-11.5365
▁relie	-11.5367
▁2.8	-11.5373
nyc	-11.5378
▁locked	-11.538
▁slower	-11.5384
designer	-11.5389
plane	-11.5394
▁goodness	-11.5394
boy	-11.5397
▁blamed	-11.5405
erative	-11.5406
▁affected	-11.5411
▁regulators	-11.5419
▁immigrants	-11.5419
▁popup	-11.5419
▁whois	-11.5425
▁surfers	-11.5427
▁goodies	-11.5429
▁upper	-11.5429
▁beside	-11.5444
▁cli	-11.5446
hap	-11.5446
▁farming	-11.5446
▁transforms	-11.545
▁recreat	-11.5465
▁guid	-11.5474
cker	-11.5475
▁sling	-11.5478
▁fri	-11.5492
▁losers	-11.5509
usually	-11.5518
rri	-11.5518
laden	-11.5518
▁limiting	-11.5524
▁headaches	-11.5527
▁recorder	-11.553
wan	-11.5531
var	-11.5538
verge	-11.5542
▁che	-11.5543
▁'07	-11.5545
▁kim	-11.5553
▁instructions	-11.5555
▁twitt	-11.5556
▁recorded	-11.5567
▁coo	-11.5571
▁compos	-11.5572
▁$19	-11.558
▁astronauts	-11.5582
▁teenagers	-11.5584
ought	-11.5587
▁boing	-11.5596
▁acting	-11.56
ggy	-11.5602
bear	-11.5605
▁expenses	-11.561
lore	-11.561
▁warp	-11.5612
oops	-11.5619
▁hobb	-11.562
oda	-11.5624
▁freeman	-11.5633
▁webpages	-11.5637
▁virtually	-11.5656
ilia	-11.5658
210	-11.566
meaningful	-11.5661
▁founded	-11.5662
▁closet	-11.5664
saul	-11.5664
city	-11.5671
▁prim	-11.5674
▁natal	-11.5679
▁resigns	-11.5683
▁validate	-11.5687
▁mel	-11.5699
▁om	-11.5701
▁manipulat	-11.5703
▁trac	-11.571
▁returning	-11.5712
▁spinn	-11.5712
ork	-11.5716
▁condo	-11.5717
▁wash	-11.5719
▁stump	-11.5722
▁comm	-11.5727
fav	-11.5736
▁dinosaur	-11.575
▁instruction	-11.5751
▁violation	-11.5752
▁shareholder	-11.5757
aza	-11.5762
jobs	-11.5773
▁38	-11.5776
writer	-11.5776
zzle	-11.579
▁goto	-11.5792
lia	-11.5794
pati	-11.5795
▁maximiz	-11.5808
▁sys	-11.5811
selling	-11.5813
▁sticker	-11.5815
▁verb	-11.5816
nz	-11.5822
▁escorts	-11.5831
▁referrals	-11.5832
▁150	-11.5862
▁resurrect	-11.5868
▁employ	-11.5885
▁bottles	-11.5887
lean	-11.589
▁zend	-11.5897
struct	-11.5902
▁kh	-11.5904
▁il	-11.5928
▁ian	-11.5929
watt	-11.5934
dell	-11.5941
▁contains	-11.5945
aha	-11.5959
▁earl	-11.5962
▁tier	-11.5962
suck	-11.5968
connect	-11.5981
ffer	-11.5984
▁shin	-11.5992
▁44	-11.5995
mortem	-11.6
venture	-11.6002
savvy	-11.6005
eu	-11.6005
controlled	-11.6005
gnome	-11.6005
record	-11.6005
intelligent	-11.6005
inspired	-11.6006
creator	-11.6006
travel	-11.6006
scribd	-11.6006
something	-11.6006
pilot	-11.6006
movie	-11.6006
creative	-11.6006
buzz	-11.6006
directory	-11.6006
client	-11.6006
rocket	-11.6007
bubble	-11.6007
legal	-11.6007
pool	-11.6009
spread	-11.601
payment	-11.601
bomb	-11.601
fox	-11.6011
teach	-11.6012
pick	-11.6013
fuck	-11.6013
rmal	-11.6016
▁boxing	-11.6016
990	-11.6017
▁pond	-11.6023
hood	-11.6024
▁poison	-11.6028
storm	-11.6029
fy	-11.6029
pipe	-11.6035
builder	-11.6037
▁incorrect	-11.6037
▁refus	-11.6047
angel	-11.6047
▁expire	-11.6051
▁crop	-11.6053
▁omni	-11.6055
▁profession	-11.6058
spec	-11.6058
ready	-11.6059
▁earning	-11.6061
▁optimis	-11.6062
report	-11.6064
▁comfort	-11.6066
▁klein	-11.6066
walk	-11.6069
▁gab	-11.607
▁warrant	-11.607
▁checker	-11.6072
▁chose	-11.6073
▁intuit	-11.6074
▁tur	-11.6074
▁transcript	-11.6075
physicist	-11.6075
spring	-11.6075
analytic	-11.6076
▁loyal	-11.6076
▁kon	-11.6077
▁scholar	-11.6077
▁56	-11.6078
▁alaska	-11.6078
▁bachelor	-11.6078
▁berkshire	-11.6078
▁circum	-11.6078
▁confidential	-11.6078
▁guerrilla	-11.6078
▁jupiter	-11.6078
▁jython	-11.6078
▁merrill	-11.6078
▁michigan	-11.6078
▁ottawa	-11.6078
▁patience	-11.6078
▁reception	-11.6078
▁smugmug	-11.6078
catastrophic	-11.6078
frozen	-11.6078
▁accelerating	-11.6078
▁amsterdam	-11.6078
▁assignment	-11.6078
▁bookshelf	-11.6078
▁carnegie	-11.6078
▁chevy	-11.6078
▁companion	-11.6078
▁criteria	-11.6078
▁crucial	-11.6078
▁cyborg	-11.6078
▁deceptive	-11.6078
▁deficit	-11.6078
▁deluxe	-11.6078
▁disguise	-11.6078
▁enrollment	-11.6078
▁etiquette	-11.6078
▁eventually	-11.6078
▁exodus	-11.6078
▁fibonacci	-11.6078
▁gasoline	-11.6078
▁gazelle	-11.6078
▁goliath	-11.6078
▁houston	-11.6078
▁hurdle	-11.6078
▁incorporation	-11.6078
▁insomnia	-11.6078
▁kentucky	-11.6078
▁knife	-11.6078
▁laziness	-11.6078
▁medieval	-11.6078
▁neglect	-11.6078
▁odyssey	-11.6078
▁permalink	-11.6078
▁persuasive	-11.6078
▁pokemon	-11.6078
▁pollution	-11.6078
▁redundant	-11.6078
▁switzerland	-11.6078
▁tribune	-11.6078
▁utilities	-11.6078
▁vaynerchuk	-11.6078
▁volcano	-11.6078
▁zillow	-11.6078
▁zynga	-11.6078
▁clause	-11.6078
▁galatta	-11.6078
▁hungry	-11.6078
▁litmus	-11.6078
▁rakhi	-11.6078
▁remarkable	-11.6078
▁residential	-11.6078
▁seminar	-11.6078
▁turnaround	-11.6078
▁alexander	-11.6078
▁depressed	-11.6078
▁erotic	-11.6078
▁thwart	-11.6078
▁whitman	-11.6078
▁glory	-11.6078
▁liberal	-11.6078
▁lousy	-11.6078
▁stross	-11.6078
▁docstoc	-11.6078
▁actress	-11.6078
▁inquiry	-11.6078
▁partitioning	-11.6078
▁looms	-11.6078
▁pbx	-11.6078
▁davos	-11.6078
▁swallow	-11.6078
▁scarcity	-11.6078
▁transmission	-11.6078
▁correlation	-11.6078
▁midphase	-11.6078
▁sheep	-11.6078
▁shoestring	-11.6078
▁yslow	-11.6078
▁phorm	-11.6078
▁assume	-11.6078
▁edison	-11.6078
▁bedroom	-11.6078
▁yawn	-11.6078
▁whining	-11.6078
▁piano	-11.6079
▁thunder	-11.6079
▁ironruby	-11.6079
▁glut	-11.6079
▁athletes	-11.6079
▁eleven	-11.6079
▁delaware	-11.6079
▁emergence	-11.6079
▁thumbnail	-11.6079
▁sandisk	-11.6079
▁blade	-11.6079
▁1998	-11.6079
▁reduction	-11.6079
▁okay	-11.6079
▁tampa	-11.608
▁salad	-11.608
▁smug	-11.608
▁erupt	-11.608
▁firing	-11.608
▁guild	-11.608
▁clinic	-11.608
▁recycling	-11.608
▁playboy	-11.608
▁rspec	-11.608
▁illustrator	-11.608
▁capability	-11.6081
▁terrain	-11.6081
▁agenda	-11.6081
▁kvm	-11.6081
▁fridge	-11.6081
▁attractive	-11.6081
▁roommate	-11.6082
▁nigerian	-11.6082
▁vital	-11.6082
▁governor	-11.6082
▁classification	-11.6082
▁wikimedia	-11.6082
▁99%	-11.6082
▁norwe	-11.6083
▁sonar	-11.6083
▁arrival	-11.6083
▁stamp	-11.6083
▁invade	-11.6083
▁tex	-11.6084
▁95%	-11.6084
▁downvote	-11.6084
▁rebrand	-11.6084
▁exaggerated	-11.6085
▁brace	-11.6085
▁whitehouse	-11.6085
▁everyblock	-11.6085
▁retrieval	-11.6085
▁lacy	-11.6085
▁chosen	-11.6087
▁watchdog	-11.6087
▁kayak	-11.6087
▁kung	-11.6088
▁scrabble	-11.6088
▁doomsday	-11.6088
▁widgetbox	-11.6088
▁dune	-11.6088
▁relativity	-11.6088
▁paycheck	-11.6088
▁versa	-11.6088
▁somebody	-11.6088
▁spamming	-11.6088
naire	-11.6088
▁threadless	-11.6088
▁optimistic	-11.6089
▁wearable	-11.6089
▁bla	-11.6089
▁6600	-11.6089
▁diesel	-11.6089
▁spree	-11.6089
▁sunlight	-11.609
▁theorist	-11.6091
▁snar	-11.6091
hel	-11.6091
functional	-11.6091
▁infoq	-11.6092
▁oprah	-11.6094
▁parody	-11.6094
▁producing	-11.6094
▁wreck	-11.6094
▁recharge	-11.6096
▁dice	-11.6097
▁dropout	-11.6097
▁invert	-11.6097
▁foss	-11.6097
▁namespace	-11.6097
▁globalization	-11.6097
▁ramen	-11.6098
▁lala	-11.6098
▁outcome	-11.6099
▁realities	-11.61
▁warrior	-11.6101
▁ieee	-11.6101
▁sudo	-11.6101
▁rms	-11.6101
▁assist	-11.6102
▁trivial	-11.6102
▁indent	-11.6103
▁donations	-11.6105
▁spill	-11.6106
▁wwe	-11.6107
▁appjet	-11.6107
▁biases	-11.6108
▁erik	-11.6108
▁ogg	-11.6108
▁fra	-11.6108
▁moose	-11.611
▁voicemail	-11.6113
▁lts	-11.6113
▁established	-11.6113
▁holders	-11.6114
▁gallon	-11.6115
▁8.0	-11.6115
looking	-11.6115
achi	-11.6115
▁paperless	-11.6117
▁vol	-11.6117
▁spoke	-11.6119
▁appropriate	-11.612
▁denied	-11.6123
▁marvel	-11.6124
▁behold	-11.6126
▁rapidly	-11.6127
▁joker	-11.613
▁oled	-11.6134
▁disconnect	-11.6137
▁artwork	-11.6138
▁socialmedia	-11.6139
▁organise	-11.614
weaver	-11.6143
▁lately	-11.6144
▁imitat	-11.615
▁sass	-11.615
▁macos	-11.6151
▁dull	-11.6152
▁98	-11.6158
▁travelers	-11.6159
▁profiler	-11.6159
▁received	-11.6162
▁plugg	-11.6164
▁cass	-11.6175
▁belt	-11.6176
aged	-11.6178
▁astronomers	-11.618
▁trim	-11.6181
jeev	-11.6183
▁brit	-11.619
burn	-11.6191
▁omg	-11.6195
▁walker	-11.6196
/2009	-11.6196
▁goof	-11.6208
▁jailbreaking	-11.6209
slides	-11.6209
▁oz	-11.6209
▁veterans	-11.6209
▁covered	-11.6214
oodle	-11.6216
▁decided	-11.6218
▁craz	-11.6219
▁minda	-11.6219
▁workout	-11.6219
▁surprised	-11.622
▁95	-11.6223
▁trolling	-11.6227
jan	-11.6231
▁educate	-11.6232
▁directed	-11.6235
bbi	-11.6236
threaded	-11.6237
▁billboards	-11.6239
▁levi	-11.624
▁livingston	-11.6241
▁parse	-11.6242
ffe	-11.6244
▁moderate	-11.6249
ripped	-11.6254
▁gc	-11.6256
bull	-11.6258
▁visited	-11.6259
▁meg	-11.6264
▁nathan	-11.6267
▁licensed	-11.6271
▁$75	-11.6273
▁$2.5	-11.6278
2.7	-11.6279
▁marku	-11.628
▁inventing	-11.6297
▁bulbs	-11.6298
▁mockups	-11.6301
▁kai	-11.6303
▁61	-11.6305
▁wasted	-11.6306
2007	-11.6312
▁edu	-11.6313
▁dodge	-11.6316
▁cleanse	-11.6317
hid	-11.6328
▁pho	-11.633
▁tee	-11.6331
▁dere	-11.6333
ezer	-11.6336
hill	-11.6338
▁oppose	-11.6339
▁kicking	-11.634
enstein	-11.6341
▁postal	-11.6357
▁exceptional	-11.6357
**	-11.6368
▁challenger	-11.637
▁poli	-11.6375
▁worthy	-11.6385
techie	-11.6389
▁doj	-11.6412
▁dinosaurs	-11.6417
▁violations	-11.6417
gged	-11.6425
▁radi	-11.6434
▁punish	-11.6436
▁kil	-11.6439
▁usable	-11.644
▁gop	-11.6446
▁paintings	-11.6448
mun	-11.6449
flo	-11.6456
▁await	-11.6472
▁mug	-11.6473
▁contractors	-11.6477
▁inspires	-11.6477
bag	-11.6485
▁minu	-11.6485
▁repo	-11.6496
zine	-11.6499
▁500,000	-11.6501
▁fable	-11.6507
mid	-11.6509
▁commerce	-11.6514
▁urgen	-11.6524
▁addicts	-11.6525
▁$35	-11.6529
▁anticipat	-11.6533
▁coat	-11.6533
▁attacked	-11.6542
▁critic	-11.6544
hog	-11.6552
▁magnet	-11.6566
tangle	-11.6578
lack	-11.6584
▁lit	-11.6587
miner	-11.6591
▁webex	-11.6594
▁quota	-11.66
630	-11.6601
laine	-11.6603
▁parent	-11.6616
07)	-11.6625
▁reasoning	-11.6634
▁hom	-11.6639
tia	-11.6644
▁vin	-11.6645
▁headache	-11.6661
▁incentive	-11.6662
▁contribution	-11.6665
▁applicant	-11.6668
▁spammer	-11.6668
▁played	-11.6669
▁communicat	-11.6671
heat	-11.6689
▁transaction	-11.6693
isp	-11.6693
04	-11.6708
▁freelancer	-11.6709
▁cape	-11.6711
minded	-11.6716
▁stranger	-11.6716
1,000	-11.6736
formed	-11.675
▁cray	-11.676
54	-11.6784
▁rome	-11.6789
pod	-11.6793
▁experienced	-11.6797
tap	-11.6827
kind	-11.6827
▁fend	-11.6828
connected	-11.6831
know	-11.6842
▁120	-11.6853
hunt	-11.6861
draw	-11.6867
▁lawn	-11.688
vote	-11.6903
engineer	-11.6905
▁hein	-11.6911
controller	-11.6913
computing	-11.6913
fusion	-11.6914
mouth	-11.6914
critical	-11.6914
product	-11.6914
document	-11.6914
according	-11.6915
family	-11.6915
white	-11.6915
blind	-11.6915
should	-11.6915
scaling	-11.6915
structure	-11.6916
exchange	-11.6916
little	-11.6917
truck	-11.6917
techcrunch	-11.6917
picture	-11.6917
monster	-11.6918
sleep	-11.6918
hopping	-11.6918
after	-11.6918
maybe	-11.6918
▁item	-11.692
small	-11.6921
▁emergen	-11.6922
was	-11.6922
paul	-11.6924
▁kin	-11.6931
without	-11.6934
▁uncov	-11.6935
flop	-11.6941
close	-11.6943
road	-11.6945
▁significan	-11.6945
▁straw	-11.6947
25%	-11.6947
▁brid	-11.6949
▁bridg	-11.6949
▁visio	-11.6959
▁$750	-11.6961
▁suspend	-11.6964
▁nose	-11.6968
▁psych	-11.6971
▁sudden	-11.6975
▁retriev	-11.6979
▁guilt	-11.6979
every	-11.698
▁numb	-11.6981
▁2,000	-11.6985
▁probabili	-11.6985
▁royal	-11.6986
▁graffiti	-11.6987
▁sophisticat	-11.6987
▁zimbabwe	-11.6987
helvetica	-11.6987
hibernate	-11.6987
▁academy	-11.6987
▁acrobat	-11.6987
▁activist	-11.6987
▁anecdote	-11.6987
▁apprentice	-11.6987
▁approximate	-11.6987
▁atlantis	-11.6987
▁bazaar	-11.6987
▁chennai	-11.6987
▁colbert	-11.6987
▁concentrate	-11.6987
▁concrete	-11.6987
▁contagious	-11.6987
▁contributing	-11.6987
▁craftsmanship	-11.6987
▁cupcake	-11.6987
▁curtain	-11.6987
▁diagnose	-11.6987
▁dissertation	-11.6987
▁distinguish	-11.6987
▁drizzle	-11.6987
▁encouraging	-11.6987
▁enormous	-11.6987
▁exoskeleton	-11.6987
▁exponential	-11.6987
▁frustrated	-11.6987
▁fulfill	-11.6987
▁furninshings	-11.6987
▁geithner	-11.6987
▁gorgeous	-11.6987
▁haiku	-11.6987
▁malaysia	-11.6987
▁mandelbrot	-11.6987
▁memphis	-11.6987
▁narrow	-11.6987
▁nutrition	-11.6987
▁opensolaris	-11.6987
▁pacific	-11.6987
▁pennsylvania	-11.6987
▁phrase	-11.6987
▁possibility	-11.6987
▁postmodern	-11.6987
▁pregnant	-11.6987
▁prejudice	-11.6987
▁pubsubhubbub	-11.6987
▁pursuing	-11.6987
▁religious	-11.6987
▁resemble	-11.6987
▁resveratrol	-11.6987
▁roulette	-11.6987
▁rumour	-11.6987
▁scramble	-11.6987
▁secrecy	-11.6987
▁seibel	-11.6987
▁simultaneous	-11.6987
▁steady	-11.6987
▁symfony	-11.6987
▁taiwan	-11.6987
▁tragedy	-11.6987
▁translating	-11.6987
▁twhirl	-11.6987
▁unobtrusive	-11.6987
▁violent	-11.6987
▁wundrbar	-11.6987
▁xoopit	-11.6987
▁zawodny	-11.6987
▁contender	-11.6987
▁credentials	-11.6987
▁gambit	-11.6987
▁losethos	-11.6987
▁mojo	-11.6987
▁mybloglog	-11.6987
▁segment	-11.6987
▁hindi	-11.6987
▁inference	-11.6987
▁interior	-11.6987
▁separation	-11.6987
▁spoof	-11.6987
▁spook	-11.6987
▁draper	-11.6987
▁eckel	-11.6987
▁looming	-11.6987
▁munger	-11.6987
▁soccer	-11.6987
▁dexter	-11.6987
▁intercept	-11.6987
▁newscred	-11.6987
▁pigeon	-11.6987
▁spears	-11.6987
▁workaround	-11.6987
▁plasma	-11.6987
▁picwing	-11.6987
▁intense	-11.6987
▁pursuit	-11.6987
▁raskin	-11.6987
▁terrific	-11.6987
▁joshua	-11.6987
▁stalking	-11.6987
decimal	-11.6987
▁trenches	-11.6987
vibes	-11.6987
▁cheese	-11.6987
▁insult	-11.6987
▁unboxing	-11.6987
▁crises	-11.6987
▁helmet	-11.6987
▁megapixel	-11.6987
▁chunk	-11.6987
▁treo	-11.6987
▁glen	-11.6987
▁ibex	-11.6987
▁siggraph	-11.6987
▁dramatically	-11.6987
▁synchronization	-11.6987
▁drones	-11.6987
▁0.3	-11.6987
▁configuring	-11.6987
▁surplus	-11.6987
▁wheelchair	-11.6987
▁racing	-11.6987
▁buggy	-11.6987
▁helium	-11.6987
▁sedan	-11.6987
▁pastebin	-11.6987
▁alumni	-11.6987
▁arbitrage	-11.6988
▁republic	-11.6988
▁montreal	-11.6988
▁tuition	-11.6988
▁mainframe	-11.6988
▁disclose	-11.6988
▁tweetmeme	-11.6988
▁ged	-11.6988
▁harris	-11.6988
▁geography	-11.6988
▁kidney	-11.6988
▁vinci	-11.6988
▁guer	-11.6988
▁hicks	-11.6988
▁decentralized	-11.6988
▁freddie	-11.6988
▁basis	-11.6988
▁candle	-11.6988
▁saint	-11.6988
▁ticketmaster	-11.6988
▁leaderboard	-11.6988
▁civilization	-11.6988
▁brooks	-11.6988
▁stiff	-11.6988
▁repose	-11.6988
▁compass	-11.6989
▁matchmaking	-11.6989
▁linq	-11.6989
dominant	-11.6989
▁metadata	-11.6989
▁aviary	-11.6989
▁connectivity	-11.6989
▁merbcamp	-11.6989
▁pornography	-11.6989
▁arcade	-11.6989
▁crunchbase	-11.6989
▁alice	-11.6989
▁maemo	-11.699
▁footage	-11.699
▁sqs	-11.699
▁campfire	-11.699
▁distributor	-11.699
▁elance	-11.699
▁dbms	-11.699
▁stephenson	-11.699
▁dependencies	-11.699
▁peep	-11.699
▁countdown	-11.699
▁fabrication	-11.699
▁crackdown	-11.699
▁pride	-11.6991
▁floss	-11.6991
▁markov	-11.6991
▁highrise	-11.6992
▁bookkeeping	-11.6992
▁norman	-11.6992
networking	-11.6992
▁columnist	-11.6992
▁recycle	-11.6992
▁cyberspace	-11.6992
▁reborn	-11.6993
▁geometry	-11.6993
▁immediately	-11.6993
▁uglie	-11.6993
▁grim	-11.6993
▁admob	-11.6994
▁springsource	-11.6994
▁loren	-11.6994
▁cramer	-11.6994
▁blackjack	-11.6994
▁pbs	-11.6995
▁slum	-11.6995
▁extinct	-11.6995
▁pony	-11.6995
▁formatting	-11.6996
▁cloudfront	-11.6996
▁josh	-11.6996
▁microphone	-11.6997
▁hbase	-11.6997
▁scroll	-11.6997
▁nowpublic	-11.6997
▁beep	-11.6997
▁consistency	-11.6998
▁heyzap	-11.6998
finding	-11.6998
▁hydro	-11.6998
▁searchmonkey	-11.6999
▁cardboard	-11.6999
▁gile	-11.6999
▁assessment	-11.7
▁cloudera	-11.7
▁openbsd	-11.7
▁parable	-11.7
▁seekers	-11.7
▁beast	-11.7
▁creepy	-11.7001
▁swear	-11.7001
▁cashback	-11.7002
▁rover	-11.7003
▁lung	-11.7003
▁carefully	-11.7004
fledg	-11.7004
▁411	-11.7004
▁dilution	-11.7005
▁pundit	-11.7005
▁rdbms	-11.7005
▁compromised	-11.7006
▁tide	-11.7006
▁sacrifice	-11.7006
▁$1.3	-11.7006
▁homework	-11.7007
▁blender	-11.7007
▁steer	-11.7007
▁swf	-11.7007
▁loic	-11.7008
▁consume	-11.7009
▁paulson	-11.7009
▁opensim	-11.7009
▁stupidest	-11.701
▁nickb	-11.7012
▁especially	-11.7012
▁medal	-11.7012
keeping	-11.7013
▁daddy	-11.7013
esque	-11.7013
▁medica	-11.7014
▁zim	-11.7015
▁illustrated	-11.7016
▁navy	-11.7017
▁djangocon	-11.7017
▁avg	-11.7018
▁2020	-11.7018
▁:-)	-11.7018
chart	-11.702
▁1.4	-11.702
▁cpan	-11.702
▁thrown	-11.702
▁beaten	-11.7024
▁piss	-11.7025
▁homeland	-11.7025
▁hamp	-11.7026
obama	-11.7027
▁historic	-11.7028
enberg	-11.7028
▁payoff	-11.7029
▁bully	-11.703
▁sneaky	-11.7032
▁continuing	-11.7032
▁googleplex	-11.7033
▁receiver	-11.7035
agent	-11.7037
▁buddy	-11.7039
▁opentable	-11.7043
▁speeches	-11.7046
▁balancer	-11.7047
▁promoter	-11.7047
▁finished	-11.7049
▁insecure	-11.705
▁hardest	-11.705
▁bucket	-11.705
▁poisoning	-11.7051
▁compatible	-11.7055
rom	-11.7055
▁poop	-11.7056
forge	-11.7056
▁minor	-11.7058
▁pointers	-11.7061
▁described	-11.7061
▁downside	-11.7062
▁fleet	-11.7065
▁disadvantages	-11.7067
▁troops	-11.7068
▁mythbusters	-11.7068
trapped	-11.7069
▁seller	-11.707
▁20+	-11.7073
zip	-11.7074
▁mortem	-11.7074
ghz	-11.7076
▁watt	-11.7077
▁woot	-11.7078
▁dumber	-11.7081
▁fud	-11.7083
▁hijacking	-11.7085
▁greatness	-11.7085
▁faire	-11.7086
arne	-11.7087
▁diving	-11.7094
lain	-11.7101
▁censoring	-11.7101
jpg	-11.7103
▁squared	-11.7103
▁nec	-11.7115
▁earlie	-11.7116
▁produced	-11.7122
750	-11.7126
rod	-11.713
▁constraints	-11.7132
eff	-11.7134
▁4.2	-11.7134
raku	-11.7135
▁pgp	-11.714
▁cord	-11.7141
▁inbound	-11.7145
porn	-11.7146
▁soil	-11.7151
ika	-11.7152
▁newmark	-11.716
▁butter	-11.7164
▁crowded	-11.7172
yam	-11.718
nl	-11.7193
▁pub	-11.7194
▁tempt	-11.7195
▁derivatives	-11.7196
▁annotations	-11.7196
▁sisters	-11.7196
▁pod	-11.7212
/08	-11.7217
gli	-11.7217
▁indoor	-11.7227
▁blunders	-11.7229
▁publications	-11.7236
itis	-11.7245
▁slave	-11.7245
vista	-11.7248
hung	-11.725
▁10.6	-11.7252
yhoo	-11.7254
▁revealing	-11.7258
▁downloadable	-11.7266
▁vive	-11.7275
61	-11.7278
▁costly	-11.7294
▁growl	-11.7302
steve	-11.7305
▁violat	-11.7306
▁heal	-11.7311
laude	-11.7318
▁quant	-11.7318
▁blocker	-11.7322
▁pier	-11.7327
clip	-11.7351
▁execute	-11.7352
bid	-11.7356
▁plat	-11.7378
▁5000	-11.7391
▁grave	-11.7402
brey	-11.7412
▁pow	-11.7421
▁cracker	-11.7423
mont	-11.7427
ico	-11.744
tuck	-11.746
pressive	-11.7488
▁educat	-11.749
▁lighter	-11.749
tax	-11.7497
ographic	-11.7499
▁pointless	-11.7502
deal	-11.7511
▁sear	-11.7513
rox	-11.7516
▁celebrat	-11.7522
▁lend	-11.753
905	-11.7553
▁fab	-11.7555
▁lang	-11.7558
▁steele	-11.7559
rise	-11.7572
▁none	-11.7579
ache	-11.7586
char	-11.7594
-12	-11.7597
gro	-11.7599
tungs	-11.7607
anta	-11.761
though	-11.7612
defined	-11.7615
ption	-11.7632
stances	-11.7639
▁offend	-11.7648
raz	-11.7658
▁roger	-11.7665
▁preference	-11.7665
▁continuation	-11.7666
▁plott	-11.7666
▁shortcut	-11.7672
cco	-11.7673
▁finalist	-11.7681
clude	-11.7691
▁monad	-11.7698
▁aero	-11.7702
▁jaw	-11.7704
3,000	-11.7715
▁bb	-11.7734
▁spl	-11.7742
kada	-11.7753
▁musician	-11.776
bur	-11.7761
cross	-11.7762
ugu	-11.7765
▁unleash	-11.7766
udi	-11.7767
rita	-11.7777
▁$1000	-11.7794
▁1.8	-11.7795
▁ran	-11.7813
udge	-11.7818
gig	-11.7823
▁dl	-11.7832
local	-11.7843
▁motivat	-11.7845
learn	-11.7858
2,500	-11.7868
1000	-11.7869
▁premiere	-11.787
▁demon	-11.787
5.0	-11.7875
▁heck	-11.7881
▁ola	-11.7897
combinator	-11.7899
public	-11.79
chip	-11.79
▁memcache	-11.7904
pixel	-11.7906
▁authentic	-11.7909
writing	-11.7909
limited	-11.791
compatible	-11.7912
evolution	-11.7913
natural	-11.7913
scroll	-11.7913
gravity	-11.7914
quote	-11.7914
seller	-11.7914
distance	-11.7914
suggest	-11.7914
fashion	-11.7915
conference	-11.7915
▁rug	-11.7915
because	-11.7915
response	-11.7915
application	-11.7915
visual	-11.7915
private	-11.7915
enterprise	-11.7915
global	-11.7915
desktop	-11.7915
third	-11.7915
technology	-11.7915
amazing	-11.7916
submit	-11.7916
feedback	-11.7917
productive	-11.7917
screencast	-11.7917
capital	-11.7917
license	-11.7917
font	-11.7917
prize	-11.7921
▁opencl	-11.7922
swarm	-11.7922
discovery	-11.7923
▁thi	-11.7923
bridge	-11.7925
fake	-11.793
wrap	-11.793
cdn	-11.7931
▁defensi	-11.7932
erlang	-11.7935
plex	-11.7938
spoken	-11.7939
lessons	-11.7941
kee	-11.795
rama	-11.7952
▁mask	-11.7953
food	-11.7955
loan	-11.7955
rating	-11.7956
▁architectur	-11.7959
▁impress	-11.7963
▁revamp	-11.7964
▁opencoffee	-11.7968
▁crow	-11.7969
▁infiltrat	-11.7971
▁gw	-11.7972
▁grub	-11.7975
illion	-11.7977
jay	-11.7977
fat	-11.7979
▁rig	-11.798
plash	-11.798
hol	-11.7981
emacs	-11.7982
want	-11.7982
▁reconstruct	-11.7984
▁rehab	-11.7986
▁inherit	-11.7986
▁razor	-11.7987
▁grease	-11.7987
intrepid	-11.7987
squash	-11.7987
▁accuracy	-11.7987
▁alibaba	-11.7987
▁argentina	-11.7987
▁attached	-11.7987
▁autodesk	-11.7987
▁barcelona	-11.7987
▁bernanke	-11.7987
▁bikini	-11.7987
▁boycott	-11.7987
▁bracket	-11.7987
▁challenging	-11.7987
▁christopher	-11.7987
▁cirtex	-11.7987
▁codeigniter	-11.7987
▁cognition	-11.7987
▁concentration	-11.7987
▁congrats	-11.7987
▁congratulations	-11.7987
▁conservation	-11.7987
▁convincing	-11.7987
▁coordinate	-11.7987
▁cripple	-11.7987
▁currencies	-11.7987
▁daughter	-11.7987
▁demystify	-11.7987
▁egypt	-11.7987
▁enforcement	-11.7987
▁engelbart	-11.7987
▁entreprenuer	-11.7987
▁explosive	-11.7987
▁facilitat	-11.7987
▁fennec	-11.7987
▁flexibility	-11.7987
▁galleries	-11.7987
▁geocities	-11.7987
▁hackintosh	-11.7987
▁intervention	-11.7987
▁jackalope	-11.7987
▁jewellery	-11.7987
▁jungle	-11.7987
▁loneliness	-11.7987
▁longevity	-11.7987
▁lucrative	-11.7987
▁marshall	-11.7987
▁maruti	-11.7987
▁maturity	-11.7987
▁mckinsey	-11.7987
▁necessity	-11.7987
▁nevada	-11.7987
▁obfuscate	-11.7987
▁obtain	-11.7987
▁peanut	-11.7987
▁persuasion	-11.7987
▁philippines	-11.7987
▁plumber	-11.7987
▁polyglot	-11.7987
▁presidency	-11.7987
▁prominent	-11.7987
▁quantitative	-11.7987
▁recipient	-11.7987
▁reconsider	-11.7987
▁refugee	-11.7987
▁relevance	-11.7987
▁remedy	-11.7987
▁reznor	-11.7987
▁rhapsody	-11.7987
▁rhino	-11.7987
▁seeqpod	-11.7987
▁selenium	-11.7987
▁sequel	-11.7987
▁skittles	-11.7987
▁stellar	-11.7987
▁struggling	-11.7987
▁terracotta	-11.7987
▁throttle	-11.7987
▁throttling	-11.7987
▁tissue	-11.7987
▁tucson	-11.7987
▁vacuum	-11.7987
▁vampire	-11.7987
▁voodoo	-11.7987
▁wiimote	-11.7987
▁worries	-11.7987
▁barbara	-11.7987
▁bewertungs	-11.7987
▁biologist	-11.7987
▁brochure	-11.7987
▁compound	-11.7987
▁discrete	-11.7987
▁encounter	-11.7987
▁eureka	-11.7987
▁frustration	-11.7987
▁greeting	-11.7987
▁librarian	-11.7987
▁postgres	-11.7987
▁vinyl	-11.7987
bertrand	-11.7987
▁brutal	-11.7987
▁compelling	-11.7987
▁finite	-11.7987
▁genomics	-11.7987
▁husband	-11.7987
▁impair	-11.7987
▁interpretation	-11.7987
▁msnbc	-11.7987
▁rifle	-11.7987
▁savage	-11.7987
▁thief	-11.7987
▁aptana	-11.7987
▁dennett	-11.7987
▁storytelling	-11.7987
▁botox	-11.7987
▁remodeling	-11.7987
▁spouse	-11.7987
▁advert	-11.7987
▁diversity	-11.7987
▁eminem	-11.7987
▁graphene	-11.7987
▁reusable	-11.7987
▁backbone	-11.7987
▁nikon	-11.7987
▁orphan	-11.7987
▁racial	-11.7987
sustain	-11.7987
▁bodies	-11.7987
▁buried	-11.7987
▁innocent	-11.7987
▁airwaves	-11.7987
▁grew	-11.7987
▁integer	-11.7987
▁purchasing	-11.7987
mojave	-11.7987
▁entrecard	-11.7987
▁homeowner	-11.7987
▁intranet	-11.7987
▁eavesdropping	-11.7987
▁entity	-11.7987
▁velocity	-11.7987
▁gloom	-11.7987
▁aurora	-11.7987
▁lynch	-11.7987
▁slumdog	-11.7987
▁tracemonkey	-11.7987
▁mongodb	-11.7987
▁gym	-11.7987
▁tennis	-11.7987
▁governance	-11.7987
▁furious	-11.7987
▁cease	-11.7987
▁collapsing	-11.7987
▁politicians	-11.7987
▁brute	-11.7987
▁dodgeball	-11.7987
▁excessive	-11.7987
▁telegraph	-11.7987
▁silk	-11.7987
▁teenwag	-11.7987
▁ugc	-11.7988
▁literate	-11.7988
▁guidance	-11.7988
▁qualifie	-11.7988
▁walkthrough	-11.7988
▁webinar	-11.7988
squat	-11.7988
▁forrester	-11.7988
▁snapshot	-11.7988
▁insect	-11.7988
▁memorable	-11.7988
▁buddies	-11.7988
▁fisc	-11.7988
impose	-11.7988
▁backlinks	-11.7988
▁songbird	-11.7988
▁confusion	-11.7988
▁southwest	-11.7988
▁etsy	-11.7988
▁dabble	-11.7988
▁ironpython	-11.7988
▁franklin	-11.7988
▁outrage	-11.7988
▁joseph	-11.7988
▁deletion	-11.7989
▁unconventional	-11.7989
▁1996	-11.7989
▁hypercard	-11.7989
▁queb	-11.7989
▁radiation	-11.7989
▁prosperity	-11.7989
▁vaio	-11.799
▁refine	-11.799
▁lurk	-11.799
miss	-11.799
▁dram	-11.799
▁banning	-11.799
▁alphabet	-11.799
▁interop	-11.799
▁dividend	-11.799
shelter	-11.799
▁freshbooks	-11.7991
▁virtues	-11.7991
▁slideshare	-11.7991
▁soros	-11.7991
nstle	-11.7991
▁delta	-11.7992
▁intent	-11.7992
▁bluehost	-11.7992
▁utopia	-11.7992
aspiring	-11.7992
▁60%	-11.7992
▁(197	-11.7993
▁liquidation	-11.7993
▁grove	-11.7994
▁stability	-11.7994
▁hatches	-11.7994
▁dynamically	-11.7995
▁harddrive	-11.7995
▁yeh	-11.7995
▁underwater	-11.7995
▁supermarket	-11.7995
▁correction	-11.7995
▁ripoff	-11.7995
▁snowball	-11.7995
▁convicted	-11.7996
▁inflat	-11.7996
▁lenses	-11.7997
▁adhd	-11.7997
▁selective	-11.7997
▁entertain	-11.7998
▁mythical	-11.7998
▁superpower	-11.7998
▁compilation	-11.7999
▁embarrassing	-11.7999
▁philanthropy	-11.7999
▁filesharing	-11.7999
▁psycho	-11.7999
▁hostage	-11.8
▁preload	-11.8
▁dispatch	-11.8001
▁singleton	-11.8001
▁resort	-11.8001
▁opencourseware	-11.8001
▁preferred	-11.8001
▁maintainable	-11.8002
▁backdoor	-11.8002
▁placebo	-11.8002
▁lightbox	-11.8002
▁gsm	-11.8003
▁unblock	-11.8004
▁mmog	-11.8004
▁digitize	-11.8005
▁oak	-11.8005
▁fsf	-11.8005
▁speck	-11.8005
▁$44	-11.8005
▁bait	-11.8006
▁rubyconf	-11.8006
▁hostel	-11.8006
▁uml	-11.8007
▁linguistic	-11.8007
▁mandriva	-11.8007
▁rally	-11.8007
▁hover	-11.8007
▁nosql	-11.8008
▁bleeding	-11.8009
▁ticker	-11.8009
▁backfire	-11.8011
▁texture	-11.8012
hosted	-11.8012
format	-11.8012
▁ebs	-11.8012
▁snoop	-11.8013
▁pissed	-11.8013
▁ycomb	-11.8013
▁lament	-11.8014
▁hdtv	-11.8014
▁intensive	-11.8015
▁raganwald	-11.8015
▁slime	-11.8015
▁rabbit	-11.8015
▁crud	-11.8015
▁greedy	-11.8015
▁completion	-11.8016
▁owl	-11.8017
▁wallet	-11.8017
▁pile	-11.8019
artisan	-11.8019
▁warned	-11.8019
▁expired	-11.8019
▁crank	-11.802
▁sniper	-11.8025
▁env	-11.8026
▁drawn	-11.8027
▁compressed	-11.8028
▁vault	-11.8029
▁hashes	-11.803
▁hijacked	-11.8031
▁emp	-11.8032
▁serv	-11.8032
▁topology	-11.8033
!=	-11.8036
▁tilt	-11.8037
▁descen	-11.8039
▁mistaken	-11.8042
▁uncovered	-11.8043
▁colony	-11.8044
▁indexes	-11.8045
chin	-11.8045
▁iplayer	-11.8045
▁snooping	-11.8046
▁fading	-11.8046
▁rna	-11.8047
sharers	-11.8048
▁fad	-11.8049
▁takeoff	-11.8049
▁formation	-11.805
▁modal	-11.8051
▁maple	-11.8053
▁130	-11.8054
▁wider	-11.8054
▁parenting	-11.8054
▁gist	-11.8059
▁mph	-11.8061
▁messy	-11.8062
▁icontrol	-11.8062
▁merc	-11.8063
▁07	-11.8064
▁wan	-11.8066
▁translated	-11.807
▁clearly	-11.8071
▁twisted	-11.8073
▁nist	-11.8073
▁irb	-11.8074
▁auth	-11.8075
▁tooltip	-11.8078
▁optimizer	-11.8079
mbps	-11.808
▁vine	-11.8082
▁sage	-11.8082
▁maintainer	-11.8083
uma	-11.8083
▁ipaper	-11.8084
▁ticking	-11.809
▁widen	-11.8096
▁fark	-11.81
▁rad	-11.8104
▁organized	-11.8106
▁bloat	-11.8106
▁125	-11.8106
seeing	-11.8107
▁tougher	-11.8113
▁naturally	-11.8114
gmail	-11.8115
calc	-11.8116
▁ovi	-11.8116
▁mastery	-11.8122
▁selected	-11.8131
▁roller	-11.8139
▁lion	-11.8141
▁anytime	-11.8145
scape	-11.8146
▁9%	-11.8151
▁recovering	-11.8153
▁derail	-11.8157
▁subscribe	-11.8159
▁recruiter	-11.8166
▁hoc	-11.8171
▁cron	-11.8172
classic	-11.8186
▁66	-11.8186
▁taco	-11.8187
▁sip	-11.819
▁karl	-11.8194
▁noun	-11.8199
▁victoria	-11.8203
▁hoping	-11.8208
▁indexed	-11.8213
infographic	-11.8215
hype	-11.8224
▁val	-11.8235
▁quan	-11.8236
▁magent	-11.824
▁guessing	-11.8241
nary	-11.8242
▁tied	-11.8245
math	-11.8253
icial	-11.8256
luster	-11.8256
▁ira	-11.826
milton	-11.8279
pub	-11.8281
ttle	-11.8283
101	-11.8284
▁embrac	-11.8284
▁$800	-11.8289
▁antho	-11.8303
▁tipp	-11.8307
▁yap	-11.8321
▁thru	-11.8326
▁crashed	-11.8337
spire	-11.8337
▁booster	-11.8345
eep	-11.8354
▁pace	-11.8374
tique	-11.8378
▁gag	-11.8408
▁mell	-11.8411
▁2.4	-11.8412
aru	-11.8428
▁taxi	-11.8442
vite	-11.8446
held	-11.8446
▁39	-11.8448
ento	-11.8453
▁$1.5	-11.8483
▁liberate	-11.8494
▁scrape	-11.8498
wrt	-11.8503
▁$21	-11.8504
▁numer	-11.8507
▁sniff	-11.852
▁%	-11.8523
once	-11.8534
▁$5000	-11.8535
ibb	-11.8554
▁$27	-11.8554
▁quot	-11.8558
▁jumper	-11.8561
▁coup	-11.8562
jacket	-11.8566
bounty	-11.861
proving	-11.8622
▁$80	-11.8623
gger	-11.8628
hik	-11.8648
▁92	-11.8649
elle	-11.8665
quer	-11.8692
▁lone	-11.8698
ancy	-11.8702
▁typo	-11.8715
choo	-11.8738
▁ethic	-11.8747
001	-11.875
vz	-11.8766
▁ditche	-11.8769
▁uncle	-11.877
love	-11.8773
▁demographic	-11.8773
▁severe	-11.8774
▁dro	-11.8785
▁subscriber	-11.8788
▁username	-11.8798
fan	-11.8808
uche	-11.8818
lessness	-11.8831
▁yorker	-11.8851
42	-11.8859
otp	-11.8862
brite	-11.8867
rush	-11.8885
mem	-11.8892
hore	-11.8892
▁jen	-11.8913
▁hint	-11.8915
▁dent	-11.8939
▁uv	-11.8954
▁hbo	-11.8964
2.5	-11.8967
hoo	-11.8972
▁loser	-11.8974
keep	-11.8981
iconic	-11.9004
wired	-11.9005
research	-11.901
monkey	-11.9012
boston	-11.9016
▁invalid	-11.9019
bucket	-11.9021
humor	-11.9023
historic	-11.9023
company	-11.9023
urge	-11.9023
temporary	-11.9024
pmarca	-11.9025
expression	-11.9025
integrat	-11.9025
millionaire	-11.9025
possible	-11.9025
availability	-11.9025
attack	-11.9025
editor	-11.9025
assembly	-11.9025
purpose	-11.9025
raising	-11.9026
element	-11.9026
jump	-11.9026
investor	-11.9026
english	-11.9026
june	-11.9026
micro	-11.9026
concept	-11.9026
energy	-11.9026
financial	-11.9026
behind	-11.9026
success	-11.9026
worth	-11.9026
death	-11.9026
could	-11.9026
invites	-11.9026
join	-11.9026
three	-11.9027
dream	-11.9027
standard	-11.9027
itunes	-11.9027
warning	-11.9027
housing	-11.903
phase	-11.903
author	-11.9031
create	-11.9033
chain	-11.9034
▁lam	-11.9034
money	-11.9036
another	-11.9037
▁surround	-11.9039
▁consult	-11.9041
netic	-11.9041
▁multitask	-11.9043
baby	-11.9044
reality	-11.9049
produce	-11.9049
disk	-11.9049
cum	-11.9055
▁experienc	-11.9057
meet	-11.9062
stack	-11.9062
cash	-11.9063
auth	-11.9066
sonic	-11.9069
tracker	-11.9069
▁simplifie	-11.9072
bsd	-11.9072
nnovate	-11.9073
idot	-11.9074
starter	-11.9077
▁preserv	-11.9083
conomy	-11.9091
▁govern	-11.9092
▁blend	-11.9094
▁avail	-11.9094
▁suburb	-11.9095
▁identi	-11.9095
▁47	-11.9095
▁infringe	-11.9097
▁squid	-11.9097
▁pharma	-11.9098
▁neighbor	-11.9098
▁bandwagon	-11.9098
▁charlotte	-11.9098
▁diploma	-11.9098
▁lucene	-11.9098
aptitude	-11.9098
confident	-11.9098
endangered	-11.9098
immersive	-11.9098
wrinkle	-11.9098
▁abilities	-11.9098
▁absorb	-11.9098
▁achilles	-11.9098
▁administrator	-11.9098
▁afghanistan	-11.9098
▁amnesia	-11.9098
▁anarchy	-11.9098
▁anthropolog	-11.9098
▁attachment	-11.9098
▁bowkett	-11.9098
▁cascade	-11.9098
▁cnbc	-11.9098
▁colombia	-11.9098
▁comparative	-11.9098
▁conclusion	-11.9098
▁contrarian	-11.9098
▁debacle	-11.9098
▁decrease	-11.9098
▁dubious	-11.9098
▁elegance	-11.9098
▁envelope	-11.9098
▁escher	-11.9098
▁ethanol	-11.9098
▁excellence	-11.9098
▁faculty	-11.9098
▁fiasco	-11.9098
▁fogbugz	-11.9098
▁gabriel	-11.9098
▁genuine	-11.9098
▁graduation	-11.9098
▁hawkins	-11.9098
▁homebrew	-11.9098
▁horowitz	-11.9098
▁idioms	-11.9098
▁immutable	-11.9098
▁incompetence	-11.9098
▁injuries	-11.9098
▁invasion	-11.9098
▁jaguar	-11.9098
▁jeopardy	-11.9098
▁kaminsky	-11.9098
▁lingerie	-11.9098
▁liskov	-11.9098
▁luggage	-11.9098
▁manchester	-11.9098
▁mediocrity	-11.9098
▁mininova	-11.9098
▁mnesia	-11.9098
▁motwani	-11.9098
▁multilingual	-11.9098
▁multiplication	-11.9098
▁ohanian	-11.9098
▁origami	-11.9098
▁pagination	-11.9098
▁parkinson	-11.9098
▁pascal	-11.9098
▁porsche	-11.9098
▁practicing	-11.9098
▁procedural	-11.9098
▁quicksilver	-11.9098
▁rebellion	-11.9098
▁reservation	-11.9098
▁ribbit	-11.9098
▁ritual	-11.9098
▁sacram	-11.9098
▁scream	-11.9098
▁siemens	-11.9098
▁snaptalent	-11.9098
▁structural	-11.9098
▁tangible	-11.9098
▁tercihleri	-11.9098
▁triangle	-11.9098
▁undergraduate	-11.9098
▁unpopular	-11.9098
▁visibility	-11.9098
▁windmill	-11.9098
▁wisconsin	-11.9098
▁wound	-11.9098
rubyfringe	-11.9098
▁archiving	-11.9098
▁asterisk	-11.9098
▁benioff	-11.9098
▁chumby	-11.9098
▁deflation	-11.9098
▁kraus	-11.9098
▁pencil	-11.9098
▁pennies	-11.9098
▁raymond	-11.9098
▁sentiment	-11.9098
▁wuala	-11.9098
▁1968	-11.9098
▁1981	-11.9098
▁9/11	-11.9098
▁cyclist	-11.9098
▁grooveshark	-11.9098
▁mitnick	-11.9098
▁multithreading	-11.9098
▁potato	-11.9098
▁termination	-11.9098
▁workaholic	-11.9098
▁1993	-11.9098
▁antonio	-11.9098
▁boiler	-11.9098
▁brushes	-11.9098
▁hummer	-11.9098
▁maroon	-11.9098
▁pleasure	-11.9098
▁rww	-11.9098
▁wesabe	-11.9098
▁yql	-11.9098
▁1983	-11.9098
▁annoyances	-11.9098
▁cortex	-11.9098
▁dennis	-11.9098
▁muslim	-11.9098
▁omnisio	-11.9098
▁superconduct	-11.9098
▁empiric	-11.9098
▁kapor	-11.9098
▁merlin	-11.9098
▁typographic	-11.9098
▁fisker	-11.9098
▁grief	-11.9098
▁lucid	-11.9098
▁paralyz	-11.9098
▁inherent	-11.9098
▁prada	-11.9098
▁proportion	-11.9098
▁redhat	-11.9098
▁witness	-11.9098
▁exposure	-11.9098
▁hunger	-11.9098
▁menace	-11.9098
▁proceed	-11.9098
▁1982	-11.9098
trustworthy	-11.9098
▁opendns	-11.9098
▁norton	-11.9098
▁stereotype	-11.9098
▁prayer	-11.9098
▁herald	-11.9098
▁retard	-11.9098
▁kundra	-11.9098
▁boundaries	-11.9098
▁dysfunction	-11.9098
▁joystick	-11.9098
▁ladies	-11.9098
▁lucas	-11.9098
▁outdated	-11.9098
▁sensation	-11.9098
▁adrian	-11.9098
▁polaroid	-11.9098
▁derby	-11.9098
▁uspto	-11.9098
▁deutschland	-11.9098
▁funnel	-11.9098
▁mosso	-11.9098
▁ashton	-11.9098
▁noida	-11.9098
▁somali	-11.9098
htaccess	-11.9098
▁seadragon	-11.9098
▁haproxy	-11.9098
▁jesus	-11.9098
▁accommodation	-11.9098
▁novice	-11.9098
▁charities	-11.9098
▁bedding	-11.9098
▁suppress	-11.9098
▁quantcast	-11.9098
▁quantify	-11.9099
▁fraction	-11.9099
▁matlab	-11.9099
▁conceptual	-11.9099
▁$1.8	-11.9099
▁susan	-11.9099
▁anchor	-11.9099
▁litigation	-11.9099
▁mochiweb	-11.9099
▁recaptcha	-11.9099
▁$3.95	-11.9099
▁burden	-11.9099
▁championship	-11.9099
▁malloc	-11.9099
▁pinpoint	-11.9099
▁moderation	-11.9099
▁cancelled	-11.9099
▁fuji	-11.9099
turtle	-11.9099
▁keynes	-11.9099
▁ghostery	-11.9099
▁arabia	-11.9099
▁democrats	-11.9099
▁gizmodo	-11.9099
▁diaries	-11.9099
▁kurt	-11.9099
▁kingdom	-11.91
▁coverflow	-11.91
▁1.7	-11.91
▁6.5	-11.91
▁fragmentation	-11.91
▁lemons	-11.91
▁perfectionism	-11.91
▁1979	-11.91
▁subreddit	-11.91
▁rationality	-11.91
▁hierarch	-11.91
▁beef	-11.91
▁strand	-11.91
▁nazi	-11.91
▁fifty	-11.9101
▁bootcamp	-11.9101
▁committed	-11.9101
▁motherboard	-11.9101
▁roku	-11.9101
▁hitwise	-11.9101
▁swoopo	-11.9101
▁pygame	-11.9101
scala	-11.9101
▁cameron	-11.9101
▁cruel	-11.9101
▁rediscover	-11.9101
▁gzip	-11.9102
▁unhappy	-11.9102
▁accent	-11.9102
▁blurr	-11.9102
▁angelsoft	-11.9102
▁typepad	-11.9102
▁acceptance	-11.9102
▁sifr	-11.9103
▁biometric	-11.9103
▁meyer	-11.9103
▁stylesheet	-11.9103
▁aviation	-11.9103
punk	-11.9103
▁commitment	-11.9103
▁1995	-11.9103
▁copper	-11.9103
▁xmas	-11.9104
▁lbs	-11.9104
▁spice	-11.9104
▁tamil	-11.9104
▁twitpic	-11.9104
▁pause	-11.9104
▁2013	-11.9104
▁mature	-11.9104
▁socialthing	-11.9104
▁1970	-11.9104
▁perks	-11.9104
▁$250,000	-11.9104
▁clarke	-11.9104
▁blah	-11.9104
▁rpg	-11.9105
▁hillary	-11.9105
▁roomba	-11.9105
▁tren	-11.9105
▁similarity	-11.9105
▁genesis	-11.9106
▁glove	-11.9106
▁loath	-11.9106
▁prostate	-11.9106
▁dhtml	-11.9106
▁lady	-11.9106
▁5.2	-11.9107
▁memoriz	-11.9107
▁sharpen	-11.9107
▁ongoing	-11.9107
▁hassle	-11.9108
▁quickstart	-11.9108
▁rollout	-11.9108
▁911	-11.9108
▁felt	-11.9108
▁crv	-11.9109
▁anybots	-11.9109
▁whiz	-11.9109
▁hitler	-11.9109
▁landline	-11.9109
▁quickbooks	-11.9109
▁fuzzy	-11.911
▁$2000	-11.911
▁geoff	-11.911
common	-11.9111
▁ameri	-11.9111
▁maria	-11.9111
▁principal	-11.9112
▁nast	-11.9113
▁warranty	-11.9114
▁deja	-11.9114
▁gtk	-11.9114
▁rpc	-11.9115
▁streetview	-11.9116
▁minimiz	-11.9116
▁strengthen	-11.9116
▁downfall	-11.9117
▁sword	-11.9117
▁fuzz	-11.9118
▁flush	-11.9118
▁1950	-11.9118
▁sack	-11.9118
▁ppc	-11.9119
▁berni	-11.912
▁compiling	-11.912
▁#5	-11.9121
▁miserabl	-11.9122
▁acqu	-11.9122
▁rewir	-11.9122
▁sega	-11.9124
▁moneta	-11.9124
▁adviser	-11.9124
▁revamped	-11.9125
▁enhancer	-11.9125
▁gameplay	-11.9127
▁netapp	-11.9127
▁mantra	-11.9128
▁oem	-11.9128
▁nurture	-11.9128
clean	-11.9129
▁compliant	-11.913
▁spain	-11.913
▁bach	-11.9131
▁pour	-11.9131
conn	-11.9131
expo	-11.9132
▁buses	-11.9132
cyber	-11.9133
adine	-11.9134
cino	-11.9134
▁highway	-11.9136
▁gum	-11.9137
▁cocktail	-11.9138
▁conquered	-11.9139
▁mum	-11.914
▁audaci	-11.914
damaging	-11.9141
zza	-11.9141
▁sanity	-11.9141
▁honesty	-11.9141
▁irobot	-11.9143
▁noscript	-11.9146
▁chatter	-11.9147
▁printable	-11.9147
▁coral	-11.9147
▁accelerated	-11.9147
▁aggressive	-11.9147
▁rsa	-11.9151
▁wishes	-11.9152
▁fray	-11.9153
▁reia	-11.9153
▁difficulty	-11.9154
▁censored	-11.9156
▁mitch	-11.9156
hopefully	-11.9158
▁parasite	-11.9163
▁behave	-11.9163
▁knocked	-11.9164
▁nsfw	-11.9165
▁upstart	-11.9167
▁iframe	-11.9168
▁2002	-11.9169
▁superb	-11.9169
▁boon	-11.9169
aol	-11.9176
2000	-11.9176
▁salesman	-11.9181
▁widely	-11.9187
▁vpn	-11.9188
tribute	-11.9189
▁predictor	-11.9191
▁juni	-11.9192
▁cloaking	-11.9193
▁achieved	-11.9195
▁granted	-11.9195
▁wildly	-11.9196
▁128	-11.9198
▁angle	-11.9199
poll	-11.9199
▁calm	-11.9201
▁efficiently	-11.9202
horr	-11.9206
ella	-11.9208
▁began	-11.9209
▁refreshing	-11.9213
sdf	-11.9214
▁filled	-11.9215
0/20	-11.9215
▁muni	-11.9217
▁coaching	-11.922
▁deployed	-11.9221
▁socializing	-11.9221
▁reel	-11.9221
▁marginal	-11.9222
rati	-11.9225
▁delivered	-11.9227
▁jr	-11.9228
▁200,000	-11.923
▁drown	-11.9232
▁rever	-11.9243
▁soda	-11.9244
▁existed	-11.9248
▁swimm	-11.9249
▁68	-11.9249
▁merged	-11.925
▁worsen	-11.9253
▁7.0	-11.9253
▁77	-11.9265
▁zn	-11.9266
▁threatened	-11.928
▁diver	-11.9283
▁bayes	-11.929
▁securely	-11.9293
▁kenya	-11.9293
710	-11.9296
▁unleashe	-11.9297
▁$1,000	-11.9302
john	-11.9302
▁burned	-11.9304
▁footer	-11.9305
▁pico	-11.9311
▁gunn	-11.9313
▁1.8.	-11.9317
▁beautifully	-11.9318
▁dh	-11.9319
▁detected	-11.932
▁fx	-11.9322
▁sata	-11.9323
305	-11.9326
▁nand	-11.9326
▁gifted	-11.9327
▁6%	-11.933
▁picked	-11.9333
employed	-11.9335
rax	-11.9336
▁backtrack	-11.9343
▁conn	-11.9349
▁syn	-11.9351
▁pea	-11.9352
▁successor	-11.9354
wei	-11.936
▁transformer	-11.936
▁outsell	-11.9381
▁richer	-11.9388
▁wu	-11.9395
courseware	-11.9396
1.5	-11.9408
910	-11.9412
▁meaningless	-11.9427
▁verse	-11.9428
▁esr	-11.944
247	-11.9447
gree	-11.9459
▁lamb	-11.9467
▁jenn	-11.9499
crayon	-11.9503
▁4.5	-11.9512
fab	-11.9514
▁160	-11.9515
▁cling	-11.9519
▁$23	-11.955
▁trib	-11.9555
lamp	-11.9559
▁rag	-11.9568
$100	-11.959
ndra	-11.959
▁jane	-11.9607
▁cock	-11.9612
▁alp	-11.9619
▁stun	-11.9635
▁manipulate	-11.9638
▁utilize	-11.9643
▁guz	-11.9652
gage	-11.9655
▁imagin	-11.9657
located	-11.969
tester	-11.9722
vio	-11.9725
▁introduc	-11.9742
flu	-11.9756
▁cola	-11.9772
▁calc	-11.9789
ologies	-11.9799
central	-11.9817
trip	-11.9824
ən	-11.984
▁loco	-11.984
ouch	-11.9843
▁sche	-11.985
▁compose	-11.9856
vim	-11.9887
▁1/2	-11.9895
zel	-11.9903
▁locate	-11.9903
eria	-11.9917
▁wir	-11.9918
730	-11.9921
▁hg	-11.9925
▁deco	-11.9933
kids	-11.9935
chasing	-11.9937
▁pave	-11.9977
▁randal	-11.9982
sixty	-11.9987
▁snippet	-12.0004
▁stylis	-12.0014
▁blunder	-12.0019
▁scammer	-12.0024
▁whine	-12.003
▁bulb	-12.0033
▁mockup	-12.0036
bike	-12.0037
▁requirement	-12.0042
▁headline	-12.0042
etting	-12.0042
ág	-12.0049
▁$65	-12.0067
▁folder	-12.0077
continued	-12.0077
asha	-12.0078
▁nip	-12.0085
▁infant	-12.009
ansi	-12.0096
slide	-12.0098
▁$42	-12.0111
▁publication	-12.0111
▁scr	-12.0114
mount	-12.0116
▁peake	-12.0123
▁flower	-12.0156
due	-12.0156
ocate	-12.0187
boat	-12.0224
▁weave	-12.0252
present	-12.0255
support	-12.0256
▁wso	-12.0265
america	-12.0267
allow	-12.0269
radio	-12.0271
nsfw	-12.0272
short	-12.0274
approved	-12.0274
program	-12.0274
wsgi	-12.0275
referral	-12.0275
dancing	-12.0275
bucks	-12.0275
relation	-12.0275
junk	-12.0275
wheel	-12.0275
satisfaction	-12.0276
channel	-12.0276
balance	-12.0276
electronic	-12.0276
employee	-12.0276
confirmed	-12.0276
inventor	-12.0276
wash	-12.0276
recognition	-12.0276
messaging	-12.0276
pretty	-12.0276
parallel	-12.0276
manager	-12.0276
scientific	-12.0276
innovation	-12.0276
patent	-12.0276
which	-12.0276
advertising	-12.0276
chrome	-12.0276
chinese	-12.0276
child	-12.0277
daily	-12.0277
piece	-12.0277
nothing	-12.0277
development	-12.0278
scene	-12.0278
failure	-12.0278
database	-12.0278
collection	-12.0278
karma	-12.0279
flip	-12.0279
ordinary	-12.028
true	-12.028
film	-12.0281
actual	-12.0281
known	-12.0282
▁varian	-12.0282
shock	-12.0283
march	-12.0286
zoom	-12.029
▁citi	-12.0291
cad	-12.0299
▁arriv	-12.0301
anonymiz	-12.0304
ebay	-12.0304
evaluat	-12.0306
▁flipp	-12.031
▁sour	-12.0311
saas	-12.0311
▁slid	-12.0316
deep	-12.0317
fax	-12.0318
lost	-12.0321
▁compromise	-12.0321
ema	-12.0321
▁augment	-12.0328
focused	-12.0328
near	-12.0331
▁pul	-12.0332
▁hypertext	-12.0335
▁villa	-12.0336
▁seamless	-12.0336
▁specialize	-12.0337
▁manufacture	-12.0338
▁desi	-12.034
▁evangel	-12.0342
▁olymp	-12.0345
▁0.5	-12.0345
▁exhibit	-12.0345
▁explorat	-12.0345
observation	-12.0346
▁histori	-12.0346
▁recess	-12.0346
▁gizmo	-12.0346
▁prior	-12.0346
ocratic	-12.0347
▁arbitr	-12.0347
agnostic	-12.0347
▁sprout	-12.0347
▁inaugura	-12.0348
petitive	-12.0348
▁cooper	-12.0348
▁luxuri	-12.0348
▁continent	-12.0348
▁hofstadter	-12.0348
▁huffington	-12.0348
▁imperial	-12.0348
▁lincoln	-12.0348
▁lizard	-12.0348
▁microfinance	-12.0348
▁sculptures	-12.0348
▁technologizer	-12.0348
▁transcend	-12.0348
▁vegetarian	-12.0348
▁verisign	-12.0348
▁vigilant	-12.0348
clunkers	-12.0348
privilege	-12.0348
sullivan	-12.0348
unprecedented	-12.0348
▁aardvark	-12.0348
▁abolish	-12.0348
▁andreesen	-12.0348
▁antarctic	-12.0348
▁arrogance	-12.0348
▁blekko	-12.0348
▁brightcove	-12.0348
▁calgary	-12.0348
▁cascading	-12.0348
▁citrix	-12.0348
▁classifier	-12.0348
▁crumble	-12.0348
▁cushions	-12.0348
▁dandruff	-12.0348
▁degrassi	-12.0348
▁deliberate	-12.0348
▁elaborate	-12.0348
▁emoticon	-12.0348
▁emulate	-12.0348
▁encarta	-12.0348
▁enthusiasm	-12.0348
▁entrance	-12.0348
▁entrepeneur	-12.0348
▁estimation	-12.0348
▁extortion	-12.0348
▁extradition	-12.0348
▁fitnrg	-12.0348
▁fluorescent	-12.0348
▁galaxies	-12.0348
▁galileo	-12.0348
▁gauntlet	-12.0348
▁gimmick	-12.0348
▁holovaty	-12.0348
▁hsieh	-12.0348
▁hypothetical	-12.0348
▁incorporating	-12.0348
▁indicate	-12.0348
▁inspiron	-12.0348
▁instapaper	-12.0348
▁intersection	-12.0348
▁jajah	-12.0348
▁jaxtr	-12.0348
▁jordan	-12.0348
▁kaspersky	-12.0348
▁kottke	-12.0348
▁laureate	-12.0348
▁magnitude	-12.0348
▁matrimonial	-12.0348
▁mediatemple	-12.0348
▁misunderstand	-12.0348
▁mitigation	-12.0348
▁mixtape	-12.0348
▁municipal	-12.0348
▁naggum	-12.0348
▁netherlands	-12.0348
▁neumann	-12.0348
▁noprocrast	-12.0348
▁payperpost	-12.0348
▁perpetual	-12.0348
▁pervasive	-12.0348
▁phantom	-12.0348
▁pligg	-12.0348
▁polynomial	-12.0348
▁prostitutes	-12.0348
▁puppet	-12.0348
▁pylons	-12.0348
▁qualcomm	-12.0348
▁qwerty	-12.0348
▁rebuttal	-12.0348
▁rejoice	-12.0348
▁relentless	-12.0348
▁responsive	-12.0348
▁restructuring	-12.0348
▁schiller	-12.0348
▁sequencing	-12.0348
▁sequential	-12.0348
▁shelves	-12.0348
▁sprite	-12.0348
▁technologist	-12.0348
▁templating	-12.0348
▁thorough	-12.0348
▁threshold	-12.0348
▁ticketstumbler	-12.0348
▁tsunami	-12.0348
▁tweetdeck	-12.0348
▁undecid	-12.0348
▁unfinished	-12.0348
▁unfortunate	-12.0348
▁unreasonable	-12.0348
▁urbanspoon	-12.0348
▁vegetable	-12.0348
▁volkswagen	-12.0348
▁wetpaint	-12.0348
▁wrestling	-12.0348
▁algae	-12.0348
▁bernard	-12.0348
▁cipher	-12.0348
▁dignity	-12.0348
▁ergonomic	-12.0348
▁hickey	-12.0348
▁imperative	-12.0348
▁jargon	-12.0348
▁legislation	-12.0348
▁maryland	-12.0348
▁mundie	-12.0348
▁nifty	-12.0348
▁pbwiki	-12.0348
▁perceive	-12.0348
▁sacca	-12.0348
▁soviet	-12.0348
▁underestimat	-12.0348
▁belgian	-12.0348
▁berkun	-12.0348
▁burglar	-12.0348
▁compiz	-12.0348
▁cooliris	-12.0348
▁fierce	-12.0348
▁haptic	-12.0348
▁innovating	-12.0348
▁insanity	-12.0348
▁pepper	-12.0348
▁tutoring	-12.0348
▁violin	-12.0348
▁embeddable	-12.0348
▁kosmix	-12.0348
▁ourdoings	-12.0348
▁rafting	-12.0348
▁snack	-12.0348
▁courier	-12.0348
▁earrings	-12.0348
▁gigaspaces	-12.0348
▁luckycal	-12.0348
▁overlooked	-12.0348
phobia	-12.0348
▁swindle	-12.0348
▁nortel	-12.0348
▁lapse	-12.0348
sculpt	-12.0348
▁bureaucracy	-12.0348
▁fortress	-12.0348
▁petaflop	-12.0348
▁shatter	-12.0348
▁subvert	-12.0348
▁crusade	-12.0348
▁sabotag	-12.0348
counterfeit	-12.0348
▁contradict	-12.0348
▁stocktwits	-12.0348
▁venus	-12.0348
▁dispens	-12.0348
▁ghc	-12.0348
▁sivers	-12.0348
activision	-12.0348
▁motto	-12.0348
▁multiply	-12.0348
▁optimu	-12.0348
▁bliss	-12.0348
▁stimulate	-12.0348
▁fermilab	-12.0348
electoral	-12.0348
▁royalties	-12.0348
▁tasting	-12.0348
▁funeral	-12.0348
▁$8.5	-12.0348
▁butterfield	-12.0348
▁automakers	-12.0348
▁gigabyte	-12.0348
▁palette	-12.0348
whistle	-12.0348
▁rebels	-12.0348
bourne	-12.0348
▁hockey	-12.0348
.264	-12.0348
▁nitrogen	-12.0348
unclaimed	-12.0348
▁$4.5	-12.0348
▁liars	-12.0348
▁boobs	-12.0348
▁cilk	-12.0348
▁krz	-12.0348
▁norris	-12.0348
▁robbery	-12.0348
▁squidoo	-12.0349
▁securities	-12.0349
▁regain	-12.0349
mystified	-12.0349
▁awkward	-12.0349
▁magicians	-12.0349
▁robinson	-12.0349
webhostingpad	-12.0349
▁hostgator	-12.0349
▁patrick	-12.0349
owitz	-12.0349
▁societies	-12.0349
▁$1.6	-12.0349
▁hamilton	-12.0349
▁verifi	-12.0349
▁blessing	-12.0349
▁inkjet	-12.0349
▁midwest	-12.0349
▁midnight	-12.0349
▁cakephp	-12.0349
▁skyrocket	-12.0349
▁conserve	-12.0349
▁copywriting	-12.0349
▁enlightenment	-12.0349
▁yaws	-12.0349
▁boredom	-12.0349
▁drought	-12.0349
▁poets	-12.0349
kbps	-12.0349
▁similarities	-12.0349
▁minsky	-12.0349
▁combo	-12.0349
▁fpga	-12.035
▁admire	-12.035
▁bespin	-12.035
berries	-12.035
▁envision	-12.035
▁phony	-12.035
▁typewriter	-12.035
▁jott	-12.035
meme	-12.035
▁imvu	-12.035
▁multithreaded	-12.035
▁dramatic	-12.035
▁northeast	-12.035
▁feat	-12.0351
▁islam	-12.0351
▁moderator	-12.0351
▁cheatsheet	-12.0351
restoration	-12.0351
▁choke	-12.0351
ploy	-12.0351
▁aquire	-12.0351
▁baker	-12.0351
▁executable	-12.0351
▁varie	-12.0351
▁vonage	-12.0351
▁celebration	-12.0351
▁pike	-12.0351
▁shipped	-12.0351
▁remedi	-12.0351
▁addictive	-12.0352
▁weaknesses	-12.0352
▁champ	-12.0352
▁ideology	-12.0352
▁elsewhere	-12.0352
▁kitten	-12.0352
▁mobility	-12.0352
▁southern	-12.0352
▁hoare	-12.0353
▁roam	-12.0353
▁landmark	-12.0353
▁shipley	-12.0353
▁babel	-12.0353
▁decoding	-12.0353
▁reseller	-12.0353
▁dubli	-12.0353
▁filmmaker	-12.0354
▁sensing	-12.0354
▁cooperation	-12.0354
▁mankind	-12.0354
▁comfortable	-12.0354
▁anyvite	-12.0354
▁cctv	-12.0355
▁gvr	-12.0355
▁offenders	-12.0355
▁destiny	-12.0355
▁erase	-12.0355
▁navigate	-12.0355
▁solicit	-12.0355
▁1980	-12.0355
▁pypy	-12.0355
▁engage	-12.0356
▁hungar	-12.0356
▁stair	-12.0356
▁romance	-12.0356
▁underwear	-12.0356
▁void	-12.0356
▁userplane	-12.0356
▁shore	-12.0357
▁resourceful	-12.0357
▁rfp	-12.0357
▁rivalry	-12.0357
▁amidst	-12.0357
▁alias	-12.0357
▁rebound	-12.0357
▁bribe	-12.0358
▁gdrive	-12.0358
▁distincti	-12.0358
▁stale	-12.0358
▁altman	-12.0358
▁halfway	-12.0358
ikola	-12.0358
▁foto	-12.0358
▁paywall	-12.0358
▁glow	-12.0358
▁mandate	-12.0358
▁infoworld	-12.0359
▁9000	-12.0359
burgh	-12.0359
▁groom	-12.0359
▁videoegg	-12.0359
▁babes	-12.0359
hunting	-12.036
▁wheat	-12.036
▁drum	-12.036
▁vets	-12.036
▁#20	-12.036
▁reign	-12.036
▁geode	-12.0361
▁foundread	-12.0361
▁duty	-12.0361
▁2.0.2	-12.0361
▁squirrel	-12.0361
▁lifecycle	-12.0361
▁pythonista	-12.0362
▁substance	-12.0362
▁greenhouse	-12.0362
▁tld	-12.0363
▁hayd	-12.0363
extraterrestrial	-12.0363
▁parallax	-12.0363
▁interplanet	-12.0363
▁rubygems	-12.0363
▁1990	-12.0364
▁exact	-12.0364
▁2015	-12.0364
▁jean	-12.0365
▁launchpad	-12.0365
arrage	-12.0365
tolerant	-12.0365
▁castle	-12.0367
▁crude	-12.0367
▁overlay	-12.0367
▁preparation	-12.0368
▁browserplus	-12.0368
▁lich	-12.0368
▁markdown	-12.0368
▁edin	-12.0369
▁gotten	-12.037
▁levitat	-12.037
topic	-12.0371
▁discoveries	-12.0373
▁rebase	-12.0373
▁lsd	-12.0373
▁playback	-12.0373
▁toaster	-12.0373
▁psoriasis	-12.0374
▁powder	-12.0374
▁hatch	-12.0375
▁virality	-12.0375
▁pew	-12.0375
▁dais	-12.0376
▁flare	-12.0376
▁broader	-12.0376
▁195	-12.0377
▁healthier	-12.0378
▁cutts	-12.0378
▁;)	-12.0379
▁tripit	-12.0379
▁singer	-12.0379
▁roth	-12.038
▁stain	-12.038
▁uav	-12.038
▁2600	-12.0381
▁$1.4	-12.0381
▁suspended	-12.0382
▁fragment	-12.0382
▁knot	-12.0382
metrics	-12.0383
▁vator	-12.0384
▁werner	-12.0384
▁moth	-12.0384
▁payback	-12.0384
▁octo	-12.0385
▁powerhouse	-12.0386
380	-12.0387
▁defy	-12.0387
▁decker	-12.0388
▁sharply	-12.0388
▁rope	-12.039
▁engaged	-12.039
▁req	-12.039
365	-12.039
▁suspected	-12.0391
▁sake	-12.0392
lol	-12.0393
▁identified	-12.0393
▁daylight	-12.0394
▁jaunty	-12.0394
▁stopp	-12.0394
tronic	-12.0395
▁sitepoint	-12.0395
▁hoff	-12.0396
▁(1993	-12.0398
▁bumper	-12.0399
▁koh	-12.0399
▁manga	-12.0402
▁ethn	-12.0402
▁modu	-12.0403
▁cannon	-12.0405
▁obsessed	-12.0405
▁tcl	-12.0405
▁peta	-12.0407
▁justify	-12.0408
▁guaranteed	-12.0408
▁1200	-12.041
▁morse	-12.0415
▁grind	-12.0415
▁deny	-12.0416
▁surrounding	-12.0416
▁fallen	-12.0418
▁scheduler	-12.0419
▁tuy	-12.0419
licit	-12.0421
eagle	-12.0423
▁masking	-12.0425
nals	-12.0426
tonic	-12.0431
▁dense	-12.0432
▁meur	-12.0433
tchup	-12.0433
▁forcing	-12.0439
▁hab	-12.044
rail	-12.0445
-22	-12.0446
▁pact	-12.0447
▁haters	-12.0449
▁animat	-12.045
inspect	-12.0455
▁sixth	-12.0457
▁ioke	-12.0459
▁belly	-12.0472
▁nak	-12.0473
ceo	-12.0473
▁bullie	-12.0477
▁rescued	-12.0481
formal	-12.0483
▁seducti	-12.0485
brook	-12.0488
▁sonic	-12.049
▁modem	-12.049
▁connector	-12.0494
▁scribe	-12.0495
▁weeds	-12.0495
▁gall	-12.0499
bac	-12.0501
reasonably	-12.0504
▁leo	-12.0505
▁tread	-12.051
severance	-12.0511
▁poo	-12.0516
▁trashe	-12.0524
▁heretic	-12.0544
▁dorm	-12.0545
▁endorsement	-12.0553
▁rotat	-12.0559
blow	-12.0559
▁pinch	-12.056
large	-12.057
packard	-12.0587
sound	-12.0602
▁maxim	-12.0606
▁tsa	-12.0607
▁marti	-12.0608
▁recommender	-12.0611
▁zap	-12.0611
constructive	-12.0612
▁gf	-12.0613
collar	-12.0616
▁fli	-12.0619
770	-12.0623
▁streamline	-12.0636
cola	-12.0636
zoo	-12.0643
alph	-12.0658
atom	-12.0668
▁chile	-12.0683
▁dire	-12.0699
lec	-12.0701
▁6.1	-12.0704
▁pip	-12.0706
park	-12.0718
pillar	-12.0719
viz	-12.0719
rge	-12.0725
innoc	-12.073
rootkit	-12.0735
pulsive	-12.0762
▁cherry	-12.0764
brash	-12.0798
jad	-12.0801
▁bum	-12.0812
▁intend	-12.0839
▁$70	-12.0848
omatic	-12.0852
▁#6	-12.0877
▁renam	-12.0915
simulated	-12.0919
waste	-12.0961
route	-12.0966
▁heatmap	-12.098
rough	-12.0981
▁summarize	-12.1015
▁$55	-12.1066
▁nab	-12.1068
olla	-12.1074
citing	-12.1076
▁ripe	-12.1082
ifer	-12.1085
▁bark	-12.1089
economic	-12.1161
▁martia	-12.1167
▁$34	-12.1173
busters	-12.1195
▁barne	-12.1218
tek	-12.1245
▁nuv	-12.1248
rak	-12.1264
ibm	-12.1266
ggie	-12.1285
normalization	-12.1296
▁bir	-12.1298
ascent	-12.1309
▁marin	-12.131
▁mck	-12.1311
▁spit	-12.1311
hoc	-12.1312
▁cherryp	-12.1321
utu	-12.1321
hank	-12.1335
▁philosoph	-12.1359
▁enc	-12.1365
window	-12.1381
▁mania	-12.1387
▁ucla	-12.14
amine	-12.1406
▁69	-12.1417
tiered	-12.1419
▁folk	-12.143
▁endur	-12.1441
▁sep	-12.1445
▁annotation	-12.1447
▁derivative	-12.1448
▁immigrant	-12.145
▁regulator	-12.145
8800	-12.145
▁sister	-12.1452
▁supplement	-12.1453
▁preach	-12.1473
▁surfer	-12.1494
▁peril	-12.1528
▁89	-12.1536
▁russ	-12.1538
▁recreate	-12.1541
gator	-12.1548
riot	-12.1549
icle	-12.1558
rug	-12.1598
fare	-12.1604
secure	-12.1606
▁delet	-12.1632
▁ruthless	-12.1633
develop	-12.1648
duced	-12.1656
▁describ	-12.1674
goog	-12.1681
discover	-12.169
▁$45	-12.1694
dynamic	-12.1695
grind	-12.17
collect	-12.1701
happy	-12.1702
appropriate	-12.1702
buddy	-12.1702
nanotech	-12.1702
guard	-12.1703
conferencing	-12.1703
intentional	-12.1703
presentation	-12.1703
election	-12.1703
lots	-12.1704
evolve	-12.1704
similar	-12.1704
freemium	-12.1704
contact	-12.1704
crowd	-12.1704
maintain	-12.1704
access	-12.1704
generating	-12.1704
decision	-12.1704
quarter	-12.1704
probably	-12.1704
century	-12.1704
monitoring	-12.1705
worse	-12.1705
lecture	-12.1705
jones	-12.1705
april	-12.1705
instant	-12.1705
fiction	-12.1705
practical	-12.1705
extend	-12.1705
friday	-12.1705
privacy	-12.1705
stuff	-12.1705
advice	-12.1705
jquery	-12.1705
management	-12.1705
answers	-12.1705
information	-12.1705
nokia	-12.1705
original	-12.1705
study	-12.1705
request	-12.1705
storage	-12.1705
implement	-12.1705
essay	-12.1705
copyright	-12.1705
▁brun	-12.1705
problem	-12.1705
running	-12.1706
genius	-12.1706
clever	-12.1707
unofficial	-12.1707
shorten	-12.1707
delete	-12.1707
android	-12.1708
south	-12.1709
download	-12.1709
cutting	-12.171
polar	-12.1711
half	-12.1712
highest	-12.1712
protected	-12.1712
swap	-12.1713
typing	-12.1715
against	-12.1716
series	-12.1717
▁fle	-12.1719
vpn	-12.1719
customer	-12.1722
former	-12.1722
melt	-12.1723
greg	-12.1728
either	-12.1728
rific	-12.1735
snap	-12.1737
doesn	-12.1742
onica	-12.1742
render	-12.1744
▁observe	-12.1749
itarian	-12.175
metal	-12.175
▁involve	-12.175
nfluence	-12.1752
▁confuse	-12.1752
▁virtu	-12.176
▁trivia	-12.1764
▁shun	-12.1767
minor	-12.1768
▁mobil	-12.177
▁lenn	-12.177
▁mol	-12.1771
▁shove	-12.1772
▁elevat	-12.1773
▁confess	-12.1774
athlete	-12.1775
▁enlighten	-12.1775
json	-12.1775
▁stereo	-12.1776
cycling	-12.1776
orthodo	-12.1776
▁buckminster	-12.1776
&#8230;	-12.1776
scaffold	-12.1776
skyscraper	-12.1776
temporarily	-12.1776
▁abundance	-12.1776
▁accelerometer	-12.1776
▁alchemy	-12.1776
▁altruism	-12.1776
▁animoto	-12.1776
▁arguing	-12.1776
▁assembler	-12.1776
▁bangkok	-12.1776
▁bioinformatics	-12.1776
▁bottleneck	-12.1776
▁bouncing	-12.1776
[...]
