<unk>	0
<s>	0
</s>	0
-	-2.41118
.	-2.62862
/	-3.05969
▁	-3.20295
://	-3.52317
▁http	-3.52358
com	-3.67818
s	-3.97311
www	-4.13517
_	-4.36691
html	-4.80181
?	-4.84485
▁the	-4.95245
:	-5.04548
▁to	-5.23286
,	-5.38268
▁a	-5.39192
a	-5.41986
=	-5.42423
the	-5.44331
▁of	-5.56389
blog	-5.61311
'	-5.65696
▁for	-5.68971
▁in	-5.83003
to	-5.83754
news	-5.87712
▁and	-5.9084
▁nan	-5.99945
d	-6.03591
in	-6.09336
org	-6.14366
▁on	-6.16393
&	-6.16957
t	-6.18842
▁is	-6.2067
of	-6.26094
ing	-6.2712
and	-6.2783
p	-6.29175
)	-6.32585
e	-6.34472
▁(	-6.36248
on	-6.39472
for	-6.41206
php	-6.41617
article	-6.45245
▁how	-6.46282
▁with	-6.47243
▁ask	-6.49924
▁your	-6.51421
id	-6.52077
▁you	-6.52528
net	-6.54567
2	-6.5504
▁google	-6.56172
c	-6.57108
is	-6.59035
google	-6.59094
i	-6.60719
co	-6.61013
3	-6.64638
f	-6.65357
web	-6.70562
▁web	-6.70676
ed	-6.71704
b	-6.73219
uk	-6.74428
techcrunch	-6.76151
+	-6.77315
blogspot	-6.78497
▁new	-6.82839
r	-6.83469
archives	-6.85232
▁hn	-6.87859
1	-6.89311
▁what	-6.89489
business	-6.91875
blogs	-6.93225
er	-6.94614
▁it	-6.9666
n	-6.97213
technology	-6.97524
nytimes	-6.99348
it	-7.01399
tech	-7.01429
y	-7.01767
m	-7.02079
5	-7.03352
▁from	-7.04215
with	-7.0657
en	-7.07217
v	-7.08383
’	-7.08501
index	-7.09342
your	-7.09973
"	-7.10251
how	-7.10444
4	-7.10454
▁why	-7.11418
▁do	-7.17399
▁"	-7.18598
articles	-7.19075
8	-7.20302
▁startup	-7.20515
▁i	-7.2064
▁an	-7.20962
g	-7.23656
new	-7.24406
us	-7.27015
▁are	-7.27968
▁at	-7.28281
6	-7.29071
x	-7.29347
▁iphone	-7.30173
aspx	-7.31774
0	-7.32035
at	-7.32053
re	-7.32794
you	-7.33834
▁be	-7.35838
an	-7.368
ly	-7.38082
online	-7.38402
story	-7.39471
htm	-7.40185
post	-7.40354
k	-7.42381
▁yc	-7.43609
▁can	-7.44628
▁facebook	-7.46042
up	-7.46074
▁twitter	-7.46553
▁by	-7.46675
7	-7.47175
or	-7.48601
▁microsoft	-7.48819
content	-7.48914
o	-7.50211
video	-7.52775
iphone	-7.52893
▁not	-7.53755
9	-7.54791
twitter	-7.54903
rss	-7.55915
all	-7.56042
wordpress	-7.57368
page	-7.57696
startup	-7.58191
▁that	-7.58892
do	-7.59431
be	-7.59474
▁about	-7.59834
facebook	-7.6018
▁free	-7.60961
why	-7.61168
▁my	-7.61309
science	-7.62979
▁|	-7.6394
▁social	-7.64496
/?	-7.67395
▁open	-7.6817
es	-7.69477
world	-7.70148
code	-7.70478
archive	-7.7128
wired	-7.72066
yahoo	-7.72108
from	-7.72197
free	-7.72579
▁up	-7.73053
▁app	-7.73996
▁online	-7.74036
my	-7.75247
what	-7.75791
al	-7.76171
microsoft	-7.7702
time	-7.77884
de	-7.77902
▁apple	-7.78832
search	-7.78881
j	-7.79124
▁business	-7.79486
▁software	-7.79555
apple	-7.79889
▁will	-7.79955
#	-7.82631
▁search	-7.82662
▁as	-7.8273
▁or	-7.82906
social	-7.83356
hi	-7.83551
▁more	-7.84377
watch	-7.84802
z	-7.84899
edu	-7.84957
no	-7.85072
▁get	-7.86041
h	-7.87103
w	-7.87527
are	-7.88243
q	-7.88301
not	-7.88385
view	-7.89206
media	-7.89418
software	-7.90047
l	-7.90187
by	-7.9038
▁re	-7.9083
as	-7.91081
▁we	-7.91307
▁internet	-7.91927
u	-7.92179
▁out	-7.92755
open	-7.93135
top	-7.93396
magazine	-7.93626
source	-7.93976
▁have	-7.95722
▁video	-7.96653
%20	-7.97481
youtube	-7.98541
▁best	-7.98955
▁data	-7.99325
▁good	-7.99545
▁world	-7.99742
▁now	-8.00544
▁time	-8.00931
me	-8.01313
ca	-8.0136
app	-8.01775
ers	-8.0229
cgi	-8.03021
more	-8.03528
go	-8.0403
tv	-8.04215
▁one	-8.0445
out	-8.04768
readwriteweb	-8.05369
money	-8.05742
▁design	-8.06454
▁make	-8.07533
pdf	-8.07748
typepad	-8.07953
about	-8.08332
▁this	-8.09157
▁using	-8.09322
▁all	-8.09428
one	-8.09614
▁yahoo	-8.09709
part	-8.09726
internet	-8.10289
design	-8.10764
home	-8.11844
▁3	-8.12462
▁should	-8.12909
cfm	-8.14028
mobile	-8.14362
▁use	-8.14961
%2	-8.15066
12	-8.15822
=1	-8.16082
▁site	-8.17926
]	-8.18178
can	-8.18261
th	-8.18535
/2009/08/	-8.18548
▁first	-8.18955
▁no	-8.19012
get	-8.19757
▁programming	-8.1994
▁code	-8.20474
▁[	-8.20497
▁source	-8.20792
we	-8.20953
▁vs	-8.21356
▁2.0	-8.2136
data	-8.21405
▁10	-8.21688
ch	-8.21888
09	-8.21981
ad	-8.22003
▁over	-8.22788
18	-8.22822
▁work	-8.23323
bbc	-8.23931
ex	-8.24171
/2009/07/	-8.24273
now	-8.24525
ap	-8.25384
▁'	-8.25685
/2009/	-8.26157
man	-8.26517
▁like	-8.26595
linux	-8.26876
review	-8.272
20	-8.27398
▁start	-8.27543
apps	-8.27917
tag	-8.28536
▁top	-8.28625
daily	-8.2865
un	-8.28706
▁startups	-8.28988
▁don	-8.29113
live	-8.29231
info	-8.29294
▁mobile	-8.29478
;	-8.29536
▁news	-8.2954
security	-8.29836
▁&	-8.30175
▁has	-8.30393
that	-8.30442
au	-8.30791
asp	-8.31228
life	-8.31257
▁c	-8.3132
wsj	-8.31451
ie	-8.31584
ruby	-8.31645
site	-8.32087
ars	-8.32338
/2009/05/	-8.32883
▁ruby	-8.32998
▁when	-8.33228
/2009/04/	-8.33292
wiki	-8.33512
▁than	-8.33567
will	-8.33933
ar	-8.34743
▁who	-8.35853
stm	-8.35983
▁so	-8.36327
!	-8.36769
▁does	-8.37025
▁people	-8.37175
▁into	-8.37188
▁windows	-8.37214
ref	-8.37352
os	-8.37361
=1&	-8.37458
08	-8.3747
▁real	-8.37538
▁way	-8.37588
venturebeat	-8.3779
/2009/03/	-8.38273
show	-8.38277
cnn	-8.38364
print	-8.39546
50	-8.39584
▁apps	-8.39989
its	-8.41041
/2008/	-8.41403
▁python	-8.41451
▁future	-8.41589
▁million	-8.42247
▁tech	-8.42327
weblog	-8.42353
▁us	-8.42478
start	-8.42982
/2009/06/	-8.43647
/2008/10/	-8.44203
arstechnica	-8.44738
▁company	-8.44893
▁if	-8.44923
vc	-8.45462
▁life	-8.45826
st	-8.45868
partner	-8.4609
/2009/02/	-8.46212
best	-8.46331
good	-8.46404
windows	-8.46742
25	-8.476
▁down	-8.47615
list	-8.47862
ve	-8.47926
able	-8.48953
make	-8.49028
getting	-8.49152
download	-8.49161
infoworld	-8.494
▁users	-8.49741
10	-8.49771
▁network	-8.49784
▁amazon	-8.50025
le	-8.50378
▁rails	-8.50948
big	-8.512
▁review	-8.51259
la	-8.51259
bin	-8.51525
▁game	-8.51644
em	-8.51975
work	-8.52061
day	-8.52189
network	-8.52836
rails	-8.52976
▁computer	-8.53322
▁just	-8.53409
el	-8.53578
startups	-8.53616
so	-8.53986
/2008/12/	-8.54022
▁most	-8.54126
vs	-8.54454
▁javascript	-8.54574
times	-8.54607
mac	-8.5467
06	-8.54828
pro	-8.55684
cs	-8.55761
▁next	-8.55808
like	-8.55949
ac	-8.56459
cnet	-8.56507
/2008/11/	-8.566
▁linux	-8.56684
▁go	-8.56686
over	-8.56721
▁money	-8.56731
use	-8.56925
▁great	-8.57091
▁but	-8.5734
first	-8.57464
amazon	-8.57469
▁service	-8.57478
economist	-8.57592
▁launches	-8.57719
alleyinsider	-8.57797
mail	-8.58072
▁live	-8.58091
▁know	-8.58965
book	-8.58987
▁its	-8.59962
24	-8.6001
16	-8.60486
13	-8.60515
ei	-8.60521
▁better	-8.60658
▁interview	-8.60689
▁big	-8.61182
sb	-8.61233
dev	-8.61388
07	-8.61797
17	-8.61963
▁development	-8.61975
▁e	-8.61985
/2009/01/	-8.62652
tips	-8.62767
▁back	-8.62924
37	-8.63146
▁could	-8.63277
04	-8.633
01	-8.63382
▁hacker	-8.63407
te	-8.6372
▁engine	-8.64104
▁need	-8.64253
features	-8.64315
own	-8.64388
less	-8.6448
/2008/08/	-8.64559
io	-8.64588
true	-8.64771
real	-8.64834
signals	-8.65268
▁media	-8.6539
▁download	-8.65504
/2008/07/	-8.65514
▁help	-8.65995
mashable	-8.66139
28	-8.66345
million	-8.66371
▁where	-8.66474
▁language	-8.66593
episodes	-8.66653
27	-8.66768
/2008/09/	-8.66859
group	-8.6733
ra	-8.67908
▁market	-8.68075
▁day	-8.68159
▁system	-8.68307
gigaom	-8.68391
▁project	-8.68551
▁would	-8.6877
back	-8.69202
11	-8.69221
ic	-8.69308
▁music	-8.69447
▁their	-8.69531
▁tips	-8.69682
python	-8.69916
▁2009	-8.70016
23	-8.70026
▁firefox	-8.70179
posts	-8.70273
cloud	-8.70328
future	-8.70451
ro	-8.70527
▁may	-8.70721
down	-8.71094
05	-8.71383
emc	-8.71461
▁our	-8.71619
▁cloud	-8.72099
development	-8.72126
▁7	-8.72379
if	-8.72391
india	-8.72455
ive	-8.72542
▁power	-8.72647
based	-8.72677
30	-8.72781
▁g	-8.72798
5.	-8.72989
▁find	-8.73016
health	-8.73026
14	-8.73092
firefox	-8.73118
▁5	-8.73354
19	-8.73435
▁2008	-8.73704
using	-8.7372
pl	-8.73847
/2008/05/	-8.74097
▁security	-8.74458
wanted	-8.74701
this	-8.7484
99	-8.74868
mit	-8.75045
▁1	-8.75227
se	-8.75284
people	-8.75636
businessweek	-8.75844
mark	-8.7586
▁un	-8.76187
97	-8.76299
15	-8.76371
▁build	-8.76651
fi	-8.76798
user	-8.77226
▁idea	-8.77441
/2008/06/	-8.77535
▁some	-8.77537
▁own	-8.77539
26	-8.77827
▁blog	-8.78263
▁website	-8.78283
▁me	-8.78686
standard	-8.78834
22	-8.78952
et	-8.79215
game	-8.79427
na	-8.79519
42	-8.79575
ma	-8.79675
books	-8.79798
/2008/04/	-8.80073
programming	-8.80076
guide	-8.80217
market	-8.80462
40	-8.80561
should	-8.80604
▁things	-8.80909
have	-8.81149
marketing	-8.81338
▁book	-8.81749
when	-8.82808
project	-8.82835
displaystory	-8.82865
next	-8.82967
▁user	-8.83098
research	-8.83253
▁mac	-8.83459
nokia	-8.83611
per	-8.83692
▁want	-8.83734
▁developers	-8.83814
%3	-8.83864
▁off	-8.84262
ted	-8.84518
▁p	-8.84637
off	-8.84669
im	-8.84781
▁job	-8.8485
29	-8.84868
full	-8.85039
▁high	-8.85055
our	-8.85211
way	-8.85549
music	-8.85572
▁f	-8.85579
▁look	-8.85666
32	-8.85669
03	-8.85789
unlocked	-8.85856
▁youtube	-8.85883
mod	-8.85908
biz	-8.85992
35	-8.86044
tc	-8.8624
type	-8.8633
insider	-8.86388
▁any	-8.86402
space	-8.86537
▁gets	-8.8658
/10	-8.86949
▁marketing	-8.87229
name	-8.87241
▁part	-8.87282
/2008/01/	-8.87613
▁jobs	-8.87646
bits	-8.87696
/2008/03/	-8.87831
▁vc	-8.87867
▁really	-8.87955
may	-8.88004
▁year	-8.88137
stories	-8.88397
weblogs	-8.88443
▁u	-8.88478
users	-8.8849
devcentral	-8.8854
entry	-8.88564
end	-8.88879
48	-8.88902
steve	-8.8912
▁co	-8.89521
hp	-8.8955
ry	-8.89584
sh	-8.9008
digital	-8.90191
▁home	-8.90354
▁guide	-8.905
developer	-8.90678
▁services	-8.90693
▁sites	-8.90711
▁take	-8.90937
%	-8.90953
▁they	-8.9096
interview	-8.91304
▁2	-8.91334
▁buy	-8.91383
▁phone	-8.91744
_1.	-8.91818
/#	-8.92127
▁x	-8.92339
/2008/02/	-8.92425
▁ad	-8.92453
▁browser	-8.92505
but	-8.92547
▁entrepreneurs	-8.92939
yc	-8.93258
pc	-8.9336
zdnet	-8.93393
▁think	-8.93458
opinion	-8.93608
▁application	-8.93666
/2/	-8.937
ne	-8.93912
think	-8.93947
/1/	-8.94252
dont	-8.94267
▁lisp	-8.9447
talk	-8.9457
▁pay	-8.94761
launches	-8.94762
browser	-8.94791
▁venture	-8.94796
art	-8.94941
ty	-8.9498
mo	-8.95001
oreilly	-8.95175
cms	-8.95384
02	-8.95438
21	-8.95673
venture	-8.95791
▁y	-8.95861
mag	-8.95886
li	-8.95977
53	-8.96374
▁server	-8.96709
▁brain	-8.96916
does	-8.97406
bo	-8.97517
wikipedia	-8.97541
▁years	-8.97637
▁de	-8.98122
31	-8.98143
▁was	-8.98207
node	-8.98415
▁simple	-8.98467
http	-8.98491
email	-8.98493
javascript	-8.98499
power	-8.98603
▁change	-8.9867
ha	-8.9892
86	-8.98989
doc	-8.99021
sfgate	-8.99117
▁create	-8.99121
feed	-8.99126
▁support	-8.99296
beta	-8.99405
thread	-8.99654
just	-8.99801
ity	-8.99803
high	-8.99889
age	-9.00043
law	-9.00071
boston	-9.00114
/2007/10/	-9.00242
articleid	-9.00371
log	-9.00377
svn	-9.00522
old	-9.00547
▁after	-9.00736
▁developer	-9.00931
▁valley	-9.00968
▁obama	-9.01178
▁right	-9.01182
▁b	-9.01223
wp	-9.01303
▁email	-9.01305
press	-9.01422
guardian	-9.01629
▁os	-9.01636
files	-9.01819
ff	-9.01822
founder	-9.01909
▁science	-9.0191
store	-9.02017
who	-9.02273
▁ceo	-9.02329
ba	-9.02407
▁there	-9.02693
▁platform	-9.02714
main	-9.02803
things	-9.02826
developers	-9.02861
year	-9.02905
computer	-9.03024
▁computing	-9.03153
▁building	-9.03233
ation	-9.03323
tools	-9.03475
▁released	-9.03517
service	-9.03574
▁much	-9.03574
▁bad	-9.03579
2.	-9.03618
▁car	-9.04014
howto	-9.04157
▁companies	-9.04288
▁android	-9.04333
▁v	-9.04575
action	-9.05126
▁making	-9.05392
▁still	-9.05556
▁here	-9.05724
product	-9.05739
ru	-9.05863
▁model	-9.0596
▁list	-9.06125
▁steve	-9.06147
than	-9.06209
phone	-9.06405
▁too	-9.06442
lo	-9.06743
rs	-9.06821
▁says	-9.06953
▁page	-9.06967
▁problem	-9.07052
▁store	-9.07101
math	-9.07235
▁makes	-9.07375
technologizer	-9.07521
box	-9.07624
air	-9.07658
sun	-9.0773
company	-9.07899
bit	-9.07986
ies	-9.08054
has	-9.08076
▁java	-9.08113
ny	-9.08319
▁learn	-9.08374
cat	-9.08393
mp	-9.08492
75	-9.08512
css	-9.08547
computing	-9.08614
better	-9.08621
▁content	-9.08766
fa	-9.0912
▁technology	-9.09168
jobs	-9.0922
▁billion	-9.09371
digg	-9.09406
con	-9.09515
car	-9.09637
land	-9.0965
ll	-9.09907
▁deal	-9.0991
radar	-9.09921
forbes	-9.09989
dtl	-9.10001
▁api	-9.10026
great	-9.10069
▁school	-9.101
▁love	-9.10294
▁coming	-9.10322
▁digg	-9.10381
▁test	-9.10617
into	-9.10761
mar	-9.10772
am	-9.10877
ness	-9.11008
▁silicon	-9.11128
ter	-9.11146
▁nokia	-9.11335
/2007/05/	-9.11617
/2007/06/	-9.11631
▁end	-9.11924
oref	-9.12083
▁applications	-9.12296
ten	-9.1231
ka	-9.12477
60	-9.12755
flash	-9.12986
feature	-9.13164
▁games	-9.13284
▁traffic	-9.13398
▁man	-9.13408
▁launch	-9.13924
▁tool	-9.13954
▁beta	-9.13978
ri	-9.14091
most	-9.14147
▁other	-9.14157
▁ideas	-9.14188
ian	-9.1423
-10-	-9.14379
um	-9.1439
games	-9.1444
▁tv	-9.14765
ling	-9.14778
▁ads	-9.14989
latest	-9.14994
ist	-9.15109
1.	-9.1536
pre	-9.15373
ism	-9.15486
ir	-9.15699
▁old	-9.15892
launch	-9.16006
din	-9.16125
▁virtual	-9.16142
▁ways	-9.16305
geek	-9.16325
▁two	-9.16393
long	-9.16691
register	-9.16699
▁study	-9.16761
cc	-9.1683
ci	-9.16865
▁without	-9.16881
file	-9.17343
mozilla	-9.17533
gets	-9.17539
▁china	-9.17698
centernetworks	-9.17819
2009	-9.17997
db	-9.18014
74	-9.1826
management	-9.18312
64	-9.18363
dc	-9.18437
line	-9.1853
▁myspace	-9.18636
da	-9.18681
releases	-9.1874
00	-9.18771
know	-9.18837
red	-9.18847
▁anyone	-9.19106
slogin	-9.19154
000	-9.19195
500	-9.19262
▁plan	-9.19349
inc	-9.1935
▁flash	-9.19413
/22	-9.19462
▁w	-9.19696
▁going	-9.19708
some	-9.19761
ways	-9.19772
pa	-9.19801
ideas	-9.20032
lab	-9.20111
▁hard	-9.20166
could	-9.20294
ns	-9.20386
/2007/09/	-9.20529
pr	-9.20707
card	-9.20934
android	-9.21091
buy	-9.21237
▁digital	-9.21288
▁n	-9.21317
56	-9.21337
lisp	-9.21443
▁did	-9.2166
▁$1	-9.21708
▁chrome	-9.21708
▁hackers	-9.2177
/2007/12/	-9.21928
text	-9.21933
▁ever	-9.21954
▁tell	-9.2199
brain	-9.22242
100	-9.22351
45	-9.2253
engine	-9.22624
take	-9.2266
test	-9.22678
products	-9.22727
help	-9.22752
url	-9.22763
bad	-9.22767
labs	-9.22949
69	-9.22963
▁performance	-9.23308
mind	-9.2344
▁advice	-9.23471
comments	-9.235
▁easy	-9.23545
ceo	-9.23677
ft	-9.23753
▁tools	-9.23861
ec	-9.24025
59	-9.24142
▁bill	-9.24229
08/	-9.24307
44	-9.24346
▁advertising	-9.24349
fr	-9.24401
▁product	-9.24436
▁history	-9.2445
52	-9.24529
system	-9.24708
sid	-9.24729
▁community	-9.24734
java	-9.24752
virtual	-9.25198
py	-9.25232
▁small	-9.25403
gov	-9.25455
seo	-9.25492
valleywag	-9.25586
api	-9.25739
fortune	-9.25806
▁space	-9.25831
ta	-9.25925
/2007/03/	-9.25968
community	-9.26037
▁post	-9.26128
▁india	-9.26139
▁capital	-9.26392
look	-9.26499
style	-9.2684
▁control	-9.27007
▁watch	-9.27009
entrepreneur	-9.27148
/16	-9.27255
-20-	-9.27258
▁read	-9.27259
ho	-9.27288
ya	-9.27296
ads	-9.2736
▁last	-9.27476
need	-9.27487
▁office	-9.27635
-1-	-9.2765
/2007/08/	-9.27655
▁success	-9.27658
▁combinator	-9.27708
82	-9.28246
ion	-9.28358
bu	-9.28443
job	-9.28549
inside	-9.2856
making	-9.28631
▁long	-9.28691
▁talk	-9.28967
▁text	-9.29086
vi	-9.29106
seths	-9.29181
▁pre	-9.29215
paul	-9.29228
public	-9.29288
▁4	-9.29327
language	-9.29355
▁t	-9.29367
41	-9.29373
/11	-9.29377
▁air	-9.29378
sethgo	-9.29616
62	-9.2962
ko	-9.29634
reuters	-9.29708
earth	-9.2974
report	-9.29748
36	-9.29749
▁black	-9.29852
techjaws	-9.29932
where	-9.30014
server	-9.30083
between	-9.30132
link	-9.30303
▁con	-9.30383
▁show	-9.30504
utm	-9.30574
77	-9.3069
▁goes	-9.30889
rssuserland	-9.30983
/12	-9.31059
▁another	-9.31063
title	-9.31266
love	-9.31296
newscientist	-9.31416
▁unlocked	-9.31734
journal	-9.31771
.37	-9.3185
/17	-9.31949
change	-9.32039
version	-9.32072
services	-9.3217
/2007/04/	-9.32201
ab	-9.32274
/2007/07/	-9.32302
set	-9.32305
▁case	-9.32589
build	-9.32653
▁made	-9.32658
▁personal	-9.32732
ups	-9.32753
building	-9.32778
▁credit	-9.32811
read	-9.32835
▁networks	-9.32953
▁public	-9.33051
▁pro	-9.33131
2008	-9.33219
▁css	-9.33288
▁become	-9.33348
projects	-9.33414
entrepreneurs	-9.33664
▁looking	-9.33707
▁under	-9.33716
98	-9.3373
78	-9.3377
two	-9.3382
▁non	-9.33849
ster	-9.3388
ever	-9.33993
/14	-9.34079
▁erlang	-9.34104
forum	-9.34109
47	-9.3422
website	-9.34251
economy	-9.34252
pg	-9.34268
ce	-9.3461
▁management	-9.34754
▁please	-9.35003
70	-9.35071
release	-9.35097
▁today	-9.35301
myspace	-9.35417
hub	-9.35436
credit	-9.35632
▁see	-9.35697
il	-9.35753
corporate	-9.3577
mi	-9.35863
bb	-9.35941
34	-9.3595
ok	-9.35977
▁only	-9.35989
/2007/11/	-9.36123
▁information	-9.36142
est	-9.36145
65	-9.36217
ment	-9.36246
simple	-9.36258
check	-9.36261
▁economy	-9.36281
easy	-9.36284
topic	-9.36339
▁many	-9.36349
pe	-9.36371
▁human	-9.36418
ver	-9.36428
/15	-9.36452
college	-9.36735
39	-9.3677
▁dead	-9.37019
▁stop	-9.37059
▁art	-9.37146
▁learning	-9.37161
dd	-9.37186
library	-9.37208
office	-9.3752
smart	-9.37522
95	-9.37666
talks	-9.37672
gr	-9.37686
wire	-9.37882
▁which	-9.37987
▁framework	-9.38032
▁being	-9.3811
house	-9.38115
side	-9.38248
finance	-9.38383
▁wrong	-9.38411
55	-9.38452
▁desktop	-9.38509
61	-9.38517
right	-9.38864
ul	-9.3895
▁working	-9.38979
sites	-9.38995
ia	-9.39037
▁keep	-9.39142
43	-9.39166
cellhut	-9.39176
ask	-9.39179
pay	-9.39248
ajaxian	-9.39444
81	-9.39465
▁secret	-9.39492
▁sales	-9.39554
po	-9.39607
90	-9.4033
op	-9.4038
green	-9.40529
▁cool	-9.4072
share	-9.40759
63	-9.40776
▁story	-9.40903
▁h	-9.40923
gadgets	-9.40975
bar	-9.41071
ke	-9.41074
xml	-9.41109
really	-9.41231
cr	-9.41329
slate	-9.41414
▁founder	-9.41553
black	-9.41574
application	-9.41669
di	-9.41809
▁books	-9.4184
raises	-9.41873
▁fast	-9.42004
bill	-9.42026
platform	-9.42068
fire	-9.42099
▁innovation	-9.42257
▁program	-9.42337
ja	-9.42437
▁version	-9.42442
other	-9.42516
global	-9.42519
github	-9.42553
▁machine	-9.42695
ig	-9.42835
09/	-9.42911
problem	-9.43184
touch	-9.43229
▁hosting	-9.43313
ibm	-9.43352
save	-9.43377
lessons	-9.43405
▁his	-9.43468
▁research	-9.43513
performance	-9.43553
101	-9.43565
map	-9.43686
ycombinator	-9.43761
▁america	-9.4386
▁sun	-9.43978
companies	-9.44057
▁save	-9.44135
hacker	-9.44218
personal	-9.44464
pi	-9.44467
/2007/	-9.44527
chrome	-9.44568
blogging	-9.44573
▁worth	-9.44586
▁industry	-9.4465
51	-9.4498
ge	-9.45119
nz	-9.45133
▁ie	-9.45192
▁django	-9.45253
five	-9.45379
history	-9.45386
66	-9.45413
lets	-9.45527
▁every	-9.4556
79	-9.45572
▁college	-9.45579
today	-9.45685
ng	-9.45827
still	-9.46123
▁20	-9.46163
/27	-9.46202
bid	-9.46294
▁jquery	-9.46337
▁lessons	-9.46381
▁less	-9.46398
deals	-9.46507
capital	-9.46582
92	-9.46619
hosting	-9.46636
▁movie	-9.46731
ent	-9.46796
/21	-9.46799
/13	-9.4683
▁mysql	-9.46862
▁law	-9.46884
▁got	-9.46935
▁share	-9.47015
49	-9.47086
88	-9.47131
innovation	-9.47141
ray	-9.47172
want	-9.47343
support	-9.4747
play	-9.47534
board	-9.47845
▁health	-9.47876
▁name	-9.47911
01/	-9.48129
war	-9.48154
▁networking	-9.48164
advertising	-9.48192
▁database	-9.48211
▁testing	-9.48301
02/	-9.48308
67	-9.48491
js	-9.48625
▁reasons	-9.48709
storage	-9.48714
reddit	-9.48719
ubuntu	-9.48731
gb	-9.48747
too	-9.48966
11/	-9.4898
▁100	-9.4906
57	-9.49067
▁run	-9.49163
idea	-9.49203
▁global	-9.49382
▁gmail	-9.49577
ip	-9.4965
taking	-9.49715
76	-9.49766
master	-9.49776
dn	-9.49875
▁per	-9.49922
▁k	-9.50028
plan	-9.5013
58	-9.50174
cio	-9.50178
▁value	-9.50265
33	-9.5029
▁through	-9.50412
▁write	-9.50519
fast	-9.50714
stock	-9.50908
89	-9.5097
tree	-9.5101
control	-9.51098
▁early	-9.51275
sony	-9.51483
american	-9.51505
▁6	-9.51545
▁demo	-9.51565
/09	-9.51569
photos	-9.51658
▁takes	-9.51704
▁funding	-9.51762
=5090&	-9.51765
▁week	-9.51766
72	-9.51802
▁add	-9.51851
(	-9.51873
model	-9.51955
▁behind	-9.51959
local	-9.51965
ping	-9.52085
ga	-9.52207
case	-9.52368
well	-9.52452
▁doesn	-9.52499
django	-9.52523
▁let	-9.52782
▁common	-9.52785
slashdot	-9.52817
▁team	-9.52835
last	-9.52835
reasons	-9.52904
300	-9.5293
▁domain	-9.53099
deal	-9.5334
section	-9.53356
hot	-9.53451
hard	-9.53598
▁laptop	-9.53673
▁recession	-9.53683
▁feedback	-9.53685
73	-9.53748
▁storage	-9.5376
pid	-9.53813
ti	-9.53837
▁seo	-9.53859
07/	-9.53869
▁pc	-9.53923
▁theory	-9.53956
ni	-9.53958
▁patent	-9.54065
culture	-9.54167
win	-9.54249
▁times	-9.54329
learn	-9.54433
91	-9.54559
▁techjaws	-9.547
state	-9.54784
▁image	-9.5484
▁card	-9.54854
ze	-9.55
avc	-9.55058
▁five	-9.55089
jquery	-9.55308
billion	-9.55322
mysql	-9.55323
ui	-9.55364
▁hack	-9.55429
▁mind	-9.55493
bi	-9.55586
68	-9.55708
▁thoughts	-9.55782
run	-9.55876
▁r	-9.55906
▁against	-9.55911
▁cost	-9.55925
va	-9.55949
applications	-9.56314
38	-9.56371
▁state	-9.56529
questions	-9.56538
computerworld	-9.56559
update	-9.56644
item	-9.56765
▁report	-9.56791
96	-9.56801
▁super	-9.56875
buzz	-9.56933
-11	-9.57009
docs	-9.57031
city	-9.57037
71	-9.5705
▁ubuntu	-9.57088
/07	-9.57148
codinghorror	-9.57154
▁file	-9.57162
▁programmers	-9.57254
mc	-9.57264
10-	-9.5752
04/	-9.57661
ms	-9.57675
80	-9.57727
hack	-9.57728
men	-9.5777
oo	-9.57857
after	-9.58057
10/	-9.58067
▁stock	-9.58071
▁wants	-9.5814
flickr	-9.58178
gizmodo	-9.58278
light	-9.58338
nef	-9.58521
▁ten	-9.58679
key	-9.58993
edge	-9.59085
school	-9.59232
says	-9.59268
2007	-9.59318
he	-9.59324
▁programmer	-9.59349
▁play	-9.59455
obama	-9.59819
▁three	-9.59823
jhtml	-9.59826
▁sony	-9.59828
movie	-9.59848
super	-9.59907
much	-9.59959
dead	-9.60043
campaign	-9.60069
cl	-9.60079
git	-9.60197
going	-9.60307
stuff	-9.60529
desktop	-9.60546
sc	-9.60572
their	-9.60615
▁ebay	-9.60792
▁won	-9.60871
▁smart	-9.60907
pages	-9.60936
▁m	-9.60959
ku	-9.60967
=10	-9.60997
michael	-9.61128
entrepreneurship	-9.61207
84	-9.61337
only	-9.61454
forge	-9.61457
was	-9.61658
▁available	-9.61685
dyn	-9.6169
scribd	-9.61723
enterprise	-9.6173
traffic	-9.61733
▁intel	-9.61822
8&	-9.61829
under	-9.61912
msn	-9.61953
wall	-9.62089
four	-9.62136
za	-9.62143
lu	-9.62174
call	-9.62278
national	-9.62361
tr	-9.62512
mb	-9.62608
jan	-9.62613
▁house	-9.62686
▁paul	-9.62753
▁problems	-9.62795
client	-9.62893
▁websites	-9.62944
collection	-9.62957
▁speed	-9.6297
▁self	-9.63062
jo	-9.63286
fu	-9.63322
▁sell	-9.63442
washingtonpost	-9.63467
made	-9.63525
resources	-9.63528
channel	-9.63548
bc	-9.63575
paper	-9.63605
▁before	-9.63613
2008/	-9.6369
▁adobe	-9.63692
▁git	-9.63719
85	-9.63953
▁writing	-9.63959
▁+	-9.6402
speed	-9.64087
▁never	-9.64098
information	-9.64196
three	-9.64224
-7-	-9.64323
cool	-9.64371
testing	-9.64462
fe	-9.64495
▁faster	-9.6455
bl	-9.64582
br	-9.64627
▁challenge	-9.64692
▁languages	-9.64703
default	-9.64789
advice	-9.648
▁o	-9.64867
▁say	-9.64974
gmail	-9.65008
▁them	-9.65089
china	-9.65147
port	-9.65158
announces	-9.65218
pcworld	-9.6532
-2-	-9.65352
▁entrepreneur	-9.65416
aws	-9.65477
command	-9.6551
gen	-9.65529
▁vista	-9.65687
▁needs	-9.65746
▁ajax	-9.65748
/2009/09/	-9.65795
cu	-9.65839
week	-9.65866
track	-9.65883
bot	-9.65929
ai	-9.65972
reviews	-9.65976
micro	-9.66228
star	-9.6629
▁library	-9.66339
▁check	-9.66405
▁8	-9.66408
ton	-9.66486
latimes	-9.66499
tu	-9.66541
current	-9.66666
basic	-9.66703
▁spam	-9.66923
/20	-9.67038
▁guy	-9.67054
▁via	-9.67065
hackers	-9.67166
images	-9.67208
▁he	-9.6722
joe	-9.67229
auto	-9.67247
fun	-9.67269
center	-9.67377
meme	-9.67394
nation	-9.6748
▁videos	-9.67501
sales	-9.67511
▁financial	-9.67533
goes	-9.67575
treehugger	-9.67656
ting	-9.67674
ur	-9.67677
05/	-9.67778
mg	-9.67788
cd	-9.678
-5-	-9.67821
▁green	-9.67933
samsung	-9.6796
▁systems	-9.67963
everything	-9.6797
silicon	-9.68005
secret	-9.68018
▁questions	-9.68089
▁conference	-9.681
▁fail	-9.68102
▁update	-9.68118
▁thing	-9.68122
▁experience	-9.68151
learning	-9.68189
▁based	-9.68229
▁war	-9.68241
si	-9.68268
▁ipod	-9.68277
54	-9.6835
tool	-9.68414
▁php	-9.68513
find	-9.68517
▁founders	-9.68543
any	-9.68559
don	-9.68567
useful	-9.68678
23/	-9.68948
ee	-9.68977
here	-9.69014
▁micro	-9.69017
▁auto	-9.69093
wa	-9.69106
▁release	-9.69158
dream	-9.69228
adobe	-9.69261
ebay	-9.69266
▁hacking	-9.69358
ki	-9.69417
▁collection	-9.69421
▁used	-9.69665
small	-9.69693
▁price	-9.69827
second	-9.69909
monkey	-9.70013
▁interesting	-9.70052
team	-9.70138
▁wikipedia	-9.70234
comment	-9.70247
▁second	-9.70263
24/	-9.70273
whats	-9.70436
hl	-9.70456
▁very	-9.70468
lee	-9.7066
programmer	-9.70684
▁meet	-9.70706
▁reddit	-9.7071
fox	-9.7074
image	-9.70769
macvittie	-9.70782
networks	-9.70814
maps	-9.70834
point	-9.70868
▁win	-9.7087
blue	-9.71043
▁street	-9.71074
agile	-9.71229
travel	-9.71353
▁feature	-9.71435
▁improve	-9.71559
▁care	-9.71608
politics	-9.71876
subj	-9.7188
class	-9.71892
perl	-9.71894
ship	-9.71913
writing	-9.71921
▁isn	-9.72025
▁official	-9.72034
pub	-9.72046
years	-9.72289
rc	-9.72316
▁gates	-9.72486
erlang	-9.72654
tumblr	-9.72705
-2009-	-9.72706
▁short	-9.72786
▁introduction	-9.72787
founders	-9.7295
without	-9.7303
▁inside	-9.7313
21/	-9.73134
ece	-9.7314
▁again	-9.7315
nl	-9.73162
▁releases	-9.73227
ary	-9.7323
study	-9.73249
takes	-9.73266
▁been	-9.73302
▁memory	-9.7336
gi	-9.73371
▁vcs	-9.7344
vid	-9.73477
success	-9.7357
▁3.0	-9.73762
▁put	-9.7391
value	-9.73928
core	-9.74008
engadget	-9.74067
machine	-9.74114
makes	-9.74296
▁creating	-9.74311
ize	-9.74376
▁mozilla	-9.74509
▁wall	-9.7454
29/	-9.74551
stanford	-9.74603
=&	-9.74635
stop	-9.74838
qui	-9.74844
▁features	-9.74932
king	-9.74962
ct	-9.74978
06/	-9.75018
demo	-9.75025
▁math	-9.75051
▁students	-9.75061
▁pg	-9.75078
face	-9.75115
groups	-9.75241
▁cheap	-9.75269
▁call	-9.75307
plus	-9.75414
scale	-9.755
another	-9.75506
sp	-9.7552
gu	-9.75541
/19	-9.75845
▁revenue	-9.75893
display	-9.75939
93	-9.76019
ph	-9.76028
▁map	-9.7607
den	-9.76267
▁everything	-9.76343
they	-9.76376
▁l	-9.76383
▁set	-9.76395
networking	-9.76422
▁growth	-9.76453
drive	-9.7647
soft	-9.76505
▁anti	-9.7651
rd	-9.76532
papers	-9.76575
▁give	-9.76593
▁quick	-9.76637
aug	-9.76639
▁away	-9.76644
▁q	-9.76665
▁government	-9.76667
versus	-9.76671
-3-	-9.76693
industry	-9.76694
87	-9.76815
▁crisis	-9.76834
domain	-9.77007
/18	-9.77021
av	-9.77102
intel	-9.77112
▁reality	-9.77112
videos	-9.77222
screen	-9.77224
telegraph	-9.7734
bloomberg	-9.77345
valley	-9.77414
▁2007	-9.77455
▁successful	-9.7758
▁interface	-9.77643
database	-9.77655
pt	-9.77677
sciencenews	-9.77798
▁private	-9.7788
har	-9.77899
▁customer	-9.7795
▁access	-9.78029
chan	-9.78041
▁link	-9.78088
ajax	-9.78096
▁little	-9.78225
▁death	-9.78336
room	-9.78428
bug	-9.78461
event	-9.78513
▁key	-9.78728
education	-9.78796
ck	-9.78972
▁bay	-9.78986
sec	-9.78992
▁robot	-9.79064
let	-9.79155
46	-9.79165
sky	-9.79307
▁mark	-9.79309
dr	-9.79378
▁turn	-9.79531
financial	-9.7954
wrong	-9.79541
ator	-9.79599
▁full	-9.79614
▁age	-9.79693
stream	-9.79706
▁found	-9.79772
dec	-9.79774
jsp	-9.7994
▁useful	-9.79972
script	-9.79994
▁scientists	-9.80055
entertainment	-9.80093
ipod	-9.80107
fd	-9.8012
ag	-9.80246
lin	-9.80358
▁earth	-9.80392
ization	-9.8052
eu	-9.80561
human	-9.80629
▁kindle	-9.80692
notes	-9.80772
fastcompany	-9.80824
▁doing	-9.80959
▁economic	-9.80974
/08	-9.80992
friendfeed	-9.81003
▁links	-9.81139
chi	-9.81145
scripting	-9.81166
working	-9.81173
▁analysis	-9.81203
lt	-9.81299
cal	-9.81343
option	-9.8143
thing	-9.81505
▁rules	-9.81597
▁comments	-9.81651
▁cash	-9.81687
▁sale	-9.81745
did	-9.81822
_3	-9.81994
sell	-9.82117
ant	-9.82172
ez	-9.82239
▁large	-9.82327
▁blogging	-9.82371
▁energy	-9.82446
▁finding	-9.82464
recession	-9.82473
03/	-9.82521
▁paper	-9.82642
▁resources	-9.82668
▁im	-9.82697
▁soon	-9.82698
player	-9.82741
rich	-9.82778
fm	-9.82805
ring	-9.82843
▁enterprise	-9.82865
posterous	-9.8292
▁offers	-9.82954
tom	-9.83028
livejournal	-9.83045
▁face	-9.83132
▁ibm	-9.8318
▁something	-9.83216
scott	-9.83223
▁attack	-9.83226
non	-9.83359
chris	-9.8338
▁results	-9.83416
mer	-9.83424
ill	-9.83433
▁screen	-9.8344
83	-9.83446
zen	-9.83451
af	-9.83466
fo	-9.83548
price	-9.83651
ler	-9.83703
table	-9.83762
oc	-9.83826
click	-9.83892
add	-9.83895
94	-9.839
works	-9.83937
knowledge	-9.83957
▁strategy	-9.83972
=6	-9.84015
▁adds	-9.84203
▁visual	-9.84314
▁plans	-9.84445
/2007/02/	-9.84474
▁bug	-9.84506
photo	-9.84521
▁even	-9.84551
quick	-9.8462
cy	-9.84692
seattle	-9.84708
=2	-9.84797
again	-9.84863
tol	-9.84929
▁group	-9.84968
released	-9.85119
ju	-9.85202
▁hot	-9.85236
street	-9.85283
ob	-9.85373
▁red	-9.85465
▁york	-9.8547
▁must	-9.85538
pirate	-9.85542
lot	-9.85565
▁multi	-9.85608
▁coding	-9.857
ous	-9.85709
▁failure	-9.85764
▁engineering	-9.8583
physorg	-9.85831
122	-9.85884
anti	-9.85966
▁itunes	-9.86232
▁kill	-9.86292
▁photo	-9.86304
ish	-9.86518
showarticle	-9.86564
▁view	-9.86609
▁products	-9.86652
du	-9.86667
ley	-9.86708
lang	-9.86714
/23	-9.86724
gg	-9.86735
▁perfect	-9.86881
▁running	-9.86916
=8	-9.86941
▁solar	-9.86965
act	-9.87002
▁low	-9.87002
▁starting	-9.87032
▁rich	-9.87033
behind	-9.87033
chat	-9.87126
200	-9.87171
▁side	-9.872
20/	-9.87211
got	-9.87325
msnbc	-9.87327
foundread	-9.87329
az	-9.87501
jun	-9.87519
self	-9.87532
browse	-9.87585
▁summer	-9.87623
john	-9.87633
ful	-9.8765
▁vote	-9.87652
▁investment	-9.87732
▁local	-9.87795
energy	-9.87813
▁fund	-9.87876
▁center	-9.8789
18/	-9.87916
▁hiring	-9.88065
▁fire	-9.88211
nt	-9.88268
▁travel	-9.88281
cant	-9.88393
src	-9.88451
▁privacy	-9.88511
▁fun	-9.88517
/2007	-9.88589
ultimate	-9.88598
little	-9.88601
▁important	-9.88633
che	-9.88653
▁voice	-9.88747
category	-9.88825
,000	-9.88863
mu	-9.8889
=3	-9.88904
▁wireless	-9.88955
/01	-9.89059
▁men	-9.89083
▁record	-9.89147
cars	-9.89199
▁ui	-9.89219
brings	-9.89244
adam	-9.89269
stone	-9.89392
alpha	-9.89395
level	-9.89395
framework	-9.89487
googles	-9.89498
123	-9.89612
letter	-9.89704
▁la	-9.8975
▁letter	-9.8979
word	-9.89849
pic	-9.89853
detail	-9.90044
laptop	-9.90069
min	-9.90249
beat	-9.9029
keep	-9.90351
cell	-9.90429
▁generation	-9.90459
fail	-9.90537
▁young	-9.90567
su	-9.90625
uni	-9.9064
program	-9.90706
tic	-9.90913
aid	-9.90946
▁offer	-9.90971
▁break	-9.90982
wireless	-9.9103
▁fight	-9.91074
ham	-9.91081
1/	-9.91159
fish	-9.91167
▁creative	-9.91234
evans	-9.91239
▁water	-9.91265
hy	-9.91297
wi	-9.91297
▁american	-9.91369
▁dis	-9.9144
▁customers	-9.9148
cost	-9.91514
ah	-9.91544
worth	-9.91545
googleblog	-9.91549
eye	-9.91562
host	-9.91737
policy	-9.91802
creative	-9.91813
theory	-9.9182
thenextweb	-9.91916
brand	-9.91971
systems	-9.9199
▁process	-9.92013
ber	-9.92026
▁white	-9.92117
▁city	-9.92199
▁killer	-9.92228
▁beat	-9.92245
▁place	-9.92267
fix	-9.9231
docid	-9.92331
▁friendfeed	-9.92484
▁evolution	-9.92535
je	-9.92612
generation	-9.92632
happy	-9.92642
friendly	-9.92648
400	-9.92669
pos	-9.92711
never	-9.92825
▁question	-9.92874
▁alpha	-9.92903
▁built	-9.92927
cash	-9.92955
her	-9.93016
thinking	-9.93028
america	-9.9307
official	-9.93173
▁different	-9.93232
jul	-9.93235
early	-9.93254
▁finally	-9.93331
step	-9.93334
▁four	-9.93382
justin	-9.93386
create	-9.9347
smashing	-9.93497
informationweek	-9.93508
mm	-9.93521
700	-9.93671
▁legal	-9.93694
tt	-9.93697
/30	-9.93701
360	-9.93706
acquires	-9.93763
▁photos	-9.9389
▁samsung	-9.93901
there	-9.94064
▁mit	-9.94085
▁quality	-9.94113
note	-9.94116
▁alternative	-9.94207
▁scheme	-9.94263
white	-9.94263
spam	-9.94346
blogger	-9.94395
sale	-9.9441
james	-9.94478
▁perl	-9.94597
++	-9.94616
say	-9.9464
22/	-9.94698
ability	-9.9478
▁$2	-9.94799
124	-9.94837
▁san	-9.94887
▁fix	-9.94938
hr	-9.94975
/25	-9.94992
harvard	-9.95019
27/	-9.9506
markpeterdavis	-9.95102
david	-9.95139
▁happy	-9.95163
getventure	-9.95176
popular	-9.95189
many	-9.95274
▁shows	-9.9529
being	-9.95421
iv	-9.95486
▁projects	-9.95599
see	-9.95668
cast	-9.95853
dy	-9.95881
matt	-9.95881
ak	-9.95886
xconomy	-9.95912
squidoo	-9.95916
importance	-9.9593
msdn	-9.95932
gallery	-9.95968
hardware	-9.95985
▁touch	-9.96121
▁semantic	-9.96529
▁logo	-9.96698
markets	-9.96784
trends	-9.96873
15/	-9.96973
▁word	-9.97058
mini	-9.97103
vcs	-9.97113
kill	-9.97128
head	-9.97221
kit	-9.97227
crn	-9.97306
▁line	-9.97526
cx	-9.9763
write	-9.97643
▁john	-9.97672
kindle	-9.97712
▁competition	-9.97767
▁maps	-9.97809
▁uses	-9.97811
direct	-9.97918
hit	-9.97956
thoughts	-9.97966
▁might	-9.97972
ware	-9.97975
▁talks	-9.98018
bra	-9.98032
▁number	-9.98125
mon	-9.98129
▁done	-9.98159
bol	-9.98167
worlds	-9.98378
rock	-9.98428
podcast	-9.98487
▁education	-9.9849
=9	-9.98553
dynamic	-9.98559
▁chat	-9.98691
▁computers	-9.98744
ev	-9.9886
suck	-9.99011
vista	-9.99039
900	-9.99066
coming	-9.99077
quality	-9.99087
tim	-9.99093
▁9	-9.99227
conference	-9.99251
programmers	-9.99299
▁bar	-9.99413
edition	-9.9948
ized	-9.99504
att	-9.99516
funding	-9.99577
fall	-9.99582
opensource	-9.99606
▁days	-9.99617
mix	-9.99646
▁experiment	-9.99702
dan	-9.99745
▁biggest	-9.99831
andrew	-9.99868
▁cell	-9.99906
▁light	-9.99925
▁popular	-10.0004
20080	-10.0005
▁30	-10.001
▁slow	-10.0011
▁plugin	-10.0013
sci	-10.0016
tabid	-10.0017
▁ec	-10.0026
nature	-10.0031
▁palm	-10.0033
▁hours	-10.0044
pan	-10.0047
19/	-10.0056
▁come	-10.0059
▁rate	-10.0068
▁enough	-10.0072
dis	-10.0072
13/	-10.0076
▁women	-10.0079
▁clone	-10.0084
▁everyone	-10.0095
lifehacker	-10.0107
▁pirate	-10.0109
focus	-10.011
▁solution	-10.0121
ericsson	-10.0122
would	-10.0122
care	-10.0127
ef	-10.0127
usa	-10.0139
ix	-10.017
▁favorite	-10.0179
portfolio	-10.018
angel	-10.0181
▁friends	-10.0189
flow	-10.0201
nd	-10.0201
▁blackberry	-10.0206
europe	-10.0206
zo	-10.0207
customer	-10.0211
ml	-10.0211
motorola	-10.0212
▁style	-10.0216
analytics	-10.0223
=0	-10.0223
14/	-10.0227
▁client	-10.0227
▁selling	-10.0229
▁major	-10.0235
▁numbers	-10.0237
details	-10.0239
▁ex	-10.0242
wants	-10.0266
der	-10.0267
allthingsd	-10.0274
reading	-10.0291
refer	-10.0296
san	-10.0302
privacy	-10.0303
analysis	-10.0303
▁lost	-10.0303
reality	-10.031
tweet	-10.0311
▁bring	-10.0315
ol	-10.0315
tw	-10.0316
reader	-10.0317
▁click	-10.0319
▁pages	-10.0321
▁ericsson	-10.0326
every	-10.0332
lg	-10.0333
▁boston	-10.0337
spectrum	-10.0355
rssnyt	-10.0356
001	-10.0357
apr	-10.0359
fair	-10.0363
▁class	-10.0364
tutorials	-10.0365
▁learned	-10.0371
ps	-10.0374
▁drive	-10.0389
itunes	-10.0395
hu	-10.0405
gs	-10.041
nu	-10.0416
800	-10.0418
tion	-10.0423
uc	-10.0424
▁increase	-10.0431
vision	-10.0439
-2008-	-10.0444
sciam	-10.0445
techno	-10.045
during	-10.0459
process	-10.0463
▁matter	-10.047
through	-10.0485
death	-10.0489
dog	-10.0496
ux	-10.0496
▁color	-10.0497
ben	-10.0504
▁works	-10.0506
bay	-10.0508
fb	-10.0514
26/	-10.052
▁clojure	-10.0521
connect	-10.0541
▁hire	-10.0546
▁camera	-10.0555
▁macbook	-10.0556
▁25	-10.0565
▁account	-10.0566
links	-10.0566
▁copyright	-10.0567
voice	-10.0571
▁dev	-10.0581
strategy	-10.0581
creating	-10.0581
becoming	-10.0581
▁europe	-10.0583
tell	-10.0594
sequ	-10.0601
common	-10.0602
radio	-10.0606
▁comes	-10.0608
slideshare	-10.0624
ify	-10.0632
operating	-10.0632
rest	-10.0645
▁j	-10.0646
itemid	-10.0647
fl	-10.0649
ts	-10.0663
30/	-10.0664
ier	-10.0668
▁bank	-10.0673
▁15	-10.0674
perfect	-10.0675
combinator	-10.0675
rules	-10.0676
▁hit	-10.0678
▁di	-10.0686
dot	-10.0689
killer	-10.0695
600	-10.0705
▁michael	-10.071
val	-10.0711
pop	-10.0724
▁turns	-10.0724
▁tax	-10.0725
▁looks	-10.0736
▁contest	-10.0736
▁pr	-10.0737
gl	-10.0739
items	-10.0746
cb	-10.0746
asia	-10.0753
multi	-10.076
hacking	-10.0764
$	-10.077
▁analytics	-10.0771
sharing	-10.0772
▁drop	-10.0775
interface	-10.0778
vote	-10.078
mobiles	-10.0787
▁boost	-10.0788
session	-10.0802
ep	-10.0807
ning	-10.0822
▁distributed	-10.0824
▁architecture	-10.0824
inter	-10.0834
amp	-10.0849
videoplay	-10.0854
robot	-10.0854
discover	-10.0861
sql	-10.0867
/2008	-10.0868
challenge	-10.0871
25/	-10.0871
od	-10.0872
sk	-10.0872
▁food	-10.0883
▁skype	-10.0887
▁follow	-10.0893
▁step	-10.0893
▁50	-10.0896
▁calls	-10.0897
atlantic	-10.0898
powered	-10.0902
hn	-10.0904
▁reading	-10.0905
▁openid	-10.0911
▁mo	-10.0911
arc	-10.0914
/28	-10.0916
load	-10.0918
infoq	-10.0922
▁sharing	-10.0933
▁month	-10.0944
om	-10.0946
▁well	-10.0949
camp	-10.0949
cheap	-10.0962
blackberry	-10.0964
|	-10.0965
-2008	-10.0971
month	-10.0972
▁launched	-10.0983
med	-10.0987
ate	-10.0992
palm	-10.0992
▁19	-10.0993
poet	-10.0997
websites	-10.0998
▁ready	-10.1
printable	-10.1004
successful	-10.1014
▁introducing	-10.1015
▁script	-10.1023
▁point	-10.1024
task	-10.1026
hill	-10.103
solar	-10.1032
zi	-10.1033
▁comment	-10.1033
▁risk	-10.1034
nov	-10.1036
events	-10.1036
hours	-10.1048
water	-10.1051
special	-10.1052
▁living	-10.1053
meta	-10.1058
introducing	-10.1061
camera	-10.1063
-2.	-10.1066
▁type	-10.1071
ut	-10.1079
▁cut	-10.1093
▁haskell	-10.1094
md	-10.1094
▁files	-10.1108
▁hits	-10.111
give	-10.111
▁kids	-10.1114
▁$3	-10.1127
102	-10.1134
▁yet	-10.1139
▁steps	-10.1143
110	-10.1145
mt	-10.1147
away	-10.1151
tries	-10.1152
▁tutorial	-10.1156
▁worst	-10.1157
▁trends	-10.1158
scientific	-10.116
▁possible	-10.116
▁send	-10.1161
gaming	-10.1172
leader	-10.1177
ea	-10.1182
▁url	-10.1188
▁bubble	-10.1197
die	-10.1197
▁sex	-10.1212
1&	-10.1218
cf	-10.1222
ws	-10.1227
fact	-10.1227
wo	-10.123
cyber	-10.123
viewarticle	-10.1232
fight	-10.1242
-7.	-10.1249
via	-10.1251
▁connect	-10.1253
▁presentation	-10.1257
mn	-10.1261
▁reviews	-10.1264
sports	-10.1269
field	-10.127
nm	-10.1282
▁images	-10.1284
=12	-10.1285
hour	-10.1286
guy	-10.129
copy	-10.1294
vo	-10.1295
needs	-10.1298
/0/	-10.1298
▁ultimate	-10.1306
ally	-10.1308
▁battle	-10.1309
nick	-10.1314
macworld	-10.1318
eb	-10.133
▁secure	-10.133
gates	-10.1338
▁phones	-10.134
▁half	-10.1349
introduction	-10.1362
ology	-10.1362
form	-10.1366
sub	-10.1372
pitch	-10.1373
▁court	-10.1378
▁hate	-10.1387
▁clean	-10.1389
▁try	-10.1392
/03	-10.1397
results	-10.1402
ey	-10.1402
▁star	-10.1409
=4	-10.1412
▁six	-10.1417
▁box	-10.1419
▁algorithm	-10.1423
=5	-10.1423
term	-10.1427
bing	-10.1432
aging	-10.144
▁thinking	-10.1446
▁approach	-10.1448
path	-10.1449
ance	-10.1452
haskell	-10.1464
▁hardware	-10.1466
▁gives	-10.1475
▁answer	-10.1491
msg	-10.1495
shows	-10.1501
inspired	-10.1502
ner	-10.1511
▁secrets	-10.1512
▁angel	-10.152
follow	-10.1522
▁1.0	-10.1529
maker	-10.1536
planet	-10.1536
220	-10.1536
put	-10.1539
▁custom	-10.1539
hire	-10.154
▁visualization	-10.155
▁join	-10.1551
%5	-10.1561
sort	-10.1562
location	-10.1564
split	-10.1565
tz	-10.1579
▁functional	-10.158
103	-10.1583
tor	-10.1588
logo	-10.1598
▁form	-10.16
▁die	-10.1602
▁california	-10.1604
▁track	-10.1619
▁started	-10.1619
▁rise	-10.1625
factor	-10.163
▁cards	-10.1631
cm	-10.1639
=7	-10.1639
/24	-10.1649
▁fall	-10.165
0%	-10.1652
res	-10.1653
/26	-10.1656
▁reader	-10.1657
▁mean	-10.1658
2009/	-10.166
government	-10.1671
▁months	-10.1671
available	-10.1671
raw	-10.1672
memory	-10.1672
izing	-10.1673
economic	-10.1676
▁researchers	-10.1695
cid	-10.1696
number	-10.1696
▁productivity	-10.1696
fund	-10.1697
▁profit	-10.1707
▁were	-10.1713
scala	-10.1713
weekly	-10.1744
▁around	-10.1753
independent	-10.1755
feb	-10.1765
▁wave	-10.1768
color	-10.177
choosing	-10.1772
modern	-10.1776
scheme	-10.1777
experience	-10.1779
wave	-10.1779
failure	-10.1781
▁revolution	-10.1786
150	-10.1786
ieee	-10.1786
▁pitch	-10.1787
young	-10.179
▁am	-10.1798
record	-10.1801
datacenter	-10.1802
doesnt	-10.1803
tro	-10.1809
rant	-10.1811
macbook	-10.1811
rev	-10.1814
▁trust	-10.1827
▁student	-10.1829
grid	-10.1842
▁head	-10.1857
unlockcell	-10.1874
associated	-10.1876
round	-10.1882
gt	-10.1884
/04	-10.189
engineering	-10.1891
door	-10.1892
2000	-10.1902
▁beyond	-10.1904
patent	-10.191
place	-10.1911
▁event	-10.1911
▁stories	-10.1912
▁ma	-10.1915
▁cars	-10.1917
▁feed	-10.1918
▁avoid	-10.1926
turn	-10.1927
▁single	-10.1938
environment	-10.1941
rate	-10.1942
magic	-10.1944
wil	-10.1945
risk	-10.1947
break	-10.1954
▁debt	-10.1956
cam	-10.1957
party	-10.196
experiment	-10.197
▁st	-10.1976
17/	-10.1978
-2009	-10.1981
▁netflix	-10.1981
seed	-10.1983
clojure	-10.199
skype	-10.1991
repair	-10.1992
chronicle	-10.1995
▁board	-10.2001
yes	-10.2006
ready	-10.2007
nw	-10.2013
reason	-10.2019
them	-10.2027
▁cross	-10.2035
lam	-10.2036
/08/	-10.2039
▁fear	-10.2043
issue	-10.2047
arts	-10.2054
mile	-10.2056
low	-10.2057
boy	-10.2058
led	-10.2066
▁linkedin	-10.2074
coding	-10.2078
days	-10.208
raising	-10.2081
permalink	-10.2081
crunchgear	-10.2081
paulgraham	-10.2082
250	-10.2085
rail	-10.2088
/2009-	-10.2091
▁firm	-10.2097
women	-10.2099
▁buying	-10.2102
▁chinese	-10.2103
linkedin	-10.2106
▁designing	-10.2109
▁wordpress	-10.2122
▁radio	-10.2122
presentation	-10.2126
food	-10.2126
▁far	-10.2126
bank	-10.2127
▁culture	-10.2131
notebook	-10.2132
▁12	-10.2133
▁loss	-10.2144
▁rest	-10.215
globe	-10.215
▁geek	-10.2151
▁lead	-10.2154
▁opera	-10.2154
▁intelligence	-10.2156
opera	-10.2171
size	-10.2175
▁investors	-10.2178
▁effect	-10.2186
▁charge	-10.2191
▁names	-10.2194
evolution	-10.2196
▁special	-10.2199
/02	-10.2204
private	-10.2209
series	-10.2211
▁survey	-10.2213
▁round	-10.2215
▁employees	-10.2217
ld	-10.2224
▁develop	-10.2235
/05	-10.2235
tutorial	-10.2243
gra	-10.2247
▁kind	-10.2255
df	-10.2262
▁move	-10.2268
friends	-10.2278
16/	-10.2285
▁amazing	-10.2293
hidden	-10.2293
medium	-10.2294
▁few	-10.2296
▁businesses	-10.2313
general	-10.2319
semantic	-10.232
finally	-10.2325
solutions	-10.2326
-1.	-10.2329
driven	-10.2337
eng	-10.234
ek	-10.234
active	-10.2342
▁tracking	-10.2344
121	-10.2345
worker	-10.2345
▁designer	-10.2345
revenue	-10.2355
▁editor	-10.2369
▁yourself	-10.2372
int	-10.2386
hd	-10.2389
lead	-10.2409
six	-10.2419
short	-10.2427
▁leopard	-10.2428
▁while	-10.2432
▁agile	-10.2434
ow	-10.2435
against	-10.2436
ard	-10.2437
col	-10.2442
▁words	-10.2445
central	-10.246
articleshow	-10.2461
200903	-10.2465
xp	-10.2467
▁road	-10.2478
topics	-10.2482
pm	-10.2491
gar	-10.2495
▁bit	-10.2496
even	-10.2505
▁modern	-10.2505
flu	-10.2514
▁invest	-10.2516
tricks	-10.2517
tra	-10.2528
▁course	-10.2528
date	-10.253
base	-10.2532
drop	-10.2538
seeking	-10.2543
designing	-10.2545
▁professional	-10.2546
oh	-10.2548
tl	-10.2548
lifestyle	-10.2549
printing	-10.2551
bias	-10.2553
/8301-1	-10.2556
growth	-10.2559
/2008-	-10.2563
▁bing	-10.2564
graph	-10.2565
2007/	-10.2566
rb	-10.257
▁focus	-10.2571
safe	-10.2571
faster	-10.2573
lib	-10.2573
friend	-10.2576
▁beautiful	-10.2587
▁wolfram	-10.2603
cha	-10.2609
▁indian	-10.262
rediff	-10.2621
started	-10.2625
/29	-10.2632
soon	-10.2637
ries	-10.2639
▁flu	-10.264
▁shopping	-10.2643
lies	-10.265
visual	-10.2652
ger	-10.2657
▁awesome	-10.2661
templates	-10.2662
▁tim	-10.2671
2006	-10.2672
dell	-10.2673
rit	-10.2676
▁rule	-10.2677
apples	-10.2684
languages	-10.2694
-100-	-10.2697
▁dell	-10.2701
▁growing	-10.2704
▁series	-10.2707
▁directory	-10.2715
mart	-10.2723
▁scale	-10.2731
ik	-10.2733
▁solve	-10.2734
▁aol	-10.2735
▁scala	-10.2736
128	-10.2736
▁copy	-10.2736
▁episode	-10.2741
nav	-10.2742
▁minutes	-10.2747
jpg	-10.2747
issues	-10.2751
ot	-10.2753
19.	-10.276
breaking	-10.2763
complete	-10.277
▁already	-10.2772
scalability	-10.2775
gadget	-10.2777
/31	-10.2779
adds	-10.2782
byte	-10.2785
forums	-10.2785
▁electric	-10.2785
▁threat	-10.2789
baby	-10.2789
▁manage	-10.2791
clip	-10.2794
▁designers	-10.2803
=2&	-10.2804
▁processing	-10.2807
-2/	-10.2808
used	-10.2809
finding	-10.2811
-4-	-10.2818
▁changes	-10.2818
solution	-10.2824
spot	-10.2831
▁university	-10.2832
▁creator	-10.2837
schneier	-10.2843
vimeo	-10.2843
stage	-10.2849
120	-10.285
▁display	-10.2856
▁servers	-10.2859
mr	-10.2862
▁hacked	-10.2867
bio	-10.2872
▁blogger	-10.2875
alan	-10.2875
improve	-10.2885
trust	-10.2886
york	-10.2892
craigslist	-10.2894
bd	-10.2894
shop	-10.29
dk	-10.2902
▁porn	-10.2903
episode	-10.2909
score	-10.2912
publish	-10.2919
secure	-10.2919
preview	-10.2927
dl	-10.2949
=20	-10.2952
▁trying	-10.2954
pot	-10.2954
stackoverflow	-10.2956
fanboy	-10.2957
bird	-10.2957
/2008/7/	-10.296
bs	-10.2961
2.0	-10.2968
▁insurance	-10.2971
ram	-10.2971
wide	-10.2975
▁thought	-10.2976
▁someone	-10.2988
gold	-10.2993
living	-10.2996
▁seth	-10.2996
▁fake	-10.2996
mode	-10.2999
wood	-10.3
static	-10.3007
investment	-10.3009
aol	-10.3009
electric	-10.3012
▁eye	-10.3014
160	-10.3023
eff	-10.3023
yet	-10.3027
▁motorola	-10.3029
▁evil	-10.3031
▁economics	-10.3032
▁paid	-10.3038
20.	-10.3041
▁dynamic	-10.3042
▁po	-10.3042
steps	-10.3044
▁blue	-10.3046
slide	-10.305
▁quit	-10.3054
lists	-10.3056
▁debate	-10.3062
object	-10.3063
stats	-10.3063
ial	-10.3067
▁multiple	-10.307
analyst	-10.3071
▁notes	-10.3073
rise	-10.3075
▁film	-10.3075
very	-10.3075
=15	-10.3076
▁tweet	-10.3078
harvardbusiness	-10.3085
utf	-10.3086
▁weekend	-10.309
abc	-10.3096
publications	-10.3096
▁dream	-10.3103
fer	-10.3104
▁markets	-10.3116
▁verizon	-10.312
080	-10.3121
3&	-10.3129
threat	-10.3129
▁audio	-10.3134
▁craigslist	-10.3134
running	-10.3135
status	-10.314
▁sign	-10.3153
serve	-10.3162
▁quantum	-10.3162
manager	-10.3163
▁deep	-10.317
mor	-10.3173
▁myth	-10.3181
rough	-10.3184
sets	-10.3186
rt	-10.3186
offers	-10.3189
developerworks	-10.3191
must	-10.3196
▁flickr	-10.3208
=136	-10.3216
smallbusiness	-10.3216
=21	-10.3217
▁richard	-10.3222
patterns	-10.3223
doing	-10.3224
matter	-10.3224
▁aren	-10.3236
▁magic	-10.3237
/06	-10.3238
webware	-10.3238
verizon	-10.3256
lines	-10.3256
exchange	-10.3264
▁vi	-10.3266
bn	-10.3267
93.	-10.3269
▁understanding	-10.327
oil	-10.3271
something	-10.3277
past	-10.3288
gh	-10.3299
▁mistakes	-10.33
pmarca	-10.3305
attack	-10.3307
▁location	-10.3311
vm	-10.3313
installing	-10.3316
oy	-10.3327
max	-10.3332
fp	-10.3334
scripts	-10.334
theage	-10.3351
bet	-10.3352
▁crash	-10.3354
switch	-10.3365
▁keyboard	-10.3371
pp	-10.3373
order	-10.3374
friday	-10.3377
awesome	-10.3379
▁sp	-10.3387
memo	-10.3387
▁install	-10.3391
▁prototype	-10.3394
phil	-10.3396
▁...	-10.3403
▁upgrade	-10.3405
his	-10.3414
▁shut	-10.3417
frame	-10.3424
answer	-10.3424
tel	-10.3425
ice	-10.3429
zz	-10.3431
yorker	-10.3437
suit	-10.344
▁stay	-10.3441
profit	-10.3444
▁welcome	-10.3444
were	-10.3447
▁justin	-10.3449
▁gaming	-10.345
▁zero	-10.3454
lost	-10.3467
sep	-10.3475
numbers	-10.3479
▁switch	-10.3479
▁oil	-10.3482
▁concept	-10.3488
starting	-10.3497
▁algorithms	-10.3498
indian	-10.3501
157	-10.3501
lambda	-10.3501
van	-10.3502
debian	-10.3503
▁contract	-10.3504
ions	-10.3505
fee	-10.3506
login	-10.3509
become	-10.3522
hacks	-10.353
▁push	-10.3531
updates	-10.3537
▁launching	-10.3542
▁graham	-10.3544
torrentfreak	-10.3545
openid	-10.3545
usatoday	-10.3546
anspoon	-10.3547
block	-10.3553
sitepoint	-10.3557
searchengine	-10.3561
▁suck	-10.3566
0&	-10.3568
fake	-10.357
▁scaling	-10.3575
bed	-10.3575
▁robots	-10.3576
▁parallel	-10.3577
1000	-10.3584
▁sql	-10.3584
▁raise	-10.3589
-10	-10.3589
plant	-10.3592
iano	-10.3599
found	-10.3611
ski	-10.3612
newsweek	-10.3618
▁buys	-10.3624
beyond	-10.3631
before	-10.3632
dvd	-10.3632
jason	-10.3635
▁emacs	-10.3635
▁actually	-10.3637
▁forget	-10.3644
mil	-10.3645
▁host	-10.3648
ros	-10.3649
oct	-10.3662
examiner	-10.3666
▁wins	-10.3667
feld	-10.3668
mid	-10.3668
▁brand	-10.3671
zine	-10.3682
try	-10.3683
▁universe	-10.3687
▁workers	-10.3706
ell	-10.3713
=22	-10.3715
kk	-10.3716
homepage	-10.3725
techblog	-10.3728
▁dr	-10.373
-30-	-10.3736
ay	-10.3739
png	-10.3743
▁smartphone	-10.3743
▁had	-10.3744
mission	-10.3746
secrets	-10.3748
english	-10.3757
leopard	-10.3759
survey	-10.3759
productivity	-10.3759
crisis	-10.3759
cisco	-10.376
please	-10.3761
130	-10.3762
▁response	-10.3763
pet	-10.3766
boss	-10.3777
legal	-10.3777
zero	-10.3778
rn	-10.3784
selling	-10.3792
2%80%99	-10.3793
techdirt	-10.3793
/2008/5/	-10.3797
ons	-10.3812
acm	-10.3815
sourceforge	-10.3817
sheet	-10.3818
▁order	-10.382
▁comparison	-10.3831
competition	-10.3839
▁password	-10.3839
sex	-10.3843
mike	-10.3843
swine	-10.3848
les	-10.3851
▁xp	-10.3852
▁mail	-10.3864
unveils	-10.3864
tube	-10.3868
▁unix	-10.387
▁flaw	-10.3871
students	-10.3873
front	-10.3873
▁command	-10.3875
pu	-10.3878
▁details	-10.388
▁land	-10.3881
▁pick	-10.3883
kevin	-10.3888
architecture	-10.3889
▁viral	-10.3889
shopping	-10.389
contest	-10.39
118	-10.3904
cmp	-10.3907
par	-10.3907
ii	-10.3907
▁snow	-10.3907
raganwald	-10.3915
large	-10.3915
▁anything	-10.3916
▁nasa	-10.392
shorten	-10.3924
▁bailout	-10.3926
revolution	-10.3926
eric	-10.3932
bf	-10.3934
▁models	-10.3942
faq	-10.3945
ud	-10.395
▁prices	-10.3959
mont	-10.3966
rose	-10.3967
cur	-10.3973
▁document	-10.3974
names	-10.3976
plugin	-10.3979
problems	-10.3985
▁safe	-10.3993
▁percent	-10.3993
_0	-10.3995
road	-10.4001
ron	-10.4003
▁close	-10.4007
/73	-10.4013
exclusive	-10.4017
welcome	-10.402
universe	-10.402
bubble	-10.4021
▁friend	-10.4023
onstartups	-10.4028
done	-10.4038
dilbert	-10.4042
/3339	-10.4042
slant	-10.4042
ming	-10.405
▁japan	-10.4052
seven	-10.4057
vis	-10.4058
pf	-10.4063
▁feel	-10.4069
cache	-10.4075
▁area	-10.4076
apply	-10.408
nano	-10.4084
▁reason	-10.4084
isnt	-10.4086
▁action	-10.4089
4&	-10.4091
vn	-10.4093
profile	-10.4096
message	-10.4098
▁hand	-10.4108
ky	-10.4111
070	-10.4114
monitor	-10.4114
▁11	-10.4122
author	-10.4125
weekend	-10.4129
▁options	-10.4143
▁printing	-10.4147
xkcd	-10.4151
insurance	-10.4153
▁mini	-10.4158
▁manager	-10.4162
▁difference	-10.4164
usability	-10.4165
▁loans	-10.4165
functional	-10.4167
ipo	-10.4169
▁choose	-10.4169
joelonsoftware	-10.417
guykawasaki	-10.417
▁basic	-10.4173
bell	-10.4191
▁geeks	-10.4192
rk	-10.4192
mann	-10.4193
putting	-10.4193
lock	-10.4195
▁rock	-10.4201
▁didn	-10.4203
+-+	-10.4209
shot	-10.4212
▁commercial	-10.4213
logical	-10.4214
streaming	-10.4216
jp	-10.4221
cent	-10.4231
▁ipo	-10.4234
nes	-10.4239
alt	-10.424
martin	-10.4244
▁cable	-10.426
career	-10.4265
▁cyber	-10.4266
▁room	-10.428
access	-10.4288
demand	-10.4288
international	-10.4289
japan	-10.429
▁wars	-10.4294
▁night	-10.4296
▁sense	-10.4298
feedburner	-10.43
▁load	-10.4305
▁pictures	-10.4307
▁lose	-10.4307
▁stanford	-10.4312
wtf	-10.4315
2&	-10.4327
▁rss	-10.4331
▁player	-10.4333
▁silverlight	-10.4338
ub	-10.4346
cover	-10.4347
▁sleep	-10.4349
▁ted	-10.4352
ale	-10.4352
mistakes	-10.4353
▁truth	-10.4354
▁costs	-10.4361
ren	-10.4364
▁prize	-10.4366
▁ms	-10.4373
▁tiny	-10.4382
essay	-10.4388
▁discussion	-10.4389
hol	-10.4392
▁generator	-10.4397
▁entrepreneurial	-10.4398
strip	-10.4401
hell	-10.4402
ence	-10.4404
▁crowd	-10.4408
commerce	-10.4412
▁else	-10.4417
/51	-10.4423
clean	-10.4426
court	-10.4427
200807	-10.4427
▁newspapers	-10.4427
myphillynetwork	-10.4431
▁stuff	-10.4433
mba	-10.4433
cz	-10.4434
txt	-10.4435
sense	-10.4437
guid	-10.4437
mic	-10.4438
gnu	-10.4438
introduces	-10.4438
netflix	-10.4439
▁hope	-10.4439
hits	-10.4446
tax	-10.4449
aj	-10.445
▁usability	-10.4452
film	-10.4456
▁moon	-10.4457
interviews	-10.4463
=135	-10.4465
nasa	-10.4466
documents	-10.4473
cut	-10.4473
overcoming	-10.4482
ht	-10.4484
▁sucks	-10.4488
num	-10.4488
plans	-10.4496
▁tricks	-10.4497
▁bloggers	-10.4497
dollar	-10.4514
document	-10.4514
▁gold	-10.4523
▁term	-10.4524
surf	-10.4525
▁adsense	-10.4533
qu	-10.4533
▁teach	-10.4534
▁stupid	-10.4539
▁compete	-10.4542
nh	-10.4547
meter	-10.4549
▁auction	-10.4552
=14	-10.4554
▁tests	-10.4556
hand	-10.4556
zone	-10.4557
sim	-10.456
broadband	-10.4564
external	-10.4564
maverick	-10.4565
amazing	-10.4565
guest	-10.4566
pogue	-10.4568
hiring	-10.4573
▁grow	-10.4573
▁estate	-10.4573
▁international	-10.4577
▁etc	-10.4577
reports	-10.458
31/	-10.4585
▁graph	-10.4585
▁near	-10.4587
▁same	-10.459
night	-10.4593
geo	-10.4594
ran	-10.4595
ola	-10.4595
170	-10.4595
▁potential	-10.4597
▁effective	-10.4599
200904	-10.4602
digi	-10.4606
gun	-10.4608
techbiz	-10.4609
lede	-10.4619
▁executive	-10.462
vp	-10.4625
▁developing	-10.4626
▁meetup	-10.4627
▁address	-10.4638
▁wiki	-10.464
▁opens	-10.4646
train	-10.465
logic	-10.4652
honey	-10.4653
▁practices	-10.4657
chart	-10.4664
▁physics	-10.4666
yo	-10.4668
gm	-10.4671
▁gps	-10.468
coder	-10.4681
rim	-10.4682
ash	-10.4683
jack	-10.4688
ink	-10.4691
▁david	-10.4692
tri	-10.4699
404	-10.4699
august	-10.47
tuaw	-10.47
sketch	-10.47
hate	-10.4704
defense	-10.4704
family	-10.4705
barack	-10.4706
password	-10.4709
▁competitor	-10.4709
everyone	-10.4711
▁broken	-10.4711
▁mp	-10.4712
113	-10.4713
offer	-10.4713
=11	-10.4723
▁accounts	-10.4724
▁boss	-10.4735
stant	-10.4744
subject	-10.4744
kara	-10.4747
dark	-10.4755
geeks	-10.4758
▁lg	-10.4764
▁chief	-10.4766
phones	-10.4773
▁complete	-10.4774
ae	-10.4775
final	-10.4776
courses	-10.478
dig	-10.478
printer	-10.478
▁left	-10.478
cards	-10.4782
tour	-10.4785
corp	-10.4786
economics	-10.4786
▁block	-10.4786
▁$5	-10.4789
rls	-10.479
odd	-10.4792
▁stand	-10.4794
ventures	-10.4801
widget	-10.4801
▁stack	-10.4805
thought	-10.4808
▁interactive	-10.4809
format	-10.4817
▁claims	-10.4822
▁hacks	-10.4824
gp	-10.4826
▁spot	-10.4827
fly	-10.4834
filter	-10.4837
probably	-10.4837
▁object	-10.4838
▁license	-10.4841
▁easier	-10.4842
▁stream	-10.4843
▁master	-10.4846
speak	-10.4847
apache	-10.4848
stupid	-10.4848
▁environment	-10.4848
debate	-10.4848
charge	-10.485
▁port	-10.4852
loop	-10.4855
▁natural	-10.4859
investors	-10.486
139	-10.4868
zimb	-10.4873
▁level	-10.4873
134	-10.4877
joins	-10.4878
journals	-10.488
▁submit	-10.4884
▁fat	-10.4885
vy	-10.4886
fc	-10.4886
▁widget	-10.4897
wont	-10.4901
▁sets	-10.4903
deep	-10.4905
ious	-10.4912
ji	-10.4917
202	-10.4918
▁labs	-10.4922
pad	-10.4933
scientists	-10.4937
▁finance	-10.494
ists	-10.4958
later	-10.496
grow	-10.4963
era	-10.4967
▁table	-10.497
npr	-10.4983
del	-10.4983
350	-10.4985
▁ballmer	-10.4987
wolfram	-10.4993
which	-10.4994
crowd	-10.4998
acquisition	-10.5001
para	-10.5005
▁author	-10.501
▁party	-10.501
▁career	-10.5011
movies	-10.5012
▁sms	-10.5014
▁streaming	-10.5014
▁arc	-10.503
desk	-10.5035
rick	-10.5051
such	-10.5052
▁tour	-10.5056
feeds	-10.5059
bro	-10.506
infotech	-10.5061
▁$100	-10.5067
force	-10.5068
▁tomorrow	-10.5068
ces	-10.5073
ria	-10.508
▁wi	-10.5081
▁message	-10.5084
sur	-10.5093
effect	-10.5096
qa	-10.5097
pass	-10.5098
chip	-10.5101
develop	-10.5101
oe	-10.5106
nik	-10.5116
citizen	-10.5116
industries	-10.5116
▁broadband	-10.5117
timesof	-10.5118
fireball	-10.5119
▁buzz	-10.5127
▁request	-10.5138
aday	-10.5139
chicago	-10.5139
major	-10.514
▁true	-10.514
▁engines	-10.514
far	-10.5141
virtualization	-10.5141
upgrade	-10.5142
directory	-10.5143
▁race	-10.5144
course	-10.5144
▁scientific	-10.5147
▁diet	-10.5148
▁children	-10.5151
▁london	-10.5152
discovery	-10.5152
wheel	-10.5152
clone	-10.5156
▁mod	-10.5158
econ	-10.516
investing	-10.516
▁others	-10.5168
learned	-10.5172
▁github	-10.5174
reporting	-10.5174
▁acquisition	-10.5176
dave	-10.5178
boost	-10.5185
▁meta	-10.5187
▁cause	-10.5191
▁random	-10.5191
▁stats	-10.5192
▁trouble	-10.5193
compete	-10.5193
▁leads	-10.5196
hands	-10.5198
▁equity	-10.5199
▁changing	-10.52
▁size	-10.5203
▁helps	-10.5219
club	-10.522
zy	-10.5221
▁edition	-10.5226
▁hulu	-10.523
youre	-10.5232
▁era	-10.5235
▁planning	-10.5236
▁discount	-10.5237
scope	-10.5238
flix	-10.5245
hq	-10.5254
▁hd	-10.5257
=134	-10.5258
pixel	-10.5259
arxiv	-10.5259
innovate	-10.5259
adxnnl	-10.526
studio	-10.5265
sum	-10.5266
/2008/8/	-10.5267
ease	-10.5268
anatomy	-10.5268
microsofts	-10.527
singularity	-10.5277
▁safari	-10.5277
▁preview	-10.5282
▁du	-10.5289
interactive	-10.529
viral	-10.529
debt	-10.5293
spring	-10.5293
hulu	-10.5295
▁cisco	-10.5296
▁dna	-10.5297
fold	-10.5299
210	-10.53
slow	-10.5302
nc	-10.5303
stack	-10.5304
election	-10.5306
411	-10.5307
macro	-10.531
sucks	-10.5314
▁failed	-10.5317
-%	-10.5317
▁core	-10.532
▁force	-10.533
▁communication	-10.5331
▁european	-10.5336
account	-10.5336
▁vision	-10.5336
▁podcast	-10.5337
▁press	-10.5343
▁keynote	-10.5344
▁chris	-10.5344
▁baby	-10.5345
=0&	-10.5351
magazines	-10.5355
▁technical	-10.5361
ou	-10.5363
▁drm	-10.5367
▁sold	-10.5383
paid	-10.5384
▁final	-10.5385
▁bot	-10.5388
anatom	-10.539
move	-10.5392
fusion	-10.5393
unit	-10.5394
qua	-10.5395
reilly	-10.5399
downloads	-10.5399
consumer	-10.5404
oriented	-10.5404
scobleizer	-10.5404
▁device	-10.5405
lw	-10.5408
%22	-10.5409
ible	-10.5412
▁poor	-10.5412
brown	-10.5416
▁sa	-10.5416
▁attention	-10.5416
sea	-10.5427
▁hands	-10.5428
▁medical	-10.5428
▁lawsuit	-10.5429
washington	-10.5432
▁dating	-10.5432
▁dog	-10.5435
editors	-10.5438
agency	-10.544
different	-10.544
physics	-10.5441
worst	-10.5441
enough	-10.5441
ken	-10.5442
important	-10.5442
prototype	-10.5442
7&	-10.5443
adsense	-10.5444
extra	-10.5445
tiny	-10.5446
mash	-10.5448
▁dvd	-10.5448
sphere	-10.5448
▁37	-10.5449
interesting	-10.5452
wal	-10.5453
▁eu	-10.5453
▁patterns	-10.5454
▁programs	-10.5456
storyid	-10.5457
half	-10.5459
emacs	-10.5463
▁ip	-10.5476
▁updates	-10.5477
essays	-10.5477
mat	-10.5478
bloggers	-10.5479
roll	-10.548
▁virus	-10.5489
vie	-10.5493
cho	-10.5495
▁moving	-10.5497
230	-10.5499
emi	-10.5512
lay	-10.5514
answers	-10.552
200805	-10.5523
park	-10.5524
▁creativity	-10.5526
gps	-10.553
wt	-10.5537
audio	-10.5539
▁heart	-10.5542
▁signs	-10.5543
position	-10.5544
▁offline	-10.5544
iest	-10.5545
▁grid	-10.5545
andrewchen	-10.5551
daniel	-10.5551
▁happened	-10.5555
nn	-10.5557
▁optimization	-10.5557
etch	-10.5557
egg	-10.5558
▁guys	-10.5561
▁mass	-10.5567
▁discover	-10.5572
▁su	-10.5574
320	-10.5582
▁electronic	-10.5583
▁button	-10.5584
ejohn	-10.5586
calendar	-10.5594
beautiful	-10.5595
intelligence	-10.5595
biggest	-10.5595
genius	-10.5601
template	-10.5602
bus	-10.5606
late	-10.5609
tail	-10.561
rus	-10.561
260	-10.5613
hosted	-10.5616
ending	-10.5616
▁cancer	-10.5619
cross	-10.562
▁longer	-10.5621
▁itself	-10.5631
▁because	-10.5635
xo	-10.5636
▁those	-10.5637
▁stage	-10.5638
tip	-10.5643
▁target	-10.5644
wars	-10.5647
▁filter	-10.565
▁dollar	-10.5656
▁engineers	-10.5657
column	-10.5661
▁protect	-10.5661
=29	-10.5662
▁inter	-10.5663
quit	-10.5664
▁happen	-10.5667
temp	-10.5667
7/	-10.5683
netbook	-10.5685
diet	-10.5694
▁family	-10.5695
qm	-10.5697
▁later	-10.5699
freakonomics	-10.57
mogul	-10.57
▁advanced	-10.57
bound	-10.5701
despite	-10.5705
ities	-10.5707
▁backup	-10.5709
rank	-10.5711
daring	-10.5718
iht	-10.572
bur	-10.5725
▁info	-10.5731
custom	-10.5732
proof	-10.5737
nf	-10.5738
computers	-10.574
paying	-10.5741
serious	-10.5743
▁technologies	-10.5744
garden	-10.5748
discussion	-10.5753
robert	-10.5756
▁method	-10.5756
uses	-10.5758
▁nano	-10.5759
duct	-10.5762
▁president	-10.5763
▁lot	-10.5766
mill	-10.577
▁attacks	-10.5772
ace	-10.578
yl	-10.5784
motion	-10.5791
drm	-10.5791
prog	-10.5795
laser	-10.5795
topnews	-10.5801
hat	-10.5804
▁mu	-10.581
▁cheat	-10.5814
▁sub	-10.5816
▁#1	-10.5822
intro	-10.5822
▁sea	-10.5827
opt	-10.5833
nerd	-10.5834
▁daily	-10.5835
pack	-10.5839
east	-10.5841
▁skills	-10.5842
▁bet	-10.5844
▁weight	-10.5846
boingboing	-10.5852
▁missing	-10.5854
smallbiz	-10.5855
alex	-10.5858
guru	-10.5859
han	-10.586
▁pricing	-10.5864
afp	-10.5865
kar	-10.5868
ann	-10.5873
▁measure	-10.5874
evil	-10.5877
▁written	-10.5883
question	-10.5883
dam	-10.5888
trans	-10.5892
gan	-10.5892
ddj	-10.5896
xobni	-10.5909
third	-10.5909
rip	-10.5909
percent	-10.5911
▁reverse	-10.5911
single	-10.5916
understanding	-10.592
▁boom	-10.5921
▁consumer	-10.5923
closer	-10.5924
ification	-10.5925
businesses	-10.5925
-6-	-10.5927
almost	-10.5927
▁fuel	-10.5929
alien	-10.5929
growing	-10.593
240	-10.5935
unix	-10.5936
▁ban	-10.5937
▁instant	-10.5955
syn	-10.5959
▁acquire	-10.5961
join	-10.5961
wan	-10.5968
area	-10.5973
bag	-10.5974
looking	-10.5982
153	-10.5986
rat	-10.5987
▁impact	-10.5993
pick	-10.6
throw	-10.6006
gladwell	-10.6006
false	-10.6006
iphonecto	-10.6008
venturehacks	-10.6009
ven	-10.6011
▁plug	-10.6013
▁spend	-10.6013
▁largest	-10.6016
=19	-10.6019
ball	-10.602
▁seen	-10.602
kids	-10.6022
▁firms	-10.6024
310	-10.6033
lite	-10.6037
200905	-10.6039
eco	-10.604
girl	-10.6043
ban	-10.6043
finds	-10.6043
passes	-10.6044
▁nyc	-10.6044
▁needed	-10.6045
%25	-10.6048
▁child	-10.6051
145	-10.6053
multimedia	-10.606
gene	-10.6062
wind	-10.6067
fresh	-10.6069
related	-10.6069
announcing	-10.607
words	-10.607
hybrid	-10.607
bringing	-10.6071
aims	-10.6073
▁2010	-10.6073
135	-10.6074
▁netbook	-10.6077
jeff	-10.6078
▁mars	-10.6078
169	-10.6078
changing	-10.6078
left	-10.6079
wh	-10.6087
customers	-10.6087
poll	-10.6088
cap	-10.6088
rating	-10.609
las	-10.609
roundup	-10.6091
fit	-10.6093
niche	-10.6094
▁poll	-10.6103
▁third	-10.6104
▁fair	-10.6105
iz	-10.6106
dj	-10.6106
ami	-10.6108
▁giving	-10.6109
▁matters	-10.6109
▁bigger	-10.6112
ulate	-10.6116
▁movies	-10.6124
arch	-10.6128
oz	-10.6128
▁mode	-10.6129
views	-10.613
fear	-10.613
▁virtualization	-10.6139
▁dark	-10.6142
▁infrastructure	-10.6149
▁apache	-10.615
mal	-10.6156
itch	-10.6156
designers	-10.6157
foo	-10.6161
▁solutions	-10.6162
cringely	-10.6162
military	-10.6162
vacuum	-10.6162
2%80%93-	-10.6163
close	-10.6165
▁lab	-10.6165
/80	-10.6182
▁these	-10.6184
forms	-10.6193
▁survive	-10.6194
count	-10.6195
gam	-10.6197
▁remember	-10.6199
▁cover	-10.6207
%26	-10.6208
install	-10.6211
bart	-10.6218
▁horror	-10.6219
200803	-10.622
5%	-10.6221
virus	-10.6223
198	-10.6224
snow	-10.6228
storm	-10.623
concept	-10.6236
submit	-10.6236
▁sues	-10.6237
jump	-10.6237
keyboard	-10.6237
admin	-10.6238
keynote	-10.6243
smartphone	-10.625
▁downturn	-10.6252
yourself	-10.6253
heart	-10.6253
burn	-10.6254
▁downloads	-10.6254
▁machines	-10.6262
greg	-10.6276
meet	-10.6276
barb	-10.628
▁implementation	-10.6286
lar	-10.6287
ticket	-10.629
rolling	-10.6295
▁mathematics	-10.6299
ral	-10.6302
cable	-10.6303
▁valuation	-10.6303
changes	-10.6304
trace	-10.6305
▁always	-10.6309
buying	-10.6312
bollywood	-10.6315
sync	-10.6318
tb	-10.6319
lsvp	-10.6321
kedrosky	-10.6321
=2547-1_3-0-20	-10.6321
charles	-10.6321
idusn	-10.6321
215	-10.6323
pal	-10.6326
kind	-10.6329
143	-10.6329
catalog	-10.6331
cbc	-10.6333
called	-10.6352
▁leave	-10.6359
▁camp	-10.6361
▁format	-10.637
porn	-10.6371
▁reveals	-10.6371
had	-10.6372
▁exploit	-10.6372
square	-10.6374
yu	-10.638
▁nice	-10.6383
6&	-10.6387
▁act	-10.6394
div	-10.6396
thedaily	-10.6397
random	-10.6398
draft	-10.6399
voip	-10.6402
might	-10.6402
pol	-10.6403
prize	-10.6405
fuel	-10.6406
▁challenges	-10.641
▁sports	-10.6411
tap	-10.6416
leading	-10.6417
seek	-10.6419
▁browsers	-10.6432
▁walk	-10.6434
▁sdk	-10.6435
▁genius	-10.6436
▁powerful	-10.6439
▁general	-10.6444
mint	-10.6445
abs	-10.6448
hop	-10.6449
▁instead	-10.6453
▁remote	-10.6455
wise	-10.6457
manage	-10.6457
▁$4	-10.646
ery	-10.6464
▁turning	-10.6468
lean	-10.647
▁trade	-10.6472
▁return	-10.6473
▁factor	-10.6477
▁huge	-10.6482
component	-10.6482
idustre	-10.6482
nclick	-10.6483
▁bid	-10.6485
/2008/6/	-10.6486
designer	-10.6487
goog	-10.6492
2002	-10.6494
bat	-10.6496
matters	-10.6496
stand	-10.6498
=16	-10.6509
iq	-10.6512
yui	-10.6518
▁canvas	-10.6523
▁fed	-10.6543
rain	-10.6544
▁coupon	-10.6544
arr	-10.6546
themes	-10.6546
ride	-10.6549
spec	-10.655
▁al	-10.6556
▁thanks	-10.6558
robots	-10.6558
notification	-10.6559
canada	-10.6571
hint	-10.6572
▁having	-10.6577
=33	-10.6577
executive	-10.6578
/10-	-10.658
direction	-10.658
invention	-10.6582
european	-10.6583
▁driving	-10.6584
159	-10.6584
▁almost	-10.6586
eat	-10.6588
gn	-10.6591
▁issues	-10.6593
been	-10.6594
bee	-10.6597
229	-10.6597
%7	-10.6598
218	-10.66
▁dan	-10.6606
skin	-10.6608
▁newspaper	-10.661
▁election	-10.6612
/200	-10.6614
hal	-10.6617
▁lines	-10.6619
▁cities	-10.6621
▁battery	-10.6625
peter	-10.663
ov	-10.6631
247	-10.6633
adventures	-10.6633
▁replace	-10.6637
▁choice	-10.6641
▁harvard	-10.6643
burning	-10.6643
vu	-10.6643
models	-10.6644
pulpit	-10.6646
reynoldsftw	-10.6646
estimate	-10.6646
send	-10.665
classified	-10.6651
smith	-10.6652
launching	-10.6655
boom	-10.6659
hood	-10.6659
engines	-10.666
alista	-10.6664
picks	-10.6664
▁statistics	-10.6665
158	-10.6666
▁depression	-10.6686
▁outside	-10.6689
▁believe	-10.6707
wn	-10.6709
060	-10.671
evan	-10.6714
▁gas	-10.672
▁tough	-10.672
▁rose	-10.6728
▁th	-10.673
bstroke	-10.6731
hunt	-10.6733
investor	-10.6733
practice	-10.6733
▁explained	-10.6735
▁unique	-10.6736
berkeley	-10.6739
▁seed	-10.674
▁$10	-10.6743
truth	-10.6743
panel	-10.6745
▁current	-10.6747
▁meeting	-10.6747
gre	-10.6747
summer	-10.675
stay	-10.6752
0,000	-10.6754
▁arm	-10.6756
▁arrington	-10.6756
▁lesson	-10.6758
sys	-10.6759
fsrc	-10.676
critic	-10.6769
char	-10.6771
won	-10.6772
200906	-10.6773
▁date	-10.6773
ned	-10.6773
puts	-10.6774
▁whole	-10.6786
aka	-10.6792
▁killing	-10.6792
117	-10.6794
asset	-10.6796
golden	-10.6797
states	-10.68
explore	-10.6801
▁aim	-10.6806
soa	-10.6807
glass	-10.6808
symbol	-10.6812
antonio	-10.6813
taxonomy	-10.6813
tweak	-10.6813
respond	-10.6816
salon	-10.6818
▁drug	-10.6819
176	-10.6819
▁past	-10.682
/2009/07/23/	-10.6821
ug	-10.6821
▁dot	-10.6825
▁mortgage	-10.6827
draw	-10.6829
▁saving	-10.6838
▁wide	-10.6853
▁songs	-10.6855
doctor	-10.6859
gle	-10.6861
▁maybe	-10.6863
bob	-10.6865
▁patents	-10.6867
backup	-10.6873
rob	-10.6876
▁li	-10.6881
went	-10.6885
dance	-10.6888
233	-10.6898
img	-10.6899
-1/	-10.6901
▁knowledge	-10.6907
▁together	-10.6911
▁usa	-10.6911
blank	-10.6915
heroku	-10.6916
▁gift	-10.6916
fitness	-10.6917
▁warning	-10.6919
foundation	-10.6919
copyright	-10.6922
sleep	-10.6924
ert	-10.6924
professional	-10.6925
▁answers	-10.6925
already	-10.6926
portal	-10.6928
000&	-10.6929
hash	-10.693
push	-10.6932
fat	-10.6934
▁40	-10.6939
publishing	-10.6945
july	-10.695
spy	-10.6954
technologynews	-10.6958
pig	-10.6963
▁federal	-10.6966
icon	-10.6969
▁conversation	-10.697
rad	-10.6973
sig	-10.6977
ture	-10.6978
cory	-10.6981
tronica	-10.6982
/2008/9/	-10.6986
commentary	-10.699
signer	-10.6991
neuro	-10.6991
around	-10.6992
tests	-10.6993
alter	-10.6994
hbsp	-10.6999
▁dns	-10.7004
▁proof	-10.7008
▁created	-10.7014
▁likely	-10.7017
wins	-10.7018
▁essential	-10.7018
▁contact	-10.7018
▁seven	-10.7023
west	-10.7029
▁advantage	-10.7029
▁giant	-10.703
vict	-10.7039
biztech	-10.7039
turns	-10.704
vr	-10.7043
emcel	-10.7043
▁monkey	-10.7049
168	-10.705
csi	-10.7051
row	-10.7059
▁messages	-10.7059
march	-10.707
tab	-10.7073
▁dumb	-10.7079
/2004	-10.708
▁hybrid	-10.7083
▁employee	-10.7089
▁layout	-10.7089
contract	-10.709
nate	-10.709
device	-10.7091
fashion	-10.7094
wedding	-10.7096
silver	-10.7096
▁loses	-10.7096
commercial	-10.7097
comparison	-10.7098
california	-10.7098
april	-10.7098
battle	-10.71
▁retail	-10.7101
hello	-10.7103
▁once	-10.7107
eep	-10.7113
▁lu	-10.7119
nk	-10.712
chair	-10.7121
fool	-10.7129
200804	-10.7137
▁double	-10.714
▁feeds	-10.7144
002	-10.7149
dia	-10.7149
meets	-10.7153
gawker	-10.7155
mechanics	-10.7155
correct	-10.7155
gnome	-10.7155
▁hell	-10.7155
millionaire	-10.7157
▁hour	-10.7163
trip	-10.7167
jet	-10.7167
np	-10.7169
stat	-10.717
▁demand	-10.7171
xi	-10.7173
▁crack	-10.7174
▁nothing	-10.7175
miller	-10.7177
▁flight	-10.7182
oop	-10.7184
905	-10.7189
tele	-10.7192
▁sf	-10.7197
tweets	-10.7207
blogo	-10.7214
rel	-10.7214
insight	-10.7215
167	-10.7216
ular	-10.7217
mf	-10.722
▁funded	-10.7222
craft	-10.7226
▁panel	-10.7228
205	-10.723
signs	-10.7232
▁exchange	-10.7232
fully	-10.7236
body	-10.7245
▁jewelry	-10.7248
btl	-10.725
/2005	-10.7252
invest	-10.7256
%27	-10.7259
▁person	-10.7264
129	-10.7266
rap	-10.7268
lb	-10.7272
/39	-10.7275
embedded	-10.7275
while	-10.7276
ib	-10.7276
piracy	-10.7278
technologies	-10.7279
164	-10.7279
sound	-10.7279
child	-10.7279
alternative	-10.7279
▁ii	-10.728
silverlight	-10.728
built	-10.728
richard	-10.728
sharp	-10.7281
166	-10.7289
explorer	-10.729
factory	-10.7291
ches	-10.7311
▁predict	-10.7314
crack	-10.7317
mother	-10.7318
trap	-10.732
cro	-10.7321
looks	-10.7321
▁opportunity	-10.7323
myth	-10.7326
133	-10.7329
filtering	-10.733
chapter	-10.733
vitamin	-10.733
twit	-10.7332
null	-10.7332
tracking	-10.7334
june	-10.7337
hold	-10.734
▁visit	-10.7341
/38	-10.7344
comes	-10.7345
▁setting	-10.7347
270	-10.7347
fuck	-10.7349
▁print	-10.7357
▁gene	-10.7365
promotional	-10.7368
▁spread	-10.7369
mad	-10.7371
slash	-10.7373
tune	-10.7375
▁partners	-10.7377
▁talent	-10.7377
295	-10.7379
graphics	-10.7383
▁techniques	-10.7388
paste	-10.7388
mz	-10.7394
▁blu	-10.7396
▁genetic	-10.7396
146	-10.7402
▁jump	-10.7404
▁humans	-10.7408
sl	-10.7408
▁riaa	-10.741
▁cuts	-10.7413
cp	-10.7416
/200806	-10.7418
184	-10.7422
▁recovery	-10.7428
rack	-10.7438
▁chart	-10.7452
▁since	-10.7454
▁$7	-10.7458
2009.	-10.7458
expert	-10.746
▁js	-10.746
parallel	-10.7461
canvas	-10.7464
london	-10.7464
/200901	-10.7465
scaling	-10.7466
▁present	-10.747
usb	-10.7473
sexy	-10.7477
550	-10.7483
154	-10.7487
turned	-10.7487
▁north	-10.7488
training	-10.7491
▁prevent	-10.7494
▁pop	-10.7495
▁quotes	-10.75
pbs	-10.7501
▁trading	-10.7501
celltalkz	-10.7508
french	-10.7509
british	-10.7509
mechanical	-10.7509
mos	-10.7509
juice	-10.751
exception	-10.7511
▁gen	-10.7513
▁collapse	-10.7515
▁graphics	-10.7519
mass	-10.7521
▁interviews	-10.7531
▁policy	-10.7535
▁yes	-10.7536
ker	-10.754
sure	-10.7541
hook	-10.7541
137	-10.7542
▁outsourcing	-10.7546
▁kevin	-10.7548
verse	-10.755
▁consumers	-10.7555
▁planet	-10.7561
▁then	-10.757
280	-10.7571
▁hey	-10.7571
▁chair	-10.7572
dp	-10.7572
▁unit	-10.7577
▁scientist	-10.7577
386	-10.758
▁acquired	-10.7581
▁profile	-10.7584
180	-10.7587
▁banks	-10.7588
revision	-10.7589
▁memo	-10.7591
▁redesign	-10.7594
rule	-10.7598
zoom	-10.76
▁fresh	-10.7601
once	-10.7605
featured	-10.7608
902	-10.7614
▁niche	-10.7614
▁starts	-10.7615
god	-10.7618
cape	-10.762
▁voting	-10.7621
%252	-10.7623
fan	-10.7626
▁fraud	-10.7629
crunch	-10.763
gray	-10.7632
▁mi	-10.7641
approach	-10.7643
distributed	-10.7644
edit	-10.7644
crypt	-10.7645
picture	-10.7646
crash	-10.7647
▁east	-10.765
function	-10.7652
essential	-10.7652
▁classic	-10.7653
chinese	-10.7653
spark	-10.7654
contact	-10.7654
photoshop	-10.7655
avoid	-10.7659
devices	-10.7661
▁sky	-10.7661
considered	-10.7661
kin	-10.7661
▁behavior	-10.7661
funded	-10.7662
webdesign	-10.7669
ack	-10.7669
shoot	-10.7672
calc	-10.7673
/37	-10.7673
▁hyper	-10.7678
▁gallery	-10.7678
▁scribd	-10.7679
collect	-10.768
▁z	-10.7682
▁oracle	-10.7683
▁defense	-10.7684
merb	-10.7686
dating	-10.7688
abstract	-10.7689
gravity	-10.769
weebly	-10.7691
▁managing	-10.7693
/2007/01/	-10.7694
▁ray	-10.7707
▁begins	-10.7708
flip	-10.7709
/0011	-10.7709
tracker	-10.771
korea	-10.7711
plane	-10.7717
▁moves	-10.7717
▁convert	-10.7718
shed	-10.7719
▁picture	-10.7719
750	-10.772
▁identity	-10.7721
personaltech	-10.7724
▁satellite	-10.7727
wrap	-10.7734
ics	-10.7736
exec	-10.7737
▁$6	-10.7741
▁gui	-10.7743
▁clear	-10.7744
tar	-10.7744
▁geo	-10.7745
buys	-10.7745
▁body	-10.7746
▁mother	-10.7748
200902	-10.7748
▁mashup	-10.7751
rand	-10.7752
▁training	-10.7753
trade	-10.7757
wish	-10.7759
race	-10.776
ium	-10.776
▁late	-10.7761
▁march	-10.7763
▁foundation	-10.7763
vol	-10.7776
nic	-10.7777
near	-10.7782
dna	-10.7784
comics	-10.7786
bh	-10.7789
▁eric	-10.7791
200809	-10.7792
gy	-10.7792
tal	-10.7798
hey	-10.7798
▁hole	-10.7798
employees	-10.7802
forget	-10.7807
bri	-10.7812
tho	-10.7815
▁explains	-10.7817
loans	-10.782
▁playing	-10.7822
▁calendar	-10.7822
cycle	-10.7827
▁usage	-10.7827
gives	-10.7827
shift	-10.7829
rl	-10.7835
natural	-10.7837
urban	-10.7839
▁ebook	-10.7844
▁icon	-10.7844
medical	-10.7845
lawsuit	-10.7847
funny	-10.7848
effective	-10.7848
▁front	-10.785
identity	-10.7852
saving	-10.7855
aw	-10.7855
outside	-10.7858
choice	-10.7858
alert	-10.7867
thomas	-10.7876
optimizing	-10.7876
awesm	-10.7876
module	-10.7877
abandon	-10.7878
-0000779	-10.7879
hubpages	-10.7879
biology	-10.788
sector	-10.788
465	-10.7881
pagenum	-10.7881
/2009/08/03/	-10.7884
broadcast	-10.7884
▁pdf	-10.7884
buck	-10.7885
wear	-10.7887
▁means	-10.789
editor	-10.7892
▁count	-10.7894
▁each	-10.79
▁gel	-10.7906
lan	-10.7908
▁monitor	-10.7911
toolbox	-10.7918
fixing	-10.7919
spreadsheet	-10.7926
jam	-10.7937
ongoing	-10.7938
▁across	-10.7938
▁interest	-10.7938
▁burn	-10.7944
mars	-10.7949
inch	-10.7953
▁bugs	-10.7954
▁status	-10.7955
pix	-10.7956
jay	-10.7958
nova	-10.796
▁announce	-10.7971
lie	-10.7974
▁lists	-10.7977
pie	-10.7983
▁blame	-10.7986
▁scott	-10.7991
▁leaving	-10.7993
▁property	-10.7993
▁tip	-10.7996
coll	-10.7998
zip	-10.8
ww	-10.8002
berg	-10.8003
▁gone	-10.8008
▁stress	-10.8008
▁tail	-10.801
▁para	-10.8012
▁suit	-10.8014
▁agency	-10.8018
euro	-10.8018
▁fit	-10.8021
▁material	-10.8022
▁posts	-10.8022
tg	-10.8027
▁iran	-10.8032
blu	-10.8033
button	-10.8034
gil	-10.8035
0907	-10.8036
▁forum	-10.8038
gas	-10.8038
hadoop	-10.804
▁sha	-10.804
safari	-10.8041
▁wanted	-10.8043
cher	-10.8045
rumor	-10.8047
-12-	-10.8048
opens	-10.805
▁magazine	-10.8056
band	-10.8059
156	-10.806
hype	-10.806
hbs	-10.8062
chens	-10.8063
mattmaroon	-10.8064
nielsen	-10.8064
embed	-10.8068
263	-10.807
serving	-10.8071
/0012	-10.8081
9&	-10.8084
gel	-10.8084
▁edge	-10.8086
ye	-10.8086
bike	-10.809
duck	-10.8102
funds	-10.8102
▁announced	-10.8103
▁standard	-10.8103
114	-10.8105
▁grad	-10.8107
▁judge	-10.8114
▁cl	-10.812
▁wedding	-10.8129
pink	-10.8132
/03/	-10.8135
sol	-10.8136
112	-10.8136
sta	-10.8138
▁urls	-10.8141
165	-10.8143
▁crazy	-10.8143
-15-	-10.8145
plug	-10.8152
▁reduce	-10.8159
resource	-10.8168
fred	-10.8168
pur	-10.8169
200908	-10.817
▁deals	-10.8171
onic	-10.8174
nyc	-10.8176
▁examples	-10.8177
apis	-10.8179
uri	-10.8185
▁xobni	-10.8185
▁mix	-10.8186
▁least	-10.8187
▁teams	-10.8187
simon	-10.8191
▁king	-10.8191
brian	-10.8193
wake	-10.8198
pen	-10.82
▁killed	-10.82
172	-10.8204
144	-10.8204
cia	-10.8209
dic	-10.8211
techie	-10.822
error	-10.8221
titan	-10.8225
present	-10.8226
▁studio	-10.8231
051	-10.8235
▁allows	-10.8236
crime	-10.8236
hope	-10.8237
weather	-10.8238
▁decision	-10.8238
wisdom	-10.8238
breast	-10.8239
scene	-10.8239
mortgage	-10.8241
attention	-10.8241
pricing	-10.8241
bailout	-10.8241
ballmer	-10.8242
cocoa	-10.8243
setting	-10.8244
wifi	-10.8244
327	-10.8245
▁fcc	-10.8245
▁understand	-10.8245
ble	-10.8246
broken	-10.8246
classic	-10.8248
boot	-10.8249
▁inventor	-10.8251
▁due	-10.8253
conversation	-10.8254
waiting	-10.8256
luxury	-10.8257
strategic	-10.8257
charlie	-10.8257
assert	-10.8257
100-	-10.8257
▁pass	-10.8259
2005	-10.8262
▁expensive	-10.8265
mercurynews	-10.8266
▁decline	-10.8272
/72	-10.8272
diary	-10.8272
lr	-10.8272
antitrust	-10.8273
▁steal	-10.8274
107	-10.8275
-8-	-10.8276
maybe	-10.8276
050	-10.8277
grey	-10.8277
▁losing	-10.8277
sent	-10.8278
▁summary	-10.8279
▁francisco	-10.8284
graphic	-10.8287
dress	-10.8287
▁sells	-10.8294
marc	-10.8297
nothing	-10.8298
▁photoshop	-10.83
▁wish	-10.83
▁rates	-10.8302
▁produce	-10.8304
columns	-10.8307
gap	-10.8312
▁netbooks	-10.8314
▁explorer	-10.8314
▁deliver	-10.8315
▁decisions	-10.8315
▁malware	-10.8321
▁april	-10.8322
psych	-10.8324
arent	-10.8333
metrics	-10.8334
▁russian	-10.8336
247.	-10.8342
sight	-10.8342
shoes	-10.8344
▁collaboration	-10.8345
▁universal	-10.8345
▁canada	-10.8348
layoffs	-10.8348
ahead	-10.8349
▁investor	-10.8349
408	-10.835
▁voip	-10.8355
raise	-10.8361
kb	-10.8362
rm	-10.8367
▁tutorials	-10.8375
171	-10.8376
newsletter	-10.8379
▁hat	-10.8383
spaces	-10.8386
▁song	-10.8386
104	-10.8387
hin	-10.839
=18	-10.8391
def	-10.8397
neo	-10.8411
tm	-10.8411
▁treatment	-10.8412
flight	-10.8413
joke	-10.8414
▁tesla	-10.842
▁extend	-10.842
gifts	-10.8422
structure	-10.8428
match	-10.8432
highlight	-10.8437
▁json	-10.8438
walk	-10.8441
dom	-10.8441
rocket	-10.8442
technical	-10.8442
agent	-10.8442
boxes	-10.8443
▁registration	-10.8443
options	-10.8443
hollywood	-10.8444
expensive	-10.8444
optimization	-10.8445
easier	-10.8445
▁former	-10.8446
mob	-10.8449
▁national	-10.8449
newsid	-10.8451
wizard	-10.8453
=20601087&	-10.8453
▁records	-10.8453
slashbe	-10.8458
▁suggestions	-10.8459
giles	-10.8459
toronto	-10.8461
/2009/07/27/	-10.8461
▁inc	-10.8462
architect	-10.8464
gear	-10.8465
firm	-10.8466
export	-10.8467
▁higher	-10.8474
instant	-10.8475
▁experts	-10.8476
bm	-10.8479
royal	-10.8486
calls	-10.8488
▁funny	-10.8489
accounts	-10.8491
308	-10.8494
%0	-10.85
▁ignore	-10.8501
uploads	-10.8501
sms	-10.8504
▁wii	-10.8506
corner	-10.8509
▁piracy	-10.8511
▁jason	-10.8513
301	-10.8515
▁standards	-10.8515
thousands	-10.8516
hotels	-10.8517
target	-10.8517
peer	-10.8521
▁debian	-10.8521
bw	-10.8523
loss	-10.8523
lic	-10.8526
▁exist	-10.8527
woo	-10.8528
▁bus	-10.8532
148	-10.8535
fv	-10.8538
▁ago	-10.8539
becomes	-10.8542
▁fails	-10.8546
▁provider	-10.8549
173	-10.8549
▁manifesto	-10.8552
▁mapping	-10.8554
ext	-10.8558
▁readers	-10.856
cad	-10.8563
zu	-10.8567
221	-10.8567
▁girl	-10.8568
▁kernel	-10.8568
▁jeff	-10.8571
netbooks	-10.8575
layer	-10.8575
▁serious	-10.8581
081	-10.8581
strikes	-10.8583
▁massive	-10.8589
197	-10.8592
tact	-10.8594
▁chip	-10.8595
▁searches	-10.8596
▁proposal	-10.86
174	-10.86
kr	-10.8603
▁listen	-10.8604
▁park	-10.8608
blast	-10.8608
▁handle	-10.8613
600&	-10.8613
▁kawasaki	-10.8617
▁structure	-10.8617
▁cap	-10.862
/200808	-10.8622
/0,	-10.8623
▁brief	-10.8636
loading	-10.8636
/33	-10.8637
cn	-10.8639
workers	-10.8641
person	-10.8644
hyper	-10.8646
humor	-10.8651
bowkett	-10.8653
condition	-10.8653
argument	-10.8653
daemon	-10.8653
scanner	-10.8653
peace	-10.8653
drunk	-10.8653
graham	-10.8654
choose	-10.8654
/2009/03/12/	-10.8654
favorite	-10.8654
root	-10.8656
spider	-10.8656
pehub	-10.8657
heat	-10.8657
pictures	-10.8658
managing	-10.8658
vanity	-10.866
/2009/08/05/	-10.8663
/2009/08/06/	-10.8663
/2009/08/11/	-10.8665
huge	-10.8667
▁intro	-10.8669
mock	-10.867
cafe	-10.8671
▁wifi	-10.8672
▁path	-10.8673
-2008/	-10.8673
confessions	-10.8674
reflections	-10.8674
advanced	-10.8674
paidcontent	-10.8675
controller	-10.8676
▁usb	-10.8676
leak	-10.8678
handling	-10.8679
connection	-10.8679
▁hadoop	-10.8679
insights	-10.868
united	-10.8684
metro	-10.8689
ratings	-10.8689
misc	-10.869
▁police	-10.8694
▁match	-10.8697
pedia	-10.8697
zoo	-10.87
▁pain	-10.87
▁australia	-10.87
▁god	-10.87
▁schools	-10.8702
hacked	-10.8702
▁destroy	-10.8702
knol	-10.8706
▁sound	-10.8719
▁artificial	-10.8719
030	-10.8727
crm	-10.8728
▁leaked	-10.8728
solved	-10.8735
-2009/	-10.8735
▁24	-10.8737
teen	-10.8737
▁ny	-10.8737
119	-10.8737
▁remove	-10.8737
tp	-10.8744
pod	-10.8744
▁tree	-10.8745
dns	-10.8747
pli	-10.8752
▁girls	-10.8759
155	-10.876
909	-10.8761
▁winners	-10.8762
▁devices	-10.8763
reg	-10.8767
▁mouse	-10.8779
talking	-10.8781
slideshow	-10.8784
▁ahead	-10.8784
starter	-10.8784
▁vacation	-10.8784
/000	-10.8785
rf	-10.8787
▁smarter	-10.8788
town	-10.8789
quest	-10.879
▁attorney	-10.8794
eating	-10.8796
▁profits	-10.8796
▁climate	-10.8797
▁journalism	-10.8797
227	-10.8801
▁efficient	-10.8805
▁catch	-10.8812
lol	-10.8816
robo	-10.8818
▁channel	-10.8819
partners	-10.882
▁club	-10.8821
▁integration	-10.8823
▁paradox	-10.8823
▁staff	-10.8823
▁powered	-10.8828
▁country	-10.8831
ali	-10.8833
▁extension	-10.8837
▁repair	-10.8838
lk	-10.8838
▁boot	-10.8844
747	-10.8848
▁docs	-10.8852
lift	-10.8855
operation	-10.8856
rumble	-10.8857
ethic	-10.8857
/2009/07/28/	-10.8858
ville	-10.886
ano	-10.8861
institute	-10.8861
2%80%9	-10.8861
/2009/04/27/	-10.8864
spread	-10.8864
foreign	-10.8864
/2009/03/03/	-10.8865
jackson	-10.8865
/2009/08/13/	-10.8865
double	-10.8865
oracle	-10.8865
opportunity	-10.8866
spin	-10.8866
difference	-10.8866
bring	-10.8867
creator	-10.8867
trading	-10.8867
▁investing	-10.887
rates	-10.8871
▁tickets	-10.8873
▁mis	-10.8873
▁plus	-10.8873
▁door	-10.8874
achieve	-10.8875
gain	-10.8878
multiple	-10.8879
weight	-10.888
missing	-10.8881
▁dear	-10.8882
mine	-10.8882
/419-	-10.8884
▁fastest	-10.8885
bond	-10.8885
teach	-10.889
string	-10.8891
243	-10.8893
mw	-10.8893
▁merb	-10.8894
student	-10.8895
total	-10.8896
jones	-10.8896
▁anonymous	-10.8899
▁faces	-10.8901
str	-10.8902
overview	-10.8903
380	-10.8905
sues	-10.8908
og	-10.8911
▁ai	-10.8912
▁profitable	-10.8912
yard	-10.8915
▁olpc	-10.8916
▁pi	-10.8918
return	-10.892
bust	-10.8926
broad	-10.8926
190	-10.8927
▁fool	-10.8928
dm	-10.893
gary	-10.8933
▁vulnerability	-10.8934
bash	-10.8934
▁lawyer	-10.8934
costs	-10.8938
phd	-10.8941
tec	-10.8945
pac	-10.8946
▁trip	-10.8947
▁zen	-10.8947
corn	-10.8952
rou	-10.8953
▁flow	-10.8953
flat	-10.8956
▁strategies	-10.896
▁16	-10.8962
▁peter	-10.8966
▁xml	-10.8967
brad	-10.8969
▁storm	-10.897
dar	-10.8972
habits	-10.8973
▁hp	-10.8973
▁reports	-10.8977
▁announcing	-10.8979
slides	-10.8981
109	-10.8981
aig	-10.8985
avi	-10.8986
dust	-10.9001
610	-10.9002
▁revealed	-10.9003
cang	-10.9006
motors	-10.9007
▁issue	-10.9014
▁tablet	-10.902
tale	-10.902
towards	-10.9026
boat	-10.9028
▁chicago	-10.9032
▁season	-10.904
▁boy	-10.9041
uncov	-10.9041
08)	-10.9043
kh	-10.9046
moon	-10.905
▁myob	-10.9053
sq	-10.9055
reference	-10.9055
guys	-10.9055
plex	-10.9058
▁hurt	-10.9059
▁maker	-10.9061
trend	-10.9062
fare	-10.9065
stephen	-10.9065
▁chance	-10.9065
caught	-10.9065
greasemonkey	-10.9065
ninja	-10.9065
shock	-10.9066
spiritu	-10.9066
hammer	-10.9067
▁200	-10.9068
months	-10.9068
▁supercomputer	-10.907
expression	-10.907
basics	-10.907
▁biz	-10.9072
▁karma	-10.9072
benchmark	-10.9073
/2009/07/13/	-10.9073
idg	-10.9073
quotes	-10.9075
valuation	-10.9077
cake	-10.9081
delicious	-10.9081
▁error	-10.9082
brief	-10.9083
▁layoffs	-10.9083
impact	-10.9083
infrastructure	-10.9083
university	-10.9084
▁bio	-10.9087
ox	-10.9088
always	-10.9089
cre	-10.909
▁dangerous	-10.909
365	-10.9092
offline	-10.9092
blo	-10.9097
/200907	-10.9102
▁function	-10.9102
eg	-10.9103
brick	-10.9104
▁le	-10.9107
▁kick	-10.9108
pull	-10.9108
strange	-10.9109
decision	-10.9114
▁english	-10.9121
▁ide	-10.9121
211	-10.9126
slim	-10.9128
lake	-10.9129
▁task	-10.9134
▁silver	-10.9135
▁distribution	-10.9135
8%	-10.9137
rr	-10.9137
▁also	-10.9138
▁14	-10.914
kal	-10.9143
▁birthday	-10.9146
▁publishing	-10.9146
▁degree	-10.9153
wk	-10.9156
▁lock	-10.9159
▁protection	-10.9163
▁incubator	-10.917
pri	-10.9172
▁example	-10.9177
north	-10.9178
▁nation	-10.9179
ica	-10.9184
402	-10.9184
▁root	-10.9184
wy	-10.919
▁techstars	-10.919
brains	-10.9197
▁dollars	-10.9199
aware	-10.9199
264	-10.9202
▁places	-10.9203
510	-10.921
freelancer	-10.9211
aq	-10.9212
▁south	-10.9215
▁del	-10.9216
=17	-10.9217
newspaper	-10.9217
▁suggest	-10.922
▁reach	-10.9221
seen	-10.9223
▁pattern	-10.9223
▁recommendations	-10.9226
195	-10.9228
addiction	-10.9231
▁delete	-10.9232
else	-10.9233
-(	-10.9234
tq	-10.9235
▁comcast	-10.9235
▁hold	-10.9241
136	-10.9242
▁laptops	-10.9245
hm	-10.9257
▁puzzle	-10.926
fcc	-10.9263
drink	-10.9264
161	-10.9268
eli	-10.9276
cubicle	-10.9278
catonmat	-10.9278
celebrity	-10.9278
measuring	-10.9278
evolving	-10.9278
infochachkie	-10.9278
variable	-10.9278
nvidia	-10.9278
treasure	-10.9278
bruce	-10.9278
elastic	-10.9278
typography	-10.9278
yegge	-10.9278
joost	-10.9278
freemium	-10.9278
▁philly	-10.9278
referral	-10.9279
/2009/01/28/	-10.9279
historic	-10.9279
zune	-10.9281
clear	-10.9282
chaos	-10.9283
/2008/10/22/	-10.9284
/2009/03/26/	-10.9284
discoveries	-10.9284
/2009/08/17/	-10.9285
/2009/04/21/	-10.9287
/2009/02/10/	-10.9287
▁responds	-10.9288
/2009/03/02/	-10.9288
autoblog	-10.9291
hole	-10.9291
▁codes	-10.9291
▁hype	-10.9291
▁canadian	-10.9294
▁blocks	-10.9295
aaron	-10.9296
sign	-10.9296
▁crime	-10.9297
tur	-10.9297
auction	-10.9298
prime	-10.9299
guitar	-10.9302
season	-10.9305
battery	-10.9305
remote	-10.9306
increase	-10.9307
999	-10.9309
-25-	-10.9309
texas	-10.9309
▁expect	-10.9311
myob	-10.9317
vox	-10.9318
▁patch	-10.9321
▁exercise	-10.9322
▁protocol	-10.9322
▁mistake	-10.9323
tea	-10.9326
▁events	-10.9326
improvement	-10.9327
▁band	-10.9328
giga	-10.9328
saas	-10.9329
▁drives	-10.9335
▁greatest	-10.934
▁databases	-10.934
▁recommend	-10.9342
▁pirates	-10.9342
algorithm	-10.9343
▁teaching	-10.9343
▁sheet	-10.9345
▁expert	-10.9351
▁cook	-10.9353
286	-10.9355
branding	-10.9355
visit	-10.9356
tank	-10.9356
stores	-10.9359
drag	-10.9364
bsd	-10.9364
bowl	-10.9365
▁types	-10.9371
iran	-10.9373
▁congress	-10.9376
▁talking	-10.9377
201	-10.9377
▁shape	-10.9379
ward	-10.9386
/200810	-10.9388
xm	-10.9393
▁shop	-10.9394
starts	-10.9398
delivery	-10.9401
▁professor	-10.9401
▁documents	-10.9403
williams	-10.9404
cry	-10.9404
complaint	-10.9404
addons	-10.9404
ility	-10.9406
▁generate	-10.9407
▁blow	-10.9409
▁worldwide	-10.941
andy	-10.9417
tofix	-10.942
200710	-10.9423
2012	-10.9426
otc	-10.9429
▁allow	-10.9429
▁bomb	-10.9431
379	-10.9432
ged	-10.9434
▁widgets	-10.9436
▁bittorrent	-10.9441
▁101	-10.9446
jr	-10.9449
5&	-10.9451
▁scam	-10.9453
fea	-10.9454
communications	-10.9455
216	-10.9457
loud	-10.946
▁cs	-10.9477
▁sprint	-10.9477
▁disk	-10.9477
414	-10.9479
▁reference	-10.9479
▁train	-10.948
▁opensocial	-10.9481
340	-10.9483
▁states	-10.9484
dal	-10.9485
▁strange	-10.9486
myblog	-10.9487
bonus	-10.9493
pulse	-10.9493
que	-10.9494
kansas	-10.9495
trunk	-10.9495
depth	-10.9498
/2009/01/27/	-10.9501
/2009/02/17/	-10.9501
▁joel	-10.9502
binary	-10.9502
/2009/07/16/	-10.9503
dist	-10.9503
/2009/05/06/	-10.9504
/2009/07/20/	-10.9505
▁complex	-10.9505
ostatic	-10.9506
/2009/03/11/	-10.9506
polar	-10.9506
▁warming	-10.9509
▁ship	-10.951
▁ta	-10.9514
rising	-10.9517
ebook	-10.9519
▁original	-10.9522
▁captcha	-10.9523
speaking	-10.9525
query	-10.9526
farm	-10.9528
115	-10.953
pair	-10.9531
cheat	-10.9531
puzzle	-10.9531
paradox	-10.9532
▁recent	-10.9532
integration	-10.9532
worm	-10.9532
tesla	-10.9533
creativity	-10.9533
staff	-10.9534
discount	-10.9534
planning	-10.9535
personalized	-10.9535
blocked	-10.9535
cube	-10.9537
▁succeed	-10.954
flex	-10.9543
internetnews	-10.9545
▁theme	-10.9545
cities	-10.9552
▁engineer	-10.9554
disk	-10.9554
▁speech	-10.9556
pwn	-10.9558
403	-10.9565
paris	-10.9571
▁jet	-10.9572
▁sure	-10.9575
moms	-10.9577
clock	-10.9577
388	-10.9591
212	-10.9596
▁influence	-10.9596
224	-10.9596
techniques	-10.9601
▁partner	-10.9602
▁practice	-10.9606
webapps	-10.9609
▁worse	-10.9615
290	-10.962
▁passwords	-10.9621
194	-10.9622
jar	-10.9622
▁couchdb	-10.9624
▁vmware	-10.9624
sion	-10.9627
heads	-10.9629
label	-10.963
fy	-10.9631
plugins	-10.9631
303	-10.9633
595	-10.9634
▁roundup	-10.964
▁funds	-10.9649
▁extra	-10.9649
▁passion	-10.965
▁grand	-10.9653
tk	-10.9655
▁kit	-10.9655
attacks	-10.9655
driver	-10.9657
json	-10.9659
56.	-10.9666
geeknews	-10.9666
▁consider	-10.9668
▁diy	-10.9669
=105	-10.9672
yp	-10.9676
▁myths	-10.9677
▁feynman	-10.9678
knight	-10.9693
▁logic	-10.9699
receive	-10.9701
141	-10.9703
▁japanese	-10.9706
▁millions	-10.9709
rot	-10.9713
mel	-10.9713
38.	-10.9714
liquid	-10.9716
▁nuclear	-10.9716
sprout	-10.9717
gossip	-10.9717
ubiquity	-10.9718
=2547-1_3-0-5	-10.9718
herald	-10.9718
mouth	-10.9718
servlet	-10.9718
mount	-10.9719
tbray	-10.9719
sample	-10.972
campus	-10.9724
/2009/02/03/	-10.9725
slogan	-10.9726
-50-	-10.9727
ical	-10.973
▁gun	-10.9732
▁political	-10.9735
▁plane	-10.9736
entries	-10.974
_20_	-10.9742
235	-10.9742
▁campaign	-10.9744
topstories	-10.9747
▁drops	-10.9752
116	-10.9753
▁native	-10.9753
station	-10.9754
ryan	-10.9755
possible	-10.9756
var	-10.9757
treatment	-10.9765
response	-10.9766
quantum	-10.9767
coop	-10.9767
heroes	-10.9767
visualization	-10.9767
servers	-10.9771
generated	-10.9771
poker	-10.9772
▁pretty	-10.9773
output	-10.9773
toolbar	-10.9774
flock	-10.9774
yro	-10.9775
closing	-10.9782
practices	-10.9782
▁debugging	-10.9782
organize	-10.9784
▁june	-10.9784
dial	-10.979
vim	-10.9794
▁sees	-10.9795
326	-10.9795
makers	-10.9797
489	-10.9797
mai	-10.9799
ticker	-10.98
trying	-10.9801
▁budget	-10.9801
▁methods	-10.9809
21.	-10.9812
wu	-10.9815
▁mainstream	-10.9821
▁provide	-10.9821
▁gpl	-10.9824
2100	-10.9825
engineer	-10.9825
▁keyword	-10.983
▁winner	-10.9833
jg	-10.9835
▁skin	-10.9835
▁shell	-10.9836
quote	-10.9838
▁beware	-10.9838
▁stimulus	-10.984
▁17	-10.9841
fin	-10.9842
pain	-10.9851
▁related	-10.9852
271	-10.9852
delay	-10.9856
▁homepage	-10.9856
itz	-10.9859
socialmedia	-10.986
▁lift	-10.9863
▁thinks	-10.9864
▁shouldn	-10.9866
0%25	-10.987
kc	-10.9881
▁notice	-10.9882
piece	-10.9885
213	-10.9885
▁stick	-10.9887
profits	-10.9887
▁holiday	-10.9888
830	-10.9893
▁disaster	-10.9895
font	-10.9896
/09/02/	-10.9898
pho	-10.9898
▁apis	-10.9898
▁poker	-10.9898
257	-10.9901
designs	-10.9901
presentations	-10.9903
▁scratch	-10.9904
▁capture	-10.9905
▁worm	-10.9907
▁cuban	-10.9914
990	-10.9915
▁watching	-10.9919
advance	-10.992
249	-10.9922
▁fly	-10.9936
gphone	-10.9937
=43	-10.9941
▁regular	-10.9943
skydiving	-10.9945
galleries	-10.9945
morris	-10.9945
circle	-10.9945
increasing	-10.9945
vertical	-10.9945
divorce	-10.9945
patents	-10.9945
album	-10.9945
naked	-10.9945
klein	-10.9945
pingdom	-10.9946
craig	-10.9946
philip	-10.9946
lua	-10.9949
katz	-10.9949
spyware	-10.995
/2009/02/19/	-10.9952
/2008/10/27/	-10.9952
kitchen	-10.9953
/2009/05/18/	-10.9954
▁hollywood	-10.9955
productdetail	-10.9955
ple	-10.9959
uz	-10.9962
visualizing	-10.9964
!)	-10.9966
authority	-10.9969
cancel	-10.9969
305	-10.9972
▁console	-10.9972
147	-10.9975
0807	-10.9976
▁prefer	-10.9981
muse	-10.9985
computational	-10.9991
▁famous	-10.9992
▁manual	-10.9992
▁frameworks	-10.9998
mentor	-11.0001
holiday	-11.0002
efficient	-11.0002
bittorrent	-11.0003
generator	-11.0004
freedom	-11.0004
entrepreneurial	-11.0006
mega	-11.0006
actually	-11.0006
▁mission	-11.0008
447	-11.0008
converter	-11.0011
▁messaging	-11.0012
▁both	-11.0015
▁mystery	-11.0021
208	-11.0024
256	-11.0031
▁carbon	-11.0031
poor	-11.0032
formal	-11.0035
arm	-11.0037
▁internal	-11.0039
thin	-11.0039
▁wilson	-11.0041
▁happiness	-11.0041
▁documentation	-11.0043
020	-11.0043
234	-11.0043
▁progress	-11.0046
▁designs	-11.0047
▁fox	-11.0047
460	-11.0049
▁trial	-11.0056
employee	-11.0057
/0010	-11.0058
▁philosophy	-11.006
olympics	-11.0061
facebooks	-11.0062
wait	-11.0064
▁production	-11.0065
reveals	-11.0066
▁seattle	-11.0067
▁terms	-11.0067
newspapers	-11.0067
rod	-11.0075
intern	-11.0076
higher	-11.0077
solve	-11.0078
▁scalability	-11.0084
▁spy	-11.0088
▁resource	-11.0089
▁rip	-11.0091
▁hotels	-11.0096
▁innovative	-11.0097
communication	-11.0103
▁limits	-11.0105
gc	-11.0111
eve	-11.0113
▁tweets	-11.0116
670	-11.0119
630	-11.0121
nor	-11.0124
adventure	-11.0126
gift	-11.0129
recipes	-11.0129
713	-11.0132
ftp	-11.0133
▁ph	-11.0134
92.	-11.0139
384	-11.014
▁kills	-11.0144
▁subscription	-11.0146
sugar	-11.0148
minds	-11.015
▁bush	-11.0151
kick	-11.0152
keepontalking	-11.0155
▁announcement	-11.0155
▁discovery	-11.0155
▁compiler	-11.0155
river	-11.0161
bugs	-11.0163
963	-11.0164
jim	-11.0165
▁bear	-11.0165
757	-11.0168
▁500	-11.0169
gizmo	-11.0172
inquirer	-11.0177
compensation	-11.0177
weekinreview	-11.0177
finite	-11.0177
"?	-11.0178
▁peace	-11.0178
/2009/04/28/	-11.0179
haque	-11.0179
huffingtonpost	-11.0179
/2009/08/12/	-11.018
/2009/09/02/	-11.0181
297	-11.0182
kir	-11.0184
▁affect	-11.0184
/2009/03/25/	-11.0184
/2008/10/13/	-11.0185
pycon	-11.0185
unlimited	-11.0185
▁bbc	-11.0186
/2009/08/19/	-11.0187
appspot	-11.019
crunchies	-11.0193
186	-11.0193
▁peer	-11.0194
/2008/4/	-11.0194
hans	-11.0201
▁cofounder	-11.0201
/2009/1/	-11.0203
-16.	-11.0205
▁searching	-11.0205
387	-11.0205
tinyurl	-11.0208
forecast	-11.0212
329	-11.0212
▁sort	-11.0213
workweek	-11.0215
▁tap	-11.0215
▁bandwidth	-11.0216
dojo	-11.0229
material	-11.023
▁gadgets	-11.0235
898	-11.0237
matrix	-11.0238
mouse	-11.0238
193	-11.0241
leads	-11.0242
deck	-11.0242
▁lectures	-11.0244
127	-11.0244
queue	-11.0244
▁led	-11.0245
/09/03/	-11.0246
sxsw	-11.0246
climate	-11.0247
910	-11.0247
▁tr	-11.0247
passion	-11.0247
normal	-11.0249
south	-11.0249
lazy	-11.0249
423	-11.025
jon	-11.025
▁db	-11.025
context	-11.0251
journalism	-11.0252
rival	-11.0253
▁font	-11.0254
stress	-11.0254
288	-11.0255
trader	-11.0258
bomb	-11.0259
619	-11.0259
▁log	-11.026
blind	-11.0262
paci	-11.0264
394	-11.0266
whole	-11.0267
▁tale	-11.0274
163	-11.0275
counter	-11.0278
trek	-11.0279
researchers	-11.028
careers	-11.0287
▁login	-11.029
▁stars	-11.0295
schools	-11.0295
patch	-11.0296
▁points	-11.0297
108	-11.0298
bt	-11.03
▁countries	-11.0303
steven	-11.0304
method	-11.0306
▁monitoring	-11.0309
873	-11.0311
gate	-11.0318
▁lean	-11.0318
▁qu	-11.0319
toys	-11.0322
enable	-11.0325
=90	-11.0329
lane	-11.0335
ounce	-11.0337
269	-11.0344
oda	-11.0349
reaches	-11.035
▁changed	-11.0352
lm	-11.0357
ew	-11.0358
▁eyes	-11.0363
▁forums	-11.0365
uber	-11.0366
276	-11.0375
287	-11.0377
isation	-11.0378
=2008	-11.0379
hair	-11.038
▁breaking	-11.0381
▁matt	-11.0382
▁censorship	-11.0384
virgin	-11.0386
bull	-11.039
evolve	-11.0391
bear	-11.0394
gram	-11.0395
▁stolen	-11.0396
winners	-11.0397
315	-11.04
▁functions	-11.0404
▁practical	-11.0404
▁fundraising	-11.0405
moo	-11.0405
wg	-11.0407
examples	-11.0407
▁groups	-11.0409
rid	-11.0412
shake	-11.0414
▁blood	-11.0414
macrumors	-11.0415
bluetooth	-11.0415
groovy	-11.0415
manufacturing	-11.0415
properties	-11.0415
strength	-11.0415
/8301-10784_3-99	-11.0415
photography	-11.0415
norvig	-11.0415
jonathan	-11.0416
earnings	-11.0416
translate	-11.0416
buyelect	-11.0416
ified	-11.0417
/2008/05/28/	-11.0417
alertbox	-11.0417
spore	-11.0417
?"	-11.0418
diy	-11.042
harry	-11.042
generic	-11.0421
mobilecrunch	-11.0421
/2009/01/22/	-11.0421
/2009/01/26/	-11.0421
/2009/02/13/	-11.0422
/2008/11/21/	-11.0423
metric	-11.0423
/2009/04/22/	-11.0423
/2009/07/14/	-11.0424
▁role	-11.0425
/2009/02/11/	-11.0426
/2009/05/04/	-11.0427
/2009/08/21/	-11.0427
▁visa	-11.0428
/2009/08/04/	-11.0429
carl	-11.043
▁waste	-11.0431
356	-11.0431
telecom	-11.0434
▁christmas	-11.0434
▁benefits	-11.0434
▁fred	-11.044
theme	-11.0442
scam	-11.0443
msft	-11.0444
piper	-11.0444
▁turing	-11.0445
▁leaves	-11.0446
▁lego	-11.0451
▁thin	-11.0451
/2003	-11.0453
tactics	-11.0454
algorithms	-11.0457
diff	-11.0457
shine	-11.0461
metal	-11.0461
fed	-11.0466
662	-11.0469
shirt	-11.0469
▁overview	-11.047
ager	-11.0473
mono	-11.0474
▁resume	-11.0475
▁mid	-11.0476
lim	-11.0483
▁hash	-11.0485
▁template	-11.0486
eweek	-11.0486
▁forms	-11.0488
comic	-11.0489
shuts	-11.049
dealing	-11.0492
comcast	-11.0492
strong	-11.0494
engineers	-11.0494
financing	-11.0495
calacanis	-11.0495
leadership	-11.0496
554	-11.0496
multicore	-11.0496
fraud	-11.0497
massive	-11.0497
arrington	-11.0497
giving	-11.0497
tomorrow	-11.0498
▁perspective	-11.0499
revealed	-11.0501
vacation	-11.0501
dumb	-11.0501
bigger	-11.0502
intelligent	-11.0502
angle	-11.0502
torrent	-11.0504
▁circuit	-11.0506
▁activity	-11.0506
345	-11.0506
retail	-11.0508
/08/12/	-11.0508
509	-11.0512
▁ko	-11.0512
▁mental	-11.0514
kid	-11.0516
▁paypal	-11.0518
▁wonder	-11.0533
beach	-11.0535
▁trend	-11.0536
▁communities	-11.0537
▁accept	-11.0541
▁xbox	-11.0547
▁lack	-11.0547
ino	-11.0552
246	-11.0554
252	-11.0556
usage	-11.0557
republic	-11.0557
▁americans	-11.0559
pool	-11.0559
364	-11.0561
▁strong	-11.0568
pattern	-11.057
gamer	-11.0571
served	-11.0579
hall	-11.058
▁toward	-11.0581
▁stores	-11.0582
776	-11.0583
▁decide	-11.0585
▁blind	-11.0586
vine	-11.0594
loan	-11.06
▁submissions	-11.0605
▁earn	-11.0608
▁wait	-11.0609
lights	-11.0609
stem	-11.0618
grand	-11.062
thre	-11.0622
gman	-11.0623
blocks	-11.0624
228	-11.0625
▁loan	-11.0626
▁improving	-11.0627
▁automatic	-11.0629
▁her	-11.063
347	-11.0632
cause	-11.0633
flop	-11.064
650	-11.0643
km	-11.0643
leg	-11.0646
▁encryption	-11.0647
▁monetize	-11.0647
reject	-11.0648
asutra	-11.0659
squeeze	-11.0659
simplify	-11.0659
ancient	-11.0659
fellow	-11.066
seomoz	-11.066
2,00.	-11.066
geographic	-11.0662
sessions	-11.0663
kpss	-11.0664
/2008/05/27/	-11.0665
consumerist	-11.0666
seedcamp	-11.0666
▁laws	-11.0667
/2009/02/25/	-11.0667
/2009/01/06/	-11.0667
rubyonrails	-11.0667
/2009/03/30/	-11.0667
/2009/05/19/	-11.0667
/2009/04/14/	-11.0668
sdk	-11.0668
585	-11.0669
spotify	-11.067
vor	-11.067
/2009/07/21/	-11.067
=119	-11.0671
mpg	-11.0672
trojan	-11.0672
/2009/03/09/	-11.0673
▁quarter	-11.0675
nine	-11.0676
▁plugins	-11.0682
wii	-11.0684
boo	-11.0684
▁60	-11.0687
hunting	-11.0687
least	-11.0688
▁crunch	-11.0688
▁augmented	-11.0689
▁libraries	-11.0689
turning	-11.0694
chu	-11.0695
▁cd	-11.0695
moving	-11.0695
▁wind	-11.0698
qt	-11.07
scoped	-11.0702
volt	-11.0702
redesign	-11.0704
tape	-11.0705
▁gifts	-11.0707
jaws	-11.0709
43.	-11.071
▁submission	-11.0713
combo	-11.0715
003	-11.0716
/2009/06/08/	-11.0721
628	-11.0722
▁australian	-11.0723
385	-11.0723
lip	-11.0726
freelance	-11.073
▁yang	-11.0731
▁linked	-11.0732
▁wow	-11.0732
▁cto	-11.0742
rig	-11.0742
pauls	-11.0745
wl	-11.0748
headlines	-11.0749
wright	-11.075
drupal	-11.0751
disqus	-11.0751
259	-11.0751
▁pet	-11.0752
psychology	-11.0752
leaving	-11.0753
property	-11.0753
speech	-11.0753
driving	-11.0754
▁july	-11.0755
warning	-11.0756
layout	-11.0759
▁banking	-11.0763
notice	-11.0764
voting	-11.0765
express	-11.0765
jit	-11.0767
housing	-11.0767
feedback	-11.0769
▁promote	-11.0774
coloring	-11.0774
890	-11.0776
▁middle	-11.0778
▁lie	-11.0781
expo	-11.0784
-2-0-	-11.0785
shots	-11.0786
helping	-11.0786
▁base	-11.0789
grab	-11.0791
todays	-11.0791
milk	-11.0796
▁toolkit	-11.0797
▁abc	-11.0799
199	-11.0801
▁smalltalk	-11.0802
620	-11.0803
killing	-11.0811
powerful	-11.0814
▁clouds	-11.0816
conf	-11.0816
▁screencast	-11.082
▁physical	-11.0823
allow	-11.0823
697	-11.0823
tired	-11.0825
214	-11.0827
forex	-11.0828
aim	-11.0829
harm	-11.0831
▁cycle	-11.0836
▁$500	-11.0836
fran	-11.0841
ross	-11.0842
▁audience	-11.0844
monthly	-11.0846
▁active	-11.0847
ij	-11.0855
▁views	-11.0857
builder	-11.0857
begins	-11.0861
wolf	-11.0862
dad	-11.0862
▁station	-11.0863
▁flex	-11.0864
nas	-11.0865
avoiding	-11.0865
upload	-11.0868
scroll	-11.0874
275	-11.0874
▁lawyers	-11.0875
▁century	-11.0876
▁purchase	-11.0876
▁fish	-11.0878
▁designed	-11.0881
lp	-11.0882
281	-11.0883
trait	-11.0884
▁harder	-11.0887
ego	-11.0888
▁shoes	-11.0889
▁shares	-11.0891
advantage	-11.0891
▁21	-11.0891
302	-11.0892
ure	-11.0893
tron	-11.0893
▁candidate	-11.0897
▁average	-11.0897
▁cat	-11.0898
types	-11.0902
▁string	-11.0902
twist	-11.0902
041	-11.0905
cart	-11.0905
▁godin	-11.0906
▁meaning	-11.0907
463	-11.0908
patient	-11.0909
casual	-11.0909
including	-11.0909
shuffle	-11.0909
licensing	-11.0909
pownce	-11.0909
continuations	-11.0909
henry	-11.091
repose	-11.091
snake	-11.091
prospect	-11.091
louis	-11.091
until	-11.091
7,00.	-11.0911
lessonslearned	-11.0911
wwdc	-11.0911
trench	-11.0911
▁chips	-11.0912
462	-11.0913
pump	-11.0914
icann	-11.0915
mahalo	-11.0915
/2009/01/14/	-11.0915
fiber	-11.0916
ney	-11.0916
/2008/11/03/	-11.0917
/2009/06/30/	-11.0917
lov	-11.0917
/2009/05/14/	-11.0918
▁neutrality	-11.0918
/2008/10/21/	-11.0919
/2008/12/02/	-11.092
/2009/07/29/	-11.092
/2009/03/04/	-11.0921
274	-11.0921
/2009/08/24/	-11.0922
dinner	-11.0924
patrick	-11.0924
▁birth	-11.0927
showthread	-11.0929
seth	-11.0931
343	-11.0931
rands	-11.0932
song	-11.0932
▁cocoa	-11.0933
danger	-11.0934
agree	-11.0936
sam	-11.0937
436	-11.0938
machines	-11.0945
330	-11.0946
▁graphic	-11.0951
everywhere	-11.097
aut	-11.0973
▁coverage	-11.0974
clo	-11.0979
hum	-11.098
▁fiction	-11.0983
▁pandora	-11.0983
friendster	-11.0986
lucky	-11.0987
eurl	-11.0994
▁ben	-11.0994
publisher	-11.0995
protect	-11.0999
0908	-11.1001
refresh	-11.1004
374	-11.1009
▁friday	-11.101
tribe	-11.101
hg	-11.1012
▁recommendation	-11.1014
buchheit	-11.1014
noise	-11.1014
pocket	-11.1015
▁fine	-11.1015
zoho	-11.1016
address	-11.1016
kernel	-11.1016
couchdb	-11.1016
vmware	-11.1017
larry	-11.1017
together	-11.1017
equity	-11.1017
those	-11.102
having	-11.1021
419	-11.1022
techstars	-11.1025
worldwide	-11.1026
▁slides	-11.103
blame	-11.1032
electronic	-11.1034
sold	-11.1039
wr	-11.1042
272	-11.1043
mate	-11.1047
▁creation	-11.1048
▁cluster	-11.1048
few	-11.105
dshaw	-11.1051
motor	-11.1055
▁calling	-11.1056
seller	-11.1058
558	-11.1062
contain	-11.1064
sti	-11.1065
815	-11.1069
▁slide	-11.1076
▁adding	-11.1078
proto	-11.1082
▁predictions	-11.1083
=100	-11.1084
ging	-11.1085
tablet	-11.1087
499	-11.109
▁known	-11.1091
▁central	-11.1093
▁hair	-11.1095
coupon	-11.1095
=34	-11.1097
kim	-11.1098
710	-11.1102
758	-11.1102
launched	-11.1103
gpu	-11.1104
=23	-11.1106
▁entire	-11.1109
xen	-11.111
780	-11.1113
-2009-3	-11.1116
▁andreessen	-11.112
▁banned	-11.1121
lf	-11.1121
/06/	-11.1121
279	-11.1124
stu	-11.1127
349	-11.1131
83.	-11.1131
▁deployment	-11.1132
▁nails	-11.1133
ography	-11.1134
/5-	-11.1136
dash	-11.1138
flaw	-11.1142
=5087	-11.1145
sourced	-11.1148
creates	-11.1149
▁compared	-11.115
▁bookmarking	-11.1153
▁jackson	-11.1157
▁13	-11.116
▁continues	-11.1161
lectures	-11.1163
modules	-11.1164
plain	-11.1165
galatta	-11.1166
straight	-11.1166
definition	-11.1166
imagine	-11.1166
persuasion	-11.1166
preparing	-11.1166
200&	-11.1167
shadow	-11.1168
=24	-11.1169
exposed	-11.1169
orkut	-11.117
phase	-11.117
passionate	-11.117
bullet	-11.1171
/2009/01/15/	-11.1172
hijack	-11.1174
enhancement	-11.1174
idiot	-11.1174
/2009/08/26/	-11.1175
▁beauty	-11.1175
/2008/10/06/	-11.1175
/2009/08/20/	-11.1176
/2008/12/04/	-11.1176
terry	-11.1176
/2008/12/11/	-11.1177
▁hedge	-11.1178
redeye	-11.1178
abble	-11.118
/2009/07/07/	-11.118
philg	-11.1181
▁sync	-11.1181
8.04	-11.1181
▁fan	-11.1186
wife	-11.1186
637	-11.1187
earn	-11.1201
pics	-11.1202
ding	-11.1205
hear	-11.1205
540	-11.1207
▁jerry	-11.1208
466	-11.1209
crypto	-11.1214
▁da	-11.1216
▁scene	-11.1216
400&	-11.1216
▁offering	-11.1217
▁crowdsourcing	-11.1219
▁said	-11.122
488	-11.1223
dictionary	-11.1225
hc	-11.1234
origin	-11.1237
▁2:	-11.1237
roy	-11.1237
▁gap	-11.1242
hpw	-11.1243
livescience	-11.1249
▁saved	-11.125
▁speaker	-11.1254
dude	-11.1255
▁ranking	-11.1256
recap	-11.1256
enca	-11.1256
shortcut	-11.1257
▁facts	-11.1258
▁highly	-11.1259
451	-11.1262
summit	-11.1271
895	-11.1272
/36	-11.1272
killed	-11.1275
▁warner	-11.1276
ford	-11.128
progress	-11.1285
stumbleupon	-11.1285
cluster	-11.1286
stimulus	-11.1286
worse	-11.1286
▁expand	-11.1286
confirmed	-11.1287
jewelry	-11.1287
recovery	-11.1287
creation	-11.1287
trouble	-11.1287
toolkit	-11.1287
smalltalk	-11.1291
downturn	-11.1291
because	-11.1292
unique	-11.1294
robotic	-11.1304
miss	-11.1305
backed	-11.1306
▁heat	-11.1307
487	-11.1315
berry	-11.132
fewer	-11.132
nbc	-11.1328
girls	-11.1332
▁laser	-11.1348
psp	-11.135
▁sxsw	-11.1352
hay	-11.1353
pubs	-11.1354
▁income	-11.1354
735	-11.1355
techcrunchit	-11.1355
814	-11.1357
▁opportunities	-11.136
▁transfer	-11.136
▁payment	-11.136
▁exit	-11.1363
cook	-11.1365
▁rocks	-11.137
▁effects	-11.1381
▁hero	-11.1382
655	-11.1385
clu	-11.1389
▁dave	-11.139
moral	-11.1394
▁zuckerberg	-11.1394
999-	-11.1401
▁ideal	-11.1402
integrate	-11.1404
▁saas	-11.1405
702	-11.1407
she	-11.141
▁domains	-11.141
llc	-11.1411
/2008/12/16/	-11.1411
459	-11.1414
36.	-11.1415
▁promotion	-11.1419
▁dies	-11.1423
984	-11.1424
▁bought	-11.1428
jolly	-11.1429
gartner	-11.1429
tuesday	-11.1429
▁breakthrough	-11.1429
/8301-10784_3-97	-11.1429
pundit	-11.1429
aaronsw	-11.1429
canonical	-11.1429
taylor	-11.1429
breit	-11.143
1,00.	-11.143
colorado	-11.143
dashboard	-11.143
affordable	-11.143
prompt	-11.143
brew	-11.143
unc	-11.1432
760	-11.1432
reply	-11.1434
dodge	-11.1435
pressure	-11.1435
/2009/01/19/	-11.1435
/2009/08/31/	-11.1436
▁1.9	-11.1436
▁jam	-11.1436
/2009/06/22/	-11.1437
/2008/06/10/	-11.1437
/2009/04/30/	-11.1438
/2008/10/20/	-11.1438
▁schmidt	-11.1439
/2009/07/15/	-11.1439
/2009/04/20/	-11.1439
376	-11.144
orange	-11.1441
▁sw	-11.1442
objects	-11.1442
/2009/07/09/	-11.1443
suggestion	-11.1443
firmware	-11.1444
754	-11.1446
/2009/07/08/	-11.1448
arrow	-11.1451
lack	-11.1451
▁nearly	-11.1453
cnbc	-11.1454
▁seconds	-11.1458
▁metrics	-11.1458
cpu	-11.146
firebug	-11.1462
▁happens	-11.1463
healthcare	-11.1463
pat	-11.1463
nap	-11.1464
minutes	-11.1466
▁tonight	-11.1466
▁united	-11.1466
thank	-11.1467
▁bike	-11.1467
▁xkcd	-11.1467
▁officially	-11.1468
410	-11.147
dx	-11.1471
▁coffee	-11.1473
spir	-11.1476
faces	-11.1483
cow	-11.1483
▁complexity	-11.1485
▁pen	-11.1487
dragon	-11.149
writings	-11.1495
hottest	-11.1496
▁spec	-11.1501
gig	-11.1505
▁west	-11.1508
▁heard	-11.1509
truck	-11.1512
wash	-11.1514
goto	-11.1517
dir	-11.1518
▁curve	-11.1518
▁currency	-11.1518
375	-11.1519
digits	-11.1522
oid	-11.1522
▁sci	-11.1523
▁sexy	-11.1524
clay	-11.1525
rights	-11.1526
gateway	-11.1527
428	-11.153
▁edit	-11.1532
▁limit	-11.1532
umi	-11.1536
gang	-11.1538
wonder	-11.154
▁package	-11.1543
▁motivation	-11.1546
interest	-11.1548
▁$200	-11.1549
ced	-11.1551
266	-11.1551
▁mvc	-11.1551
▁gm	-11.1551
▁recipe	-11.1553
bites	-11.1554
377	-11.1556
▁ventures	-11.1559
solving	-11.1562
retro	-11.1562
affiliate	-11.1563
goodbye	-11.1563
▁danger	-11.1563
middle	-11.1563
communities	-11.1563
reduce	-11.1563
incubator	-11.1564
strategies	-11.1564
▁fonts	-11.1565
competitor	-11.1565
manifesto	-11.1565
▁lecture	-11.1565
▁seeks	-11.1567
philosophy	-11.1567
explained	-11.1569
mapping	-11.1569
dirty	-11.1569
▁static	-11.157
ette	-11.1572
request	-11.1573
200901	-11.1574
▁stumbleupon	-11.1575
writer	-11.1578
cellphone	-11.1578
cont	-11.1579
keeping	-11.1583
screwed	-11.1584
536	-11.1584
missed	-11.1584
gd	-11.1586
▁rights	-11.1586
▁pocket	-11.1586
▁mint	-11.1587
▁expected	-11.1587
carr	-11.1587
theft	-11.1589
▁charts	-11.159
▁cold	-11.1591
austin	-11.1593
production	-11.1595
_10_	-11.1596
readers	-11.1601
367	-11.1602
techmeme	-11.1603
▁expo	-11.1603
pong	-11.1604
▁sim	-11.1604
cla	-11.1605
screencast	-11.1606
chief	-11.161
window	-11.161
extend	-11.161
loc	-11.1611
extended	-11.1612
795	-11.1613
arie	-11.1614
campaigns	-11.1617
▁father	-11.1618
440	-11.1618
xbox	-11.1618
smarter	-11.1623
coast	-11.1623
▁alexa	-11.1627
▁nature	-11.1628
mobileme	-11.1628
▁surprise	-11.1628
▁graphs	-11.1629
cmu	-11.1631
restful	-11.1639
355	-11.1639
919	-11.1639
mast	-11.164
696	-11.164
=121	-11.1641
▁wild	-11.1641
▁interaction	-11.1642
jm	-11.1644
advantages	-11.1644
424	-11.1644
poly	-11.1655
escape	-11.1656
theres	-11.1659
iy	-11.1666
charts	-11.1667
▁pcs	-11.1672
bdc	-11.1673
innovators	-11.1677
mean	-11.1679
▁scripting	-11.1682
tile	-11.1683
render	-11.1684
askthe	-11.1685
179	-11.1687
▁foreign	-11.169
advisor	-11.169
meeting	-11.1691
rewrite	-11.1692
listen	-11.1693
▁mono	-11.1693
fine	-11.1695
medicine	-11.1699
tvbydemand	-11.1699
krugman	-11.1699
florida	-11.1699
saaqi	-11.1699
fowler	-11.1699
dominate	-11.1699
availability	-11.1699
splash	-11.1699
transparent	-11.1699
assistant	-11.1699
distance	-11.17
icahn	-11.17
enemy	-11.17
4,00.	-11.17
comparing	-11.17
fbfund	-11.1701
annual	-11.1702
glinden	-11.1702
chuck	-11.1703
▁marc	-11.1703
thumb	-11.1703
800&	-11.1704
region	-11.1705
▁corp	-11.1705
490	-11.1705
/2009/01/30/	-11.1706
/2009/06/17/	-11.1706
/2009/06/25/	-11.1707
clouds	-11.1708
/2009/03/19/	-11.1708
/2009/04/15/	-11.1708
matthew	-11.1711
dreamhost	-11.1711
impossible	-11.1711
hadron	-11.1713
768	-11.1713
/2008/3/	-11.1714
tex	-11.1715
holes	-11.1716
uv	-11.1718
▁3.5	-11.1719
▁embrace	-11.1721
footprint	-11.1723
virginia	-11.1732
gone	-11.1733
listing	-11.1737
▁she	-11.174
▁drugs	-11.1743
▁eclipse	-11.1744
▁loopt	-11.1745
iron	-11.1747
databases	-11.1752
urge	-11.1756
px	-11.1757
atlas	-11.1763
261	-11.1764
selector	-11.1769
nip	-11.1772
these	-11.1774
cure	-11.1774
freebsd	-11.1774
▁cells	-11.1774
▁prediction	-11.1774
trial	-11.1778
records	-11.1787
▁aws	-11.1789
▁printer	-11.1792
▁spin	-11.1798
ghost	-11.18
▁hello	-11.1803
rush	-11.1809
lose	-11.1811
209	-11.1812
357	-11.1814
▁clever	-11.1816
▁portal	-11.182
enter	-11.1821
▁bell	-11.1825
▁finger	-11.1827
▁clients	-11.1827
▁nyt	-11.1828
steroids	-11.1829
fur	-11.1829
983	-11.183
folders	-11.1831
▁affiliate	-11.1838
▁goodbye	-11.1838
▁90	-11.1839
/7-	-11.1843
leap	-11.1844
tame	-11.1845
proxy	-11.1846
payment	-11.1847
influence	-11.1849
congress	-11.1849
believe	-11.185
universal	-11.185
cancer	-11.1851
protection	-11.1851
dump	-11.1853
mainstream	-11.1854
▁cure	-11.1854
finger	-11.1855
collaboration	-11.1855
president	-11.1856
▁rather	-11.1857
▁collaborative	-11.1857
▁larry	-11.1861
lesson	-11.1861
▁mess	-11.1862
beware	-11.1866
▁eat	-11.1867
sells	-11.1868
▁enter	-11.1871
▁psychology	-11.1873
480	-11.1873
keyword	-11.1876
▁addresses	-11.1879
▁dilemma	-11.1881
▁effort	-11.1884
▁calacanis	-11.1885
▁admin	-11.1885
▁kid	-11.1887
alone	-11.1888
monitoring	-11.1891
shell	-11.1895
▁pics	-11.1895
jf	-11.1901
lem	-11.1902
randy	-11.1903
196	-11.1904
▁default	-11.1906
149	-11.1909
processing	-11.191
928	-11.191
0904	-11.191
767	-11.1911
766	-11.1912
deadly	-11.1912
crap	-11.1913
▁$50	-11.1921
=114	-11.1924
sprint	-11.1926
prank	-11.1926
▁trailer	-11.1928
lending	-11.1934
495	-11.1939
optimize	-11.1941
ground	-11.1945
▁minds	-11.1945
scientist	-11.1947
2004	-11.195
▁exec	-11.1951
minute	-11.1951
example	-11.1953
opensocial	-11.1954
leave	-11.1955
▁jack	-11.1955
qi	-11.1958
▁vim	-11.1959
figures	-11.1963
▁gears	-11.1964
▁objects	-11.1964
▁organic	-11.1964
▁comp	-11.1969
diagram	-11.197
▁structures	-11.1971
/08/09	-11.1973
gal	-11.1973
▁direct	-11.1974
fried	-11.1975
▁syntax	-11.1976
avatar	-11.1976
tight	-11.1977
mathematica	-11.1977
galaxy	-11.1977
cricket	-11.1977
cultural	-11.1977
merchant	-11.1977
chocolate	-11.1977
negotiation	-11.1977
scenario	-11.1977
jaiku	-11.1977
messenger	-11.1977
pizza	-11.1977
tribune	-11.1977
genome	-11.1977
smoking	-11.1977
lenny	-11.1977
▁mathematical	-11.1977
hydrogen	-11.1977
radical	-11.1977
altgate	-11.1977
=5088&	-11.1977
teenwag	-11.1977
terminal	-11.1978
/2009/05/28/	-11.1979
tipjoy	-11.1979
502	-11.198
democracy	-11.198
absolutely	-11.198
cli	-11.198
flexible	-11.1982
483	-11.1982
firstround	-11.1982
rent	-11.1983
/2008/09/17/	-11.1983
/2009/07/31/	-11.1984
morph	-11.1984
/2008/11/25/	-11.1984
spiral	-11.1984
burst	-11.1985
/2009/01/20/	-11.1985
/2008/09/03/	-11.1985
bionic	-11.1985
/2009/05/22/	-11.1986
/2008/11/24/	-11.1986
/2008/12/30/	-11.1987
frontier	-11.1987
/2009/03/20/	-11.1987
▁illegal	-11.1987
/2009/04/29/	-11.1988
▁freelance	-11.1988
uck	-11.1989
/2008/10/07/	-11.1989
/2009/06/02/	-11.199
720	-11.199
/2009/07/06/	-11.199
/2009/03/10/	-11.199
height	-11.1991
/2008/11/20/	-11.1991
/2009/08/10/	-11.1993
riaa	-11.1994
/2009/01/29/	-11.1996
tire	-11.1997
▁mr	-11.1997
smh	-11.1999
▁animation	-11.1999
voices	-11.2
elements	-11.2003
istic	-11.2004
gif	-11.2005
enabled	-11.2006
730	-11.2006
mmo	-11.2006
031	-11.2006
▁rent	-11.2008
▁scoble	-11.2011
▁sorry	-11.2011
mvp	-11.2013
▁bash	-11.2014
3000	-11.2017
rium	-11.2017
405	-11.2018
pure	-11.202
massage	-11.202
▁salesforce	-11.2025
ql	-11.2027
590	-11.2033
▁ultra	-11.2035
plication	-11.2036
improved	-11.2036
hong	-11.2038
thanks	-11.2043
cheapest	-11.2044
developerlife	-11.2046
lessig	-11.2046
616	-11.2046
▁background	-11.2049
▁lower	-11.2053
sending	-11.2054
trash	-11.2056
▁leak	-11.2059
enters	-11.2065
▁german	-11.2066
elite	-11.2066
onrails	-11.2068
traction	-11.2072
brooks	-11.2073
strike	-11.2074
▁principles	-11.2076
prof	-11.2077
stick	-11.2079
341	-11.208
newest	-11.208
=133	-11.2081
curi	-11.2082
▁explain	-11.2082
▁graduate	-11.2083
hunter	-11.2084
485	-11.2085
adoption	-11.2086
545	-11.2088
366	-11.2089
▁theft	-11.2093
5000	-11.2093
▁lives	-11.2099
merge	-11.2101
▁upcoming	-11.2103
▁fighting	-11.2104
bg	-11.2106
webservices	-11.2109
787	-11.2111
tony	-11.2119
journalist	-11.2119
▁dirty	-11.212
heres	-11.212
162	-11.2121
▁basics	-11.2122
361	-11.2123
clever	-11.2125
▁weird	-11.2129
gears	-11.2132
und	-11.2132
cellhutcom	-11.2132
-09-	-11.2133
▁teen	-11.2134
1998	-11.2136
dear	-11.2137
motivation	-11.2138
giant	-11.2139
▁cpu	-11.2139
cse	-11.214
▁themes	-11.214
corporation	-11.214
ologist	-11.2141
244	-11.2142
happiness	-11.2143
degree	-11.2144
crazy	-11.2144
wilson	-11.2144
paypal	-11.2145
warner	-11.2145
▁iron	-11.2145
documentation	-11.2146
▁comic	-11.2147
cuts	-11.2147
flo	-11.2151
284	-11.2151
provider	-11.2153
369	-11.2155
294	-11.2156
due	-11.2157
trac	-11.2158
456	-11.216
icio	-11.2161
echo	-11.2162
▁nine	-11.2163
gpl	-11.2167
▁financing	-11.2168
▁difficult	-11.2168
internal	-11.2173
nda	-11.2174
origins	-11.2179
itself	-11.218
=25	-11.2183
nv	-11.2186
▁bookmarklet	-11.2188
matic	-11.219
▁invent	-11.2194
ition	-11.2196
▁doomed	-11.2196
shirts	-11.2199
▁shared	-11.2199
▁among	-11.22
stars	-11.2201
ile	-11.2205
hero	-11.2206
leo	-11.2209
879	-11.221
▁confirms	-11.2212
▁browsing	-11.2212
▁tab	-11.2215
▁paint	-11.2215
▁clock	-11.2221
▁makers	-11.2229
▁beer	-11.223
▁gadget	-11.2231
created	-11.2232
322	-11.2232
letha	-11.2234
236	-11.2235
ratio	-11.2236
▁collective	-11.2237
catch	-11.2237
▁keeping	-11.2238
▁delicious	-11.2241
306	-11.2243
▁discuss	-11.2249
promises	-11.2249
▁wealth	-11.2249
▁scalable	-11.225
vendor	-11.2255
extensions	-11.2255
vl	-11.2259
▁construction	-11.2259
▁agreement	-11.2259
▁targets	-11.226
▁adult	-11.2261
▁generating	-11.2262
▁rival	-11.2262
domestic	-11.2263
chromium	-11.2263
calculator	-11.2263
diabetes	-11.2263
bokardo	-11.2263
terrible	-11.2263
validation	-11.2263
senior	-11.2263
squeak	-11.2263
gvke	-11.2263
revisited	-11.2263
scrum	-11.2263
vietnam	-11.2263
relax	-11.2263
settlement	-11.2263
automation	-11.2264
artima	-11.2264
twice	-11.2264
alumni	-11.2264
/2009/08/28/	-11.2265
albert	-11.2265
breath	-11.2266
▁hear	-11.2269
squad	-11.2269
/2008/09/30/	-11.2269
/2008/07/14/	-11.2269
facing	-11.2269
/2008/09/29/	-11.2271
/2008/10/17/	-11.2271
laugh	-11.2271
/2009/01/05/	-11.2272
automatically	-11.2272
389	-11.2272
/2008/10/29/	-11.2273
/2009/06/29/	-11.2273
/2009/08/14/	-11.2273
/2008/07/01/	-11.2274
▁empire	-11.2274
lightweight	-11.2274
/2008/11/10/	-11.2274
/2009/06/24/	-11.2274
pilot	-11.2274
▁ditch	-11.2274
/2008/11/11/	-11.2274
/2008/10/24/	-11.2275
/2009/05/05/	-11.2275
blip	-11.2284
▁beginning	-11.2286
▁gnu	-11.2286
/2009/03/24/	-11.2287
encoding	-11.2287
mvc	-11.2288
specials	-11.2288
adapt	-11.2295
lfall	-11.2295
railsconf	-11.2298
▁often	-11.2298
kel	-11.2299
hug	-11.2301
785	-11.2305
▁sch	-11.2307
tables	-11.2311
▁alex	-11.2312
▁emails	-11.2314
%253	-11.2317
fest	-11.2318
▁ice	-11.2318
▁benchmark	-11.2323
include	-11.2327
472	-11.233
commons	-11.2332
▁postgresql	-11.2335
809	-11.2336
kiss	-11.2337
range	-11.2337
border	-11.234
▁iq	-11.2342
925	-11.2345
▁outage	-11.2345
announce	-11.2347
workplace	-11.2352
shut	-11.2354
linking	-11.2359
staying	-11.2359
mental	-11.2364
007	-11.2366
warns	-11.2367
ssl	-11.2368
zombie	-11.2371
fx	-11.2373
▁transform	-11.2381
520	-11.2385
▁1:	-11.2385
705	-11.2386
-2009-6	-11.2387
soup	-11.2391
points	-11.2393
thefunded	-11.2395
479	-11.2396
coach	-11.2398
mania	-11.2402
grant	-11.2405
roadmap	-11.2406
▁sneak	-11.2408
ini	-11.2412
quot	-11.2413
troll	-11.2415
hel	-11.2416
tux	-11.2417
461	-11.2418
▁replacement	-11.2419
▁techmeme	-11.242
2010	-11.242
▁taxes	-11.2421
conversations	-11.2424
▁updated	-11.2425
prepares	-11.2432
yr	-11.2432
ching	-11.2433
▁spring	-11.2442
▁meltdown	-11.2442
wit	-11.2443
positive	-11.2443
fedora	-11.2444
graduate	-11.2445
circuit	-11.2446
added	-11.2446
carbon	-11.2446
budget	-11.2447
vulnerability	-11.2447
▁disqus	-11.2447
feel	-11.2448
activity	-11.2448
genetic	-11.2448
birthday	-11.2449
338	-11.2449
rice	-11.2449
▁bi	-11.2453
pb	-11.2454
▁woman	-11.2455
russian	-11.2456
▁owners	-11.2456
rj	-11.2458
=27	-11.2459
reverse	-11.2459
obamas	-11.2461
sail	-11.2464
finder	-11.2464
bridge	-11.2467
▁awards	-11.2468
▁bias	-11.2471
luck	-11.2471
tough	-11.2474
296	-11.2479
critical	-11.2482
industrial	-11.2486
solo	-11.249
▁option	-11.249
▁andrew	-11.249
▁formula	-11.2493
904	-11.2493
bil	-11.2493
▁singularity	-11.2501
confirms	-11.2503
▁hosted	-11.2504
orbit	-11.2506
▁dying	-11.2506
0805	-11.2507
areas	-11.2508
columnists	-11.2509
▁disc	-11.251
▁prime	-11.2512
mixed	-11.2513
▁easily	-11.2518
▁department	-11.2518
▁pioneer	-11.2518
▁ride	-11.2519
998	-11.2519
jruby	-11.2523
929	-11.2524
income	-11.2525
picking	-11.2527
continues	-11.2527
476	-11.2533
▁popularity	-11.2535
▁elements	-11.2536
playing	-11.2536
shrink	-11.2538
▁director	-11.2539
▁oauth	-11.2543
574	-11.2544
migration	-11.2546
animal	-11.255
programs	-11.2554
carsonified	-11.2557
smugmug	-11.2557
exploring	-11.2557
mysterious	-11.2557
vulnerable	-11.2557
plastic	-11.2557
reducing	-11.2557
regulation	-11.2557
tetris	-11.2557
▁modular	-11.2557
cortex	-11.2558
became	-11.2558
5,00.	-11.2559
▁weeks	-11.2559
721	-11.2559
defcon	-11.2559
▁anybody	-11.2559
rage	-11.256
smoke	-11.256
rejection	-11.256
switching	-11.2561
sandbox	-11.2561
arthur	-11.2561
swarm	-11.2562
/2008/09/16/	-11.2563
/2008/07/16/	-11.2563
ecosystem	-11.2563
scary	-11.2563
float	-11.2564
/2009/02/16/	-11.2564
/2008/06/23/	-11.2565
/2008/10/15/	-11.2566
/2008/08/05/	-11.2566
/2009/05/26/	-11.2566
/2009/05/27/	-11.2567
/2008/11/18/	-11.2568
/2009/01/07/	-11.2568
/2008/08/04/	-11.2568
unveiled	-11.2568
hawk	-11.2569
/2009/05/21/	-11.2569
/2009/06/23/	-11.2569
/2008/10/01/	-11.257
/2009/07/22/	-11.257
/2008/12/09/	-11.2571
838	-11.2571
▁10,000	-11.2572
/2008/08/08/	-11.2572
/2009/04/02/	-11.2572
winner	-11.2573
gender	-11.2573
715	-11.2573
depot	-11.2573
yhoo	-11.2575
/2008/10/08/	-11.2575
abuse	-11.2576
textmate	-11.2576
707	-11.2576
binc	-11.2577
hats	-11.2577
398	-11.2577
blob	-11.2578
▁split	-11.2578
former	-11.2579
223	-11.258
▁spending	-11.258
▁total	-11.258
▁isps	-11.258
/2009/03/17/	-11.2583
transit	-11.2584
▁wisdom	-11.2585
sym	-11.2586
▁wtf	-11.2587
cdma	-11.2588
452	-11.259
▁farm	-11.2596
microblogging	-11.2603
▁charging	-11.2606
523	-11.2608
011	-11.261
503	-11.2611
insert	-11.2616
hoo	-11.2617
playlist	-11.2617
618	-11.2618
▁pink	-11.2621
esr	-11.2622
skip	-11.2623
josh	-11.2629
partial	-11.2629
▁criminal	-11.2632
debug	-11.2633
660	-11.2633
▁critique	-11.264
makeover	-11.2642
▁mapreduce	-11.2645
lick	-11.2646
prk	-11.2647
▁hip	-11.2648
▁rid	-11.2649
289	-11.2652
880	-11.2653
656	-11.2655
299	-11.2656
▁according	-11.2657
▁extensions	-11.2658
beer	-11.2659
▁fashion	-11.2661
▁lambda	-11.2664
▁factory	-11.2665
dll	-11.2668
▁lots	-11.2669
loom	-11.2672
principle	-11.2672
464	-11.2676
▁town	-11.2678
abcs	-11.2679
pipe	-11.2684
/2009/04/24/	-11.269
▁parts	-11.2691
=26	-11.2693
ole	-11.2694
▁grows	-11.2696
watching	-11.27
▁transition	-11.2703
tower	-11.2704
597	-11.2707
twitt	-11.2707
tribute	-11.2708
diego	-11.2709
menu	-11.2715
▁decade	-11.2716
888	-11.2719
▁ground	-11.2723
junk	-11.2725
convert	-11.2733
▁buchheit	-11.2734
▁nobody	-11.2734
▁los	-11.2736
headed	-11.2738
226	-11.2739
262	-11.274
▁fundamental	-11.2741
▁apply	-11.2741
explain	-11.2741
eight	-11.2743
discuss	-11.2744
challenges	-11.2746
▁skill	-11.275
nyt	-11.2752
▁masses	-11.2752
lamp	-11.2753
quarter	-11.2754
moves	-11.2756
currency	-11.2756
september	-11.2756
israel	-11.2756
television	-11.2756
shark	-11.2757
swap	-11.2757
according	-11.2758
mystery	-11.2759
▁nerds	-11.2759
artificial	-11.2759
distribution	-11.276
malware	-11.276
izer	-11.2761
▁figure	-11.2762
▁multicore	-11.2762
exploit	-11.2762
curve	-11.2764
marketplace	-11.2766
=47	-11.2771
▁matrix	-11.2773
▁conversion	-11.2774
344	-11.2778
leaked	-11.2778
▁papers	-11.2778
anyone	-11.2778
cookie	-11.2778
meetup	-11.278
roller	-11.2782
▁360	-11.279
compare	-11.2792
▁detection	-11.2795
▁minute	-11.28
activ	-11.2802
lame	-11.2802
webkit	-11.2803
upcoming	-11.2803
mashup	-11.2804
▁organization	-11.2807
▁driven	-11.2809
americas	-11.281
100%	-11.2812
=30	-11.2813
balance	-11.2817
▁followers	-11.2818
▁brilliant	-11.282
pulls	-11.2823
▁texas	-11.2824
▁award	-11.2824
portable	-11.2829
also	-11.283
▁bankruptcy	-11.2833
bali	-11.2836
▁nerd	-11.2836
647	-11.2839
847	-11.2843
▁bootstrapping	-11.2846
▁indonesia	-11.2846
▁couple	-11.2846
▁surface	-11.2846
▁weapon	-11.2846
easter	-11.2853
371	-11.2853
bottle	-11.2856
251	-11.2856
hanselman	-11.286
840	-11.286
twenty	-11.286
universities	-11.286
xpressmusic	-11.286
wozniak	-11.286
accessibility	-11.286
conflict	-11.286
jeremy	-11.286
torvalds	-11.286
invitation	-11.286
aggregation	-11.286
requirements	-11.286
retention	-11.286
syndrome	-11.286
greenspun	-11.286
arrives	-11.286
wikileaks	-11.286
starbucks	-11.286
truly	-11.286
nat	-11.286
neil	-11.286
/2006/10/	-11.2861
disruptive	-11.2861
doug	-11.2861
scribe	-11.2861
quake	-11.2861
widgets	-11.2861
6,00.	-11.2861
cilk	-11.2861
darpa	-11.2862
shiny	-11.2862
excuse	-11.2862
/2008/08/12/	-11.2862
tagging	-11.2863
tuning	-11.2863
senate	-11.2864
personalfinance	-11.2865
respect	-11.2865
chicken	-11.2865
/2008/06/17/	-11.2865
joy	-11.2866
roger	-11.2866
dmca	-11.2866
animated	-11.2866
shelf	-11.2866
floor	-11.2867
rendering	-11.2867
/2008/04/29/	-11.2867
/2008/09/26/	-11.2867
336	-11.2868
/2008/08/13/	-11.2868
/2008/11/19/	-11.2868
/2008/06/05/	-11.2868
957	-11.2868
basecamp	-11.2868
noni	-11.2869
employed	-11.2869
/2008/05/06/	-11.2869
/2008/07/21/	-11.2869
therapy	-11.2869
/2009/06/15/	-11.2869
helps	-11.2869
/2008/09/24/	-11.2869
temple	-11.2869
/2009/01/21/	-11.287
fails	-11.287
jvn	-11.287
▁layer	-11.287
▁claim	-11.287
▁artist	-11.2871
/2008/04/09/	-11.2871
/2009/03/18/	-11.2871
/2009/02/24/	-11.2871
/2009/08/25/	-11.2872
/2009/05/20/	-11.2872
▁extreme	-11.2872
/2009/04/23/	-11.2873
deadpool	-11.2873
/2009/08/27/	-11.2873
/2009/01/09/	-11.2873
dollars	-11.2873
/2009/06/01/	-11.2874
cutts	-11.2874
/2009/07/24/	-11.2875
/2009/08/18/	-11.2875
wick	-11.2876
csail	-11.2877
/2009/04/09/	-11.2878
dpc	-11.2878
033	-11.2879
782	-11.2881
▁incredible	-11.2885
emotion	-11.2885
▁sometimes	-11.2886
trick	-11.2888
shutting	-11.289
46.	-11.2892
loose	-11.2893
▁africa	-11.2895
/2009/2/	-11.2897
iranian	-11.2898
▁monetization	-11.2898
▁monster	-11.2898
▁$8	-11.2898
jimmy	-11.29
grind	-11.2903
▁mba	-11.2905
526	-11.2905
zilla	-11.2909
bow	-11.2911
preneur	-11.2913
778	-11.2914
▁falling	-11.2918
▁counting	-11.2924
lawyer	-11.2925
▁hill	-11.2926
holy	-11.2928
landing	-11.2931
▁twit	-11.2932
speaker	-11.2934
▁schedule	-11.2937
/2008/2/	-11.2937
▁hotel	-11.2939
liner	-11.2939
=36	-11.2939
▁brains	-11.2941
principles	-11.2942
failing	-11.2943
rpc	-11.2945
plugg	-11.2945
▁politics	-11.2949
heist	-11.2951
lays	-11.2953
unveil	-11.2954
▁returns	-11.2955
439	-11.2958
spotlight	-11.2959
blueprint	-11.2959
▁rescue	-11.2959
▁anywhere	-11.2961
▁portable	-11.2966
utter	-11.297
396	-11.2971
▁cor	-11.2972
▁gain	-11.2972
996	-11.2972
smallest	-11.2972
▁field	-11.2973
▁capitalists	-11.2976
targeted	-11.2976
▁alternatives	-11.2983
germany	-11.2984
brother	-11.2986
854	-11.2986
ua	-11.2986
gri	-11.2991
▁implement	-11.2992
banks	-11.2992
▁cookie	-11.2993
udge	-11.2993
▁1.5	-11.2994
given	-11.3004
rfid	-11.3006
614	-11.3008
skills	-11.3009
config	-11.3009
▁automated	-11.3019
▁drivers	-11.3023
988	-11.3023
▁forever	-11.3024
shame	-11.3025
tabs	-11.303
vw	-11.3033
decisions	-11.3036
▁translation	-11.3038
reach	-11.3038
suite	-11.3041
0809	-11.3042
psd	-11.3044
/0,2933,	-11.3044
▁#2	-11.3046
▁overload	-11.3048
▁seat	-11.3049
966	-11.3051
▁attempt	-11.3051
firms	-11.3053
mir	-11.3058
weeks	-11.306
▁webapp	-11.3062
▁offshore	-11.3065
▁troll	-11.3067
680	-11.307
▁snap	-11.3072
australia	-11.3072
▁prove	-11.3074
tao	-11.3076
567	-11.3079
newmedia	-11.308
pandora	-11.3081
fiction	-11.3081
mapreduce	-11.3081
debugging	-11.3082
messaging	-11.3082
▁ball	-11.3083
415	-11.3083
anywhere	-11.3085
adwords	-11.3085
olpc	-11.3087
yang	-11.3088
▁window	-11.309
novel	-11.309
▁competitive	-11.3091
▁concurrency	-11.3092
/0,8599,18	-11.3093
quiz	-11.3094
rants	-11.3095
▁washington	-11.3098
▁editing	-11.31
▁female	-11.3104
rolls	-11.3109
254	-11.3109
▁continue	-11.311
slider	-11.3111
00144	-11.3113
▁van	-11.3114
▁rumor	-11.3116
314	-11.3117
▁setup	-11.3119
▁cutting	-11.312
ecommerce	-11.3122
ranking	-11.3122
flying	-11.3123
developing	-11.3126
seem	-11.3126
nice	-11.313
▁excellent	-11.3131
▁billionaire	-11.3131
894	-11.3131
▁tables	-11.3131
fn	-11.3133
songs	-11.3134
cracked	-11.3142
handset	-11.3143
route	-11.3144
▁efficiency	-11.3144
▁include	-11.3147
owned	-11.315
ration	-11.3151
▁morning	-11.3158
▁mountain	-11.3158
▁flat	-11.3159
965	-11.3163
2011	-11.3164
1200	-11.3166
ties	-11.3166
fault	-11.3167
both	-11.3168
▁apollo	-11.3171
pilgrim	-11.3172
redherring	-11.3172
franchise	-11.3172
arduino	-11.3172
explosion	-11.3172
benjamin	-11.3172
complicated	-11.3172
relational	-11.3172
savvy	-11.3172
yellow	-11.3172
manipulation	-11.3172
appliance	-11.3172
bizarre	-11.3172
multitasking	-11.3172
nginx	-11.3172
lehman	-11.3173
hoax	-11.3173
alliance	-11.3173
refactoring	-11.3173
berkun	-11.3173
epicenter	-11.3173
creek	-11.3173
upenn	-11.3173
cohen	-11.3173
07658	-11.3173
=5070	-11.3173
nobel	-11.3174
garmin	-11.3174
population	-11.3175
azure	-11.3175
oi	-11.3176
511	-11.3176
denver	-11.3177
334	-11.3177
adding	-11.3177
/2009/03/31/	-11.3179
baseball	-11.3179
/2008/08/26/	-11.318
/2008/08/25/	-11.318
/2008/07/15/	-11.318
/2008/09/19/	-11.318
=35	-11.318
/2008/06/18/	-11.318
/2008/11/26/	-11.318
/2008/06/06/	-11.3181
smell	-11.3181
spammed	-11.3181
/2008/10/14/	-11.3181
/2009/04/17/	-11.3181
/2008/08/18/	-11.3182
/2008/09/23/	-11.3182
/2009/07/17/	-11.3182
/2008/06/04/	-11.3182
/2009/07/30/	-11.3183
/2009/02/20/	-11.3183
automat	-11.3184
/2008/06/09/	-11.3184
/2009/02/23/	-11.3184
/2009/02/05/	-11.3184
/2008/11/04/	-11.3185
▁taste	-11.3185
/2009/04/06/	-11.3185
/2009/02/04/	-11.3186
/2008/04/08/	-11.3186
wimax	-11.3186
warcraft	-11.3187
/2009/04/10/	-11.3187
/2009/05/11/	-11.3189
/2009/06/09/	-11.3189
calling	-11.319
/2009/02/02/	-11.319
underground	-11.319
▁labels	-11.319
/2009/07/02/	-11.319
▁peak	-11.3194
525	-11.3195
naming	-11.3195
union	-11.3196
profitability	-11.3196
touchscreen	-11.3201
▁timeline	-11.3202
▁trees	-11.3204
▁pure	-11.3206
overrated	-11.3207
qik	-11.3212
▁visitors	-11.3212
connected	-11.3214
claims	-11.3215
inbox	-11.3216
bloom	-11.3217
850	-11.3217
select	-11.3218
expro	-11.3219
494	-11.322
domains	-11.3221
468	-11.3221
▁novel	-11.3224
678	-11.3224
businesscenter	-11.3224
multitouch	-11.3227
▁wine	-11.3228
770	-11.3228
inform	-11.3228
hostingreview	-11.3233
▁exclusive	-11.3233
foot	-11.3236
kp	-11.3237
573	-11.3237
701	-11.324
ewd	-11.3241
▁spark	-11.3243
mask	-11.3244
ustream	-11.3244
waste	-11.3244
shared	-11.3246
alley	-11.3246
▁cuil	-11.3251
prices	-11.3252
hai	-11.3252
yale	-11.3252
gwt	-11.3258
nails	-11.3258
lighting	-11.3259
441	-11.3267
cg	-11.3269
teams	-11.3269
▁electronics	-11.3274
beginners	-11.3275
875	-11.3275
837	-11.3278
▁ram	-11.3281
hide	-11.3282
prepare	-11.3284
wow	-11.3286
960	-11.3287
arms	-11.329
paint	-11.3292
graphs	-11.3292
▁marketplace	-11.3293
▁heroku	-11.3298
▁jruby	-11.3302
blink	-11.331
▁mike	-11.3317
529	-11.3318
noop	-11.3322
▁similar	-11.3324
/217	-11.3327
▁crap	-11.3328
▁artists	-11.3329
assembly	-11.3331
817	-11.3339
008	-11.3344
halo	-11.3346
fence	-11.3348
monad	-11.3351
facts	-11.3361
dailytech	-11.3363
0810	-11.3364
073	-11.3364
everyday	-11.3371
technews	-11.3371
709	-11.3373
▁fame	-11.3375
▁drupal	-11.3375
▁max	-11.3382
▁nail	-11.3383
shan	-11.3384
olo	-11.3385
▁trademark	-11.3387
684	-11.3387
▁leadership	-11.3389
▁implementing	-11.3389
anger	-11.339
▁wal	-11.3391
▁robert	-11.3392
▁atlanta	-11.3397
▁evidence	-11.3397
▁garage	-11.3397
removed	-11.3399
▁limited	-11.3399
parent	-11.34
expect	-11.3401
wipe	-11.3401
▁queue	-11.3402
backtype	-11.3402
▁comet	-11.3403
▁lazy	-11.3403
470	-11.3408
▁buffett	-11.3411
▁guess	-11.3411
▁milestone	-11.3411
▁lunch	-11.3411
talent	-11.3411
passenger	-11.3411
phishing	-11.3412
criminal	-11.3413
schedule	-11.3413
postgresql	-11.3414
stealth	-11.3414
▁electricity	-11.3415
resume	-11.3415
pretty	-11.3415
wage	-11.3415
destroy	-11.3415
ignore	-11.3415
produce	-11.3415
measure	-11.3416
background	-11.3416
peek	-11.3416
depression	-11.3416
potential	-11.3416
children	-11.3417
coverage	-11.3417
908	-11.3418
profitable	-11.3421
▁fans	-11.3422
greatest	-11.3423
onion	-11.3424
bread	-11.3425
▁identify	-11.3425
835	-11.3426
▁coolest	-11.3431
whos	-11.3432
acquired	-11.3434
viewer	-11.3436
orchar	-11.3436
▁france	-11.3439
dept	-11.344
▁russia	-11.3441
741	-11.345
▁enjoy	-11.3452
▁excel	-11.3454
▁winning	-11.3455
▁score	-11.3457
rom	-11.3457
rocks	-11.3465
laptops	-11.3469
shout	-11.347
known	-11.3473
maintain	-11.3474
mobi	-11.3475
architects	-11.3475
▁impressive	-11.348
▁shipping	-11.3481
finish	-11.3484
invites	-11.3484
nest	-11.3487
-000077	-11.349
▁revenues	-11.3491
tamatio	-11.3493
▁mccain	-11.3494
intruders	-11.3495
gazette	-11.3495
astronomy	-11.3495
caffeine	-11.3495
elephant	-11.3495
influential	-11.3495
inauguration	-11.3495
etc	-11.3495
kottke	-11.3495
yammer	-11.3495
trigger	-11.3495
▁charity	-11.3495
eukhost	-11.3495
lenovo	-11.3495
neural	-11.3495
greenspan	-11.3495
transplant	-11.3496
guard	-11.3496
clothing	-11.3496
/2008/07/28/	-11.3496
magnetic	-11.3496
nyregion	-11.3496
cliff	-11.3496
625	-11.3497
spell	-11.3497
9,00.	-11.3497
parsing	-11.3498
sick	-11.3498
donald	-11.3498
=2007	-11.3498
/2009/09/03/	-11.3498
/2009/09/01/	-11.3499
editorial	-11.35
ridge	-11.35
walmart	-11.35
cute	-11.3501
webmaster	-11.3501
▁select	-11.3502
analog	-11.3502
/2008/05/19/	-11.3502
/2008/03/20/	-11.3502
/2008/07/30/	-11.3502
/2008/09/15/	-11.3503
/2008/09/22/	-11.3503
/2008/05/29/	-11.3503
kelly	-11.3503
/2009/06/16/	-11.3504
/2008/10/30/	-11.3504
/2008/12/15/	-11.3504
/2009/04/16/	-11.3504
compute	-11.3505
/2009/02/18/	-11.3506
/2009/06/03/	-11.3506
/2008/06/11/	-11.3506
prius	-11.3506
sponsored	-11.3507
extract	-11.3507
bini	-11.3507
▁50%	-11.3507
banner	-11.3508
htc	-11.3508
▁sunday	-11.3508
▁branding	-11.3508
/2008/08/11/	-11.3508
810	-11.351
doubleclick	-11.351
/2008/10/02/	-11.351
/2009/02/09/	-11.3511
antivirus	-11.3513
artisan	-11.3513
cern	-11.3514
▁interested	-11.3517
/2009/04/08/	-11.3517
/2009/05/08/	-11.3517
▁disney	-11.352
/2009/7/	-11.3522
▁technorati	-11.3522
drum	-11.3524
bump	-11.3525
▁cop	-11.3525
keepontalkingcom	-11.3526
jn	-11.3527
▁breast	-11.3527
699	-11.3527
tourism	-11.3528
critics	-11.3529
▁coupons	-11.3531
▁leaders	-11.3532
disclosure	-11.3533
eagle	-11.3535
berlin	-11.3535
▁horse	-11.3536
lit	-11.3538
▁alive	-11.3541
rubyforge	-11.3542
lc	-11.3542
▁fixed	-11.3547
longer	-11.3548
-2009-4	-11.355
rescuetime	-11.355
phy	-11.3551
▁friendly	-11.3551
kills	-11.3551
▁society	-11.3551
idol	-11.3552
azam	-11.3552
elect	-11.3554
wild	-11.3558
=137	-11.3559
fatal	-11.3563
▁reveal	-11.3565
fringe	-11.3566
lecture	-11.3568
justice	-11.3571
gui	-11.3577
_11	-11.3581
▁result	-11.3595
▁interpreter	-11.36
▁appengine	-11.3602
announcement	-11.3603
hpc	-11.3605
▁2.5	-11.3616
require	-11.3616
hh	-11.3624
titles	-11.3628
addon	-11.3629
hed	-11.3634
878	-11.3636
urls	-11.3638
▁explanation	-11.3642
died	-11.3643
▁recipes	-11.3647
reboot	-11.3647
▁proxy	-11.3648
mq	-11.3652
▁webkit	-11.3656
alexa	-11.3659
nail	-11.3659
▁solving	-11.3662
995	-11.3662
broke	-11.3668
tent	-11.3668
▁thailand	-11.3671
▁required	-11.3671
demos	-11.3672
▁screw	-11.3676
dork	-11.3677
william	-11.3679
▁managers	-11.3682
drama	-11.3684
▁collider	-11.3685
548	-11.3686
▁sem	-11.3686
▁reserve	-11.3689
thisis	-11.369
▁noise	-11.3691
576	-11.3692
938	-11.3693
mun	-11.3694
▁housing	-11.3696
ndmail	-11.3699
▁evolutionary	-11.3702
▁dropbox	-11.3703
▁shift	-11.3706
▁trillion	-11.3713
lotus	-11.3714
▁miss	-11.3717
▁pool	-11.3717
mov	-11.372
predicts	-11.3726
▁detect	-11.3727
▁traditional	-11.3728
970	-11.3729
behavior	-11.3731
▁tea	-11.3731
▁teens	-11.3733
▁feeling	-11.3735
steal	-11.374
▁purpose	-11.3742
▁wheel	-11.3746
▁square	-11.3746
appengine	-11.3749
effectively	-11.3752
563	-11.3752
445	-11.3753
▁shrinking	-11.3756
specific	-11.3757
/08/11/	-11.3757
academic	-11.3757
complexity	-11.3759
crowdsourcing	-11.3759
prison	-11.3759
famous	-11.3759
manual	-11.376
succeed	-11.376
exercise	-11.376
anonymous	-11.376
satellite	-11.376
protocol	-11.376
police	-11.3761
survive	-11.3761
ultra	-11.3761
written	-11.3761
outsourcing	-11.3763
seat	-11.3763
▁note	-11.3763
golf	-11.3764
powerpoint	-11.3764
▁converter	-11.3764
experts	-11.3765
hw	-11.3768
australian	-11.377
ugh	-11.3775
▁moment	-11.3782
atoz	-11.3783
define	-11.3783
▁journey	-11.3784
remember	-11.3785
dzone	-11.3786
▁counter	-11.3787
▁interfaces	-11.3789
downtime	-11.3791
▁overflow	-11.3794
shaw	-11.3795
0903	-11.3795
lag	-11.3797
=52	-11.3798
▁everybody	-11.38
789	-11.3801
▁cellphone	-11.3803
802	-11.3804
pushing	-11.3805
▁demos	-11.3809
▁jon	-11.3809
keys	-11.3812
▁yelp	-11.3813
▁recognition	-11.3814
failed	-11.3815
sponsor	-11.3816
blow	-11.3818
▁accident	-11.3819
banking	-11.3822
fighting	-11.3825
bankrupt	-11.3828
ridiculous	-11.3828
february	-11.3828
catalyst	-11.3828
controversy	-11.3828
dinosaur	-11.3828
surviving	-11.3828
fantastic	-11.3828
festival	-11.3828
muxtape	-11.3828
optimal	-11.3828
centric	-11.3828
confidence	-11.3828
initiative	-11.3828
anniversary	-11.3828
gambling	-11.3828
sudoku	-11.3828
democrat	-11.3828
scandal	-11.3828
fallacy	-11.3828
presence	-11.3829
perkins	-11.3829
brought	-11.3829
sentence	-11.3829
inquisit	-11.3829
signature	-11.3829
retain	-11.383
initial	-11.383
perils	-11.383
tokyo	-11.383
awareness	-11.383
royalty	-11.383
/2009/02/12/	-11.3831
siliconvalley	-11.3831
sustainable	-11.3832
fatcow	-11.3832
searches	-11.3832
tier	-11.3833
nam	-11.3834
honest	-11.3834
linked	-11.3834
▁reward	-11.3835
/2008/06/27/	-11.3836
940	-11.3836
/2008/06/03/	-11.3837
/2008/09/18/	-11.3837
/2008/08/20/	-11.3838
/2009/02/26/	-11.3838
theorem	-11.3838
/2009/06/19/	-11.3838
/2008/12/18/	-11.3839
/2009/05/13/	-11.384
pep	-11.384
/2008/11/07/	-11.3841
▁batteries	-11.3842
▁marriage	-11.3842
/2009/03/06/	-11.3842
/2008/12/01/	-11.3842
/2009/03/05/	-11.3842
/2009/06/10/	-11.3843
/2009/06/04/	-11.3844
storing	-11.3844
/2009/06/11/	-11.3845
▁20%	-11.3846
006	-11.3847
fabric	-11.3848
godaddy	-11.3849
640	-11.3851
lau	-11.3851
redux	-11.3852
unknown	-11.3853
▁football	-11.3856
959	-11.3858
▁keys	-11.3859
643	-11.3861
▁import	-11.3864
eur	-11.3865
sect	-11.3871
560	-11.3872
599	-11.3875
▁dreams	-11.3878
=39	-11.3885
▁toyota	-11.3885
rockstar	-11.3888
833	-11.3889
749	-11.389
evernote	-11.389
loses	-11.3894
▁pros	-11.3894
▁powerset	-11.3898
▁rental	-11.3899
▁academic	-11.39
▁screenshots	-11.3901
▁outlook	-11.3901
misses	-11.3904
places	-11.3905
forest	-11.3908
▁powerpoint	-11.3908
▁trick	-11.391
loo	-11.3916
audit	-11.3918
=%7	-11.3922
▁compare	-11.3922
▁htc	-11.3925
recipe	-11.3925
drug	-11.3927
celebrate	-11.3928
▁laid	-11.393
element	-11.3932
▁adwords	-11.3932
screenshots	-11.3932
rump	-11.3941
▁bag	-11.3941
autopost	-11.3943
globea	-11.3945
▁fedora	-11.3958
▁critical	-11.3959
▁blank	-11.3962
lens	-11.3964
▁acquisitions	-11.3964
▁fitness	-11.3964
levi	-11.3968
him	-11.397
▁character	-11.3973
913	-11.3974
283	-11.3975
epic	-11.3976
▁indie	-11.3982
lining	-11.3986
▁dump	-11.399
perform	-11.3994
dow	-11.3997
mixx	-11.3999
means	-11.4002
▁relationships	-11.4004
▁rentals	-11.4004
808	-11.4012
reporter	-11.4014
752	-11.4015
newsroom	-11.4016
▁lies	-11.4018
xx	-11.4021
805	-11.4025
▁mob	-11.4029
947	-11.403
asian	-11.403
335	-11.4031
cuil	-11.4035
▁oh	-11.4035
▁reputation	-11.4038
▁packages	-11.4039
976	-11.4045
▁ron	-11.4051
▁scores	-11.4056
hk	-11.4062
980	-11.4063
▁garden	-11.4065
kicks	-11.4068
bans	-11.4069
▁normal	-11.4069
▁disease	-11.407
eva	-11.4073
891	-11.4073
▁stake	-11.4075
invisible	-11.408
atom	-11.4081
▁context	-11.4083
▁jail	-11.4084
▁praise	-11.4086
jk	-11.4086
humans	-11.4094
walker	-11.4098
▁applied	-11.4098
▁anderson	-11.41
▁treat	-11.4102
exit	-11.4106
spend	-11.4107
667	-11.411
▁drawing	-11.4114
simplicity	-11.4114
zappos	-11.4114
toyota	-11.4114
society	-11.4115
africa	-11.4116
charging	-11.4116
eclipse	-11.4116
bang	-11.4116
jerry	-11.4116
coffee	-11.4116
recommendation	-11.4116
bandwidth	-11.4117
rackspace	-11.4117
▁processor	-11.4117
salesforce	-11.4117
promotion	-11.4118
redirect	-11.412
▁mega	-11.4123
=124	-11.4124
francisco	-11.4124
ugly	-11.4127
▁moore	-11.4127
▁haven	-11.4128
myths	-11.4129
alarm	-11.4131
777	-11.4131
▁inspiration	-11.4132
powerset	-11.4132
▁guitar	-11.4134
native	-11.4139
601	-11.4141
292	-11.4144
hive	-11.4147
clients	-11.4147
▁objective	-11.4147
someone	-11.4148
teaching	-11.4149
outage	-11.4152
2022	-11.4155
period	-11.4155
▁xmpp	-11.4157
▁survival	-11.4158
elon	-11.4161
confidential	-11.4164
scp	-11.4164
467	-11.4165
fractal	-11.4165
714	-11.4166
demon	-11.4171
loopt	-11.4171
▁elevator	-11.4172
▁roll	-11.4173
gabriel	-11.4173
vault	-11.4173
december	-11.4173
fuseaction	-11.4173
guarantee	-11.4173
surveillance	-11.4173
ecmascript	-11.4173
stumble	-11.4173
regarding	-11.4173
faculty	-11.4173
repository	-11.4173
themselves	-11.4173
calculus	-11.4173
description	-11.4173
vnunet	-11.4173
overhaul	-11.4173
heaven	-11.4173
capacity	-11.4173
hotornot	-11.4173
further	-11.4173
dobbs	-11.4173
lonely	-11.4173
extinct	-11.4173
netscape	-11.4174
conspiracy	-11.4174
priority	-11.4174
▁rejected	-11.4174
conquer	-11.4174
curious	-11.4175
inheritance	-11.4175
popsci	-11.4175
3,00.	-11.4175
▁soul	-11.4175
hunch	-11.4175
didnt	-11.4176
▁airlines	-11.4176
0,00.	-11.4177
/2008/11/12/	-11.4177
▁mining	-11.4177
▁inbox	-11.4179
aapl	-11.4179
pants	-11.4179
/2008/02/27/	-11.418
/2008/02/19/	-11.418
/2008/03/25/	-11.418
riot	-11.418
/2008/03/27/	-11.418
wolframalpha	-11.418
grok	-11.418
/2008/07/17/	-11.418
/2008/04/25/	-11.418
longtail	-11.4181
/2008/03/21/	-11.4181
/2008/07/22/	-11.4181
/2008/03/18/	-11.4182
/2008/10/16/	-11.4182
/2008/11/17/	-11.4182
▁bust	-11.4182
/2008/04/24/	-11.4183
608	-11.4183
ownership	-11.4183
joyent	-11.4183
▁rejects	-11.4184
/2009/01/23/	-11.4184
/2009/04/13/	-11.4185
/2008/06/02/	-11.4185
/2008/09/10/	-11.4185
/2008/07/10/	-11.4186
/2009/04/03/	-11.4187
▁monday	-11.4187
▁sweet	-11.4187
western	-11.4188
branch	-11.4189
▁born	-11.419
/2009/04/07/	-11.4191
/2009/07/10/	-11.4191
startupnorth	-11.4192
evaluation	-11.4192
restrict	-11.4193
313	-11.4194
/2009/08/07/	-11.4194
▁cart	-11.4195
releasing	-11.4197
runner	-11.4197
▁rank	-11.4199
solaris	-11.42
▁sheets	-11.4201
934	-11.4202
▁risks	-11.4202
combinators	-11.4203
radiohead	-11.4204
▁ssd	-11.4204
▁damn	-11.4205
1205	-11.4208
▁weather	-11.4208
▁upload	-11.421
speaks	-11.4213
wonderful	-11.4213
flag	-11.4215
portland	-11.4217
acne	-11.4219
▁experiences	-11.4221
debuts	-11.4222
newbie	-11.4225
543	-11.4228
828	-11.4229
quant	-11.423
▁marketers	-11.423
▁brad	-11.4232
▁zappos	-11.4232
▁ugly	-11.4232
▁alarm	-11.4234
dick	-11.4241
▁prison	-11.4246
deeplink	-11.4248
analyze	-11.4249
dsc	-11.425
▁meetings	-11.4252
glue	-11.4254
533	-11.4257
jd	-11.4266
unemployment	-11.4269
updated	-11.427
jw	-11.4275
▁healthy	-11.4281
▁ecommerce	-11.4282
happen	-11.4283
496	-11.4288
profiles	-11.4289
▁perform	-11.429
177	-11.429
wallpapers	-11.4291
▁shark	-11.4296
▁merge	-11.4296
package	-11.43
limit	-11.43
859	-11.4302
▁builder	-11.4302
coders	-11.4303
tuck	-11.4303
▁bridge	-11.4308
container	-11.4313
threaded	-11.4313
lore	-11.4313
mojo	-11.432
602	-11.4326
neu	-11.4326
snap	-11.4327
gia	-11.433
smaller	-11.433
781	-11.4333
▁movement	-11.4334
▁equal	-11.4334
578	-11.4338
drops	-11.4342
exist	-11.4343
▁landing	-11.4348
tek	-11.4354
▁experimental	-11.4364
=32	-11.437
requires	-11.4371
634	-11.4374
▁zealand	-11.4377
sheets	-11.4383
▁alert	-11.439
▁simulation	-11.4392
378	-11.4396
methods	-11.4399
▁attend	-11.4402
▁mumbai	-11.4407
915	-11.441
each	-11.441
shoe	-11.4413
=3&	-11.4414
fsb	-11.4421
▁individual	-11.4422
▁rapid	-11.4426
captcha	-11.4427
▁sam	-11.4427
359	-11.4435
515	-11.4441
plat	-11.4441
bingo	-11.4442
includes	-11.445
▁einstein	-11.4453
▁mom	-11.4456
▁owner	-11.4457
▁computation	-11.4458
judge	-11.4461
chronicles	-11.4466
▁outsource	-11.4468
thesubway	-11.4468
▁anyway	-11.4472
deliver	-11.4476
ofsoftware	-11.448
halt	-11.4481
▁authentication	-11.4484
phoenix	-11.4484
october	-11.4484
sequoia	-11.4485
horse	-11.4485
cartoon	-11.4485
disney	-11.4485
visitors	-11.4485
monetization	-11.4486
screw	-11.4486
scoble	-11.4486
monster	-11.4487
libraries	-11.4487
augmented	-11.4487
console	-11.4487
sorry	-11.4487
▁safety	-11.4487
darwin	-11.4488
390	-11.4488
dangerous	-11.4488
summary	-11.4488
mj	-11.4489
omni	-11.449
original	-11.4493
fastest	-11.4494
▁turk	-11.4494
continu	-11.4495
▁rolls	-11.4495
▁cult	-11.4497
▁debut	-11.4498
hunk	-11.4499
recent	-11.4499
▁solid	-11.4499
▁generated	-11.4499
▁bottom	-11.45
▁palin	-11.4506
satisfaction	-11.4508
3%	-11.4508
454	-11.4511
▁tape	-11.4511
forward	-11.4512
▁hall	-11.4513
▁errors	-11.4513
outlook	-11.4514
▁casino	-11.4514
takeover	-11.4516
=45	-11.4518
turing	-11.4519
ode	-11.4521
▁providers	-11.4524
same	-11.4525
▁worry	-11.4527
▁falls	-11.4528
bootstrap	-11.4528
impressions	-11.453
chiang	-11.453
thieves	-11.453
schwartz	-11.453
balancing	-11.453
plentyoffish	-11.453
avinio	-11.453
chopra	-11.453
seinfeld	-11.453
mixergy	-11.453
demonstrate	-11.453
yesterday	-11.453
volume	-11.453
contrast	-11.453
shirky	-11.453
treadmill	-11.453
/8301-13505_3-10	-11.453
compatible	-11.453
persistent	-11.453
promising	-11.453
saturday	-11.453
accurate	-11.453
church	-11.453
guilty	-11.453
escort	-11.453
empty	-11.453
▁publishers	-11.453
cruise	-11.453
purple	-11.4531
=5124&	-11.4531
cornell	-11.4531
declining	-11.4531
several	-11.4531
renewable	-11.4531
▁9.04	-11.4531
dancing	-11.4531
lamthem	-11.4532
legend	-11.4532
/2008/08/28/	-11.4532
cosmic	-11.4532
akita	-11.4532
/2008/06/12/	-11.4532
▁boxee	-11.4532
fowa	-11.4533
▁tri	-11.4533
friedman	-11.4534
/2009/05/12/	-11.4534
england	-11.4534
jwz	-11.4535
dispatch	-11.4536
photobucket	-11.4536
▁robotic	-11.4537
settle	-11.4537
/2008/03/13/	-11.4537
rogue	-11.4537
iraq	-11.4538
/2008/05/30/	-11.4538
miami	-11.4538
/2008/06/30/	-11.4538
nasty	-11.4538
/2008/05/15/	-11.4539
lego	-11.4539
toilet	-11.454
/2008/07/24/	-11.4542
/2008/08/06/	-11.4542
/2009/06/18/	-11.4543
align	-11.4543
/2008/07/07/	-11.4543
/2008/08/07/	-11.4544
/2008/08/01/	-11.4544
recruiting	-11.4544
/2008/09/11/	-11.4544
remains	-11.4544
/2009/01/11/	-11.4545
/2008/12/10/	-11.4545
▁caching	-11.4545
▁league	-11.4545
▁chess	-11.4547
scammer	-11.4548
cw	-11.4548
/2009/01/08/	-11.4548
mario	-11.4549
/2009/05/01/	-11.4549
▁sued	-11.4549
/2008/10/09/	-11.455
▁angels	-11.455
200711	-11.4551
transformation	-11.4555
benchmarking	-11.4556
spammer	-11.4558
highly	-11.456
giveaway	-11.4561
▁discovered	-11.4563
scoop	-11.4563
687	-11.4563
▁inner	-11.4564
vh	-11.4567
dh	-11.4568
804	-11.4569
346	-11.4569
indie	-11.457
swim	-11.457
encyclopedia	-11.4571
▁dsl	-11.4574
433	-11.4574
889	-11.4575
▁anymore	-11.4575
hitting	-11.4576
burger	-11.4576
▁sequoia	-11.4576
statistics	-11.4576
shouldnt	-11.4576
whitehouse	-11.4576
▁cartoon	-11.4577
▁faq	-11.4583
continued	-11.4585
▁mad	-11.4586
▁specific	-11.4589
desi	-11.4589
electron	-11.459
▁simplicity	-11.4592
933	-11.4594
▁wallpapers	-11.4595
dyson	-11.4597
▁ror	-11.4601
801	-11.4602
por	-11.4604
▁adopt	-11.4606
wales	-11.4609
1%	-11.4611
healthy	-11.4621
▁rack	-11.4621
totally	-11.4622
▁closes	-11.4622
▁peek	-11.4623
cred	-11.4624
lemon	-11.4628
tsp	-11.4629
handbook	-11.4633
557	-11.4636
swf	-11.4639
delhi	-11.4639
▁rfid	-11.4643
▁embedded	-11.4644
applying	-11.4653
actor	-11.4655
admits	-11.4657
openoffice	-11.466
disable	-11.4662
▁requests	-11.4663
farmer	-11.4664
mesh	-11.4664
ique	-11.4667
annoying	-11.4683
dsl	-11.4685
▁him	-11.4686
771	-11.4687
dur	-11.4689
wikimedia	-11.4689
▁driver	-11.4696
beam	-11.4697
grad	-11.4703
matching	-11.4705
olympic	-11.4713
layoff	-11.4714
counting	-11.472
▁cambridge	-11.4726
▁range	-11.4727
screenshot	-11.4731
rpg	-11.4732
521	-11.4734
rdf	-11.4736
▁telescope	-11.4741
dining	-11.4741
▁confirmed	-11.4743
wm	-11.4745
555	-11.4746
revenues	-11.475
▁express	-11.4756
amd	-11.4756
▁aggregator	-11.4757
058	-11.4758
gae	-11.4761
searching	-11.4762
pushes	-11.4762
▁unite	-11.4765
margin	-11.4766
▁intelligent	-11.4767
581	-11.4767
▁pack	-11.4768
071	-11.4773
cmag	-11.4776
uw	-11.4778
▁kay	-11.4781
▁favor	-11.4789
▁$250	-11.479
audi	-11.4792
deadline	-11.4793
622	-11.4795
▁scrap	-11.4797
named	-11.4799
▁boring	-11.4805
twine	-11.481
740	-11.4813
thesis	-11.4814
announcements	-11.4816
▁freedom	-11.482
▁george	-11.482
▁fantasy	-11.4821
▁murdoch	-11.4821
▁afraid	-11.4821
aaa	-11.4824
watt	-11.4825
547	-11.4834
666	-11.4836
▁integrated	-11.4836
returns	-11.4837
974	-11.4839
plc	-11.4839
textbook	-11.4843
▁query	-11.4844
▁nintendo	-11.4852
▁suicide	-11.4852
▁quickly	-11.4856
790	-11.4857
▁met	-11.4858
=54	-11.4862
accept	-11.4865
suggest	-11.4865
crawl	-11.4866
ellis	-11.4867
inspiration	-11.4868
cognitive	-11.4868
relationship	-11.4868
▁simply	-11.4868
lyrics	-11.4868
premium	-11.4869
intellectual	-11.4869
birth	-11.4869
technorati	-11.487
football	-11.487
incredible	-11.487
▁warren	-11.487
animation	-11.4871
▁puzzles	-11.4871
embrace	-11.4871
beginning	-11.4871
▁pagerank	-11.4871
benefits	-11.4871
christmas	-11.4871
political	-11.4872
canadian	-11.4872
minimal	-11.4872
▁goldman	-11.4876
580	-11.4876
pressrelease	-11.4878
449	-11.4878
slowly	-11.4879
bram	-11.488
▁ning	-11.4881
rake	-11.4882
steel	-11.4884
▁emerging	-11.4884
475	-11.4886
gist	-11.4887
logger	-11.4889
decline	-11.4889
▁habits	-11.4891
celeb	-11.4891
▁yard	-11.4893
carrier	-11.4894
poke	-11.4896
damn	-11.4897
lulu	-11.4898
▁signal	-11.4898
authentic	-11.4899
quadband	-11.49
crystal	-11.4901
january	-11.4901
sinatra	-11.4901
pandemic	-11.4901
vodafone	-11.4901
technium	-11.4901
administration	-11.4901
latitude	-11.4901
procrastination	-11.4901
malcolm	-11.4901
gesture	-11.4901
naruto	-11.4901
typical	-11.4901
minimum	-11.4901
christian	-11.4901
etherpad	-11.4901
consequences	-11.4901
plunge	-11.4901
slicehost	-11.4901
/2006/12/	-11.4901
transport	-11.4901
forgotten	-11.4901
maximum	-11.4901
portrait	-11.4901
truemors	-11.4901
aaronson	-11.4901
princeton	-11.4901
espn	-11.4902
doubt	-11.4902
museum	-11.4902
above	-11.4902
movable	-11.4903
▁lights	-11.4903
▁closures	-11.4903
announced	-11.4904
victim	-11.4904
llvm	-11.4904
armstrong	-11.4906
colour	-11.4906
862	-11.4906
securitymatters	-11.4907
handbag	-11.4907
/2008/12/31/	-11.4908
/2009/09/08/	-11.4908
lord	-11.4908
centos	-11.4908
economictimes	-11.4908
/2008/06/19/	-11.4909
bonuses	-11.4909
/2008/08/14/	-11.4909
/2008/09/25/	-11.491
locate	-11.491
▁parents	-11.491
=131	-11.491
/2009/03/16/	-11.4911
/2008/07/03/	-11.4911
/2008/06/24/	-11.4911
/2009/02/27/	-11.4912
100000	-11.4912
/2009/04/26/	-11.4912
rapid	-11.4913
/2008/09/05/	-11.4913
handy	-11.4913
/2009/05/15/	-11.4913
mpl	-11.4914
eetimes	-11.4914
/2009/07/19/	-11.4914
unexpected	-11.4914
▁lcd	-11.4915
/2008/10/23/	-11.4916
urmu	-11.4919
twisted	-11.4919
/2009/04/01/	-11.492
delayed	-11.4921
/2009/07/01/	-11.4921
dry	-11.4922
/2008/12/08/	-11.4922
schema	-11.4924
0801	-11.4928
ocw	-11.4929
airplane	-11.4931
dealbook	-11.4932
▁intellectual	-11.4932
dropping	-11.4933
betting	-11.4934
iam	-11.4935
presidential	-11.4935
studios	-11.4936
pimp	-11.4938
gnip	-11.4938
▁capitalist	-11.4939
labno	-11.494
▁luck	-11.4941
rational	-11.4941
connecting	-11.4943
omnia	-11.4948
▁darwin	-11.4948
▁october	-11.4949
▁impressions	-11.4949
▁buyers	-11.4949
939	-11.4949
cfo	-11.4956
comedy	-11.4958
keepingthe	-11.4962
▁technique	-11.4963
▁bebo	-11.4964
▁rackspace	-11.4966
▁deploy	-11.4968
874	-11.4969
richest	-11.4971
surpass	-11.4972
407	-11.4976
▁suite	-11.4976
considering	-11.4977
inspirational	-11.4978
shutdown	-11.4981
psy	-11.4981
stickers	-11.4981
▁speaks	-11.4988
lv	-11.499
onlamp	-11.4993
4%25	-11.4995
▁phishing	-11.4997
588	-11.5005
frank	-11.5008
billboard	-11.5009
▁hide	-11.5012
brands	-11.5014
▁mine	-11.5017
overnight	-11.5018
uh	-11.5018
▁eight	-11.5019
▁sharp	-11.502
▁reform	-11.502
▁opening	-11.5021
▁gut	-11.5023
▁september	-11.5029
▁salary	-11.5038
messages	-11.5039
neat	-11.504
lil	-11.5045
827	-11.5048
held	-11.5048
scienceand	-11.5051
awards	-11.5051
fonts	-11.5058
▁competitors	-11.5061
heel	-11.5066
▁berkeley	-11.5068
903	-11.5078
mistake	-11.5083
-19-	-11.5085
▁threatens	-11.5088
badge	-11.5091
▁garbage	-11.5104
▁infringement	-11.5104
▁vehicle	-11.5104
▁conversations	-11.5104
laid	-11.5108
habit	-11.5109
▁gear	-11.511
▁summit	-11.5112
pile	-11.5114
▁relationship	-11.5119
▁nbc	-11.5119
▁accessories	-11.512
▁nightmare	-11.512
freebase	-11.5123
▁zoho	-11.5127
sees	-11.513
10000	-11.5132
meetings	-11.5135
▁island	-11.5137
moment	-11.5138
wallpaper	-11.5142
fade	-11.5143
325	-11.5145
▁jim	-11.5146
predict	-11.5147
▁winter	-11.5148
=42	-11.515
▁gains	-11.5153
▁completely	-11.5154
▁goals	-11.5154
671	-11.5157
bz	-11.5157
▁guidelines	-11.5158
zim	-11.5158
▁torrent	-11.5159
losing	-11.5162
▁britain	-11.5169
▁partnership	-11.517
inspire	-11.5175
▁brands	-11.5177
▁cheaper	-11.5177
921	-11.5181
tdd	-11.5181
replace	-11.5183
▁religion	-11.5186
=78	-11.5188
▁male	-11.5188
825	-11.519
▁checklist	-11.5191
penis	-11.5192
969	-11.5195
▁seriously	-11.5198
▁injection	-11.5202
born	-11.5206
officially	-11.5206
ufo	-11.5211
peak	-11.5217
▁productive	-11.5218
futureof	-11.5222
terms	-11.5223
▁ipv	-11.5226
jq	-11.5226
1002	-11.5232
683	-11.5233
aster	-11.5233
▁promises	-11.524
▁useless	-11.5241
▁promo	-11.5243
▁focused	-11.5246
understand	-11.5255
jokes	-11.5255
▁thu	-11.5256
482	-11.5258
alerts	-11.5258
jb	-11.526
▁gate	-11.5263
=37	-11.5268
triple	-11.5268
▁illusion	-11.5269
▁utility	-11.5269
league	-11.5269
marriage	-11.5269
batteries	-11.5269
▁members	-11.527
empire	-11.527
sweet	-11.5271
taste	-11.5271
schmidt	-11.5271
beauty	-11.5271
neutrality	-11.5272
collapse	-11.5273
ero	-11.5273
license	-11.5273
extreme	-11.5273
illegal	-11.5273
warming	-11.5274
caching	-11.5275
karma	-11.5276
significant	-11.5279
largest	-11.5281
▁primer	-11.5283
monday	-11.5283
mortem	-11.5284
shareholder	-11.5284
establish	-11.5285
validate	-11.5285
phusion	-11.5285
bacteria	-11.5285
malicious	-11.5285
yehuda	-11.5285
communicate	-11.5285
paradigm	-11.5285
persistence	-11.5285
reservation	-11.5285
ringtones	-11.5285
ozzie	-11.5285
applicants	-11.5285
comprehensive	-11.5285
temporary	-11.5285
buddy	-11.5285
recursion	-11.5285
wetpaint	-11.5285
thrill	-11.5285
wwln	-11.5285
murder	-11.5285
swedish	-11.5285
faith	-11.5285
civil	-11.5285
segway	-11.5285
routine	-11.5285
fossil	-11.5286
/2006/11/	-11.5286
silent	-11.5286
particletree	-11.5287
admissions	-11.5287
verified	-11.5287
georgia	-11.5287
▁linus	-11.5287
/2008/05/12/	-11.5287
breed	-11.5288
grammar	-11.5289
/2008/12/12/	-11.5289
lastfm	-11.5289
▁classes	-11.529
zimbra	-11.5291
jetpack	-11.5292
/2008/06/16/	-11.5292
pound	-11.5292
/2008/02/22/	-11.5292
/2008/10/31/	-11.5293
/2008/06/26/	-11.5293
/2008/02/25/	-11.5293
packaging	-11.5293
angels	-11.5295
/2008/07/27/	-11.5295
▁wear	-11.5295
betterexplained	-11.5295
/2008/11/13/	-11.5296
/2008/10/26/	-11.5296
/2009/06/26/	-11.5297
▁taken	-11.5298
/2008/10/03/	-11.5298
/2009/07/26/	-11.5299
/2008/12/23/	-11.5299
/2008/07/11/	-11.53
▁tried	-11.53
profiling	-11.5301
▁tracks	-11.5301
571	-11.5301
infra	-11.5301
/2008/09/09/	-11.5302
tavo	-11.5303
/2008/12/29/	-11.5303
recommended	-11.5303
/2008/07/08/	-11.5304
arctic	-11.5304
cream	-11.5313
▁rocket	-11.5314
madoff	-11.5315
engineyard	-11.5316
▁sight	-11.5318
▁lyrics	-11.5319
▁premium	-11.5319
hedge	-11.5319
controlled	-11.532
statuses	-11.5322
minor	-11.5323
prosper	-11.5323
import	-11.5324
thru	-11.5325
2%	-11.5325
tickets	-11.533
unlock	-11.5331
911	-11.5332
nearly	-11.5334
junkie	-11.5338
cacm	-11.5344
968	-11.5347
ditch	-11.5348
779	-11.5348
652	-11.5352
processors	-11.5358
▁hires	-11.5362
832	-11.5362
▁foot	-11.5365
▁following	-11.5369
▁writer	-11.537
▁accounting	-11.5371
joel	-11.5371
role	-11.5372
▁:)	-11.5372
▁threads	-11.5374
pj	-11.5379
dw	-11.5383
painting	-11.5383
bmw	-11.5384
642	-11.5388
appjet	-11.5388
▁sue	-11.5391
zh	-11.5393
estate	-11.5395
▁forward	-11.5398
▁profiles	-11.5399
▁coders	-11.5409
howard	-11.541
395	-11.541
dish	-11.5412
prweb	-11.5417
heard	-11.5421
helpful	-11.5422
vx	-11.5423
▁statement	-11.5427
postid	-11.543
dale	-11.543
petition	-11.5431
458	-11.5435
hundreds	-11.5435
▁flying	-11.5436
lcd	-11.5439
struct	-11.544
881	-11.5444
▁knock	-11.5445
▁detroit	-11.5445
cents	-11.5451
▁corporation	-11.5453
793	-11.5456
849	-11.5457
▁begin	-11.546
catid	-11.5462
abel	-11.5463
▁ssl	-11.5468
▁rush	-11.5474
/126	-11.5475
803	-11.5477
▁pin	-11.5478
▁obsolete	-11.5479
▁injury	-11.5479
633	-11.548
kw	-11.548
▁billing	-11.5481
861	-11.5482
▁union	-11.5484
▁tags	-11.5484
▁alone	-11.5486
drugs	-11.5491
fsf	-11.5492
continue	-11.5492
wj	-11.5493
▁determine	-11.5496
▁engagement	-11.5496
mud	-11.55
across	-11.5501
+%2	-11.5502
lovers	-11.5502
▁harmful	-11.5504
0812	-11.5505
qq	-11.5511
targets	-11.5512
▁restaurant	-11.5513
▁serial	-11.5513
▁valuable	-11.5513
1600	-11.5517
director	-11.5519
498	-11.5521
servicelive	-11.5526
freeze	-11.5528
▁router	-11.553
▁distraction	-11.5531
▁menu	-11.5532
▁players	-11.5533
▁trolls	-11.5536
vita	-11.5543
855	-11.5546
884	-11.5548
▁quietly	-11.5548
/0009	-11.555
▁oldest	-11.5551
beep	-11.5551
▁beginner	-11.5555
▁actual	-11.5558
/08/10/	-11.5559
▁bright	-11.5559
▁benchmarks	-11.5559
▁invites	-11.5564
▁element	-11.5564
▁execs	-11.5571
award	-11.5574
lion	-11.5578
zx	-11.5582
▁consultant	-11.5582
▁researcher	-11.5584
labels	-11.5594
=207	-11.5596
▁consolidation	-11.5599
▁navigation	-11.5599
appstore	-11.5607
▁presentations	-11.5609
balls	-11.5619
cul	-11.562
401	-11.5622
▁meebo	-11.5634
knowing	-11.5636
484	-11.5638
▁reinvent	-11.5638
toward	-11.5641
751	-11.5645
945	-11.5645
casting	-11.5646
717	-11.5646
▁amd	-11.5648
luc	-11.5649
=138	-11.5654
▁blocking	-11.5656
awful	-11.566
586	-11.5661
775	-11.5663
tivo	-11.5664
200707	-11.5665
▁eee	-11.5672
▁lamp	-11.5673
725	-11.5676
bucket	-11.5677
953	-11.5677
955	-11.5678
except	-11.568
▁compile	-11.568
skeptic	-11.5681
mirror	-11.5684
pollution	-11.5685
sarah	-11.5685
pavlina	-11.5685
1000142405297020	-11.5685
flavor	-11.5685
prince	-11.5685
desperate	-11.5685
murphy	-11.5685
expense	-11.5685
dedicated	-11.5685
exploding	-11.5685
instigator	-11.5685
remedies	-11.5685
rubinius	-11.5685
behaviour	-11.5685
immigrant	-11.5685
wednesday	-11.5685
elegant	-11.5685
singapore	-11.5685
crockford	-11.5685
exciting	-11.5685
macintosh	-11.5685
apparently	-11.5685
atlantis	-11.5685
fannie	-11.5685
plaxo	-11.5685
cigarette	-11.5685
length	-11.5685
▁internship	-11.5685
pentagon	-11.5685
▁honda	-11.5685
heavy	-11.5685
▁sarah	-11.5686
▁consulting	-11.5686
character	-11.5686
sweden	-11.5686
parrot	-11.5686
elevator	-11.5686
doctorow	-11.5686
sivers	-11.5686
commandments	-11.5686
mccain	-11.5686
inspiring	-11.5686
factoryjoe	-11.5687
▁dhh	-11.5687
dallas	-11.5687
powershell	-11.5687
adult	-11.5687
hubble	-11.5687
silly	-11.5687
mootools	-11.5687
8,00.	-11.5688
generating	-11.5688
▁bang	-11.5688
syntax	-11.5688
▁powershell	-11.5688
angry	-11.5688
weaver	-11.5688
/2009/01/12/	-11.5688
regular	-11.5689
submission	-11.5689
blood	-11.5689
breakthrough	-11.5689
nuclear	-11.5689
approves	-11.5689
/2009/06/12/	-11.5689
honda	-11.5691
consulting	-11.5691
swiss	-11.5692
▁vegas	-11.5692
▁advertisers	-11.5692
/2008/03/30/	-11.5693
/2008/04/16/	-11.5693
/2008/04/30/	-11.5693
boxee	-11.5694
anything	-11.5694
encrypted	-11.5695
bought	-11.5695
/2008/04/03/	-11.5695
/2009/01/13/	-11.5695
apollo	-11.5695
/2008/11/14/	-11.5695
▁directly	-11.5696
squat	-11.5696
/2008/12/22/	-11.5696
/2008/03/10/	-11.5697
hitwise	-11.5697
kun	-11.5697
globalbiz	-11.5697
/2008/08/21/	-11.5697
/2009/03/27/	-11.5699
/2008/12/05/	-11.5699
/2009/04/19/	-11.5699
/2008/07/02/	-11.5701
/2008/09/02/	-11.5701
playground	-11.5702
/2009/03/23/	-11.5702
crave	-11.5702
2008111	-11.5705
/2008/09/08/	-11.5706
▁angeles	-11.5707
/2009/05/07/	-11.5707
▁selection	-11.5709
atomic	-11.5709
disorder	-11.5711
sunday	-11.5712
packet	-11.5714
tipping	-11.5714
natal	-11.5715
▁nsa	-11.5717
stink	-11.5719
planned	-11.572
954	-11.572
freshbooks	-11.5721
tick	-11.5721
mitra	-11.5727
shooting	-11.5728
▁closed	-11.5729
closures	-11.573
/2009/6/	-11.573
trib	-11.5734
microsystems	-11.5736
872	-11.5736
▁'08	-11.5737
_1_	-11.5738
▁phoenix	-11.5738
cuba	-11.5738
distro	-11.5738
ramblings	-11.5738
folding	-11.574
▁giants	-11.574
▁prof	-11.5741
▁quiz	-11.5744
headset	-11.5744
▁israel	-11.5746
santa	-11.575
▁hang	-11.5753
▁son	-11.5754
bigmoney	-11.5754
capable	-11.5759
construction	-11.576
582	-11.5762
accidental	-11.5764
agreement	-11.5764
/2006/	-11.5764
caused	-11.5767
▁sad	-11.5769
monk	-11.5774
▁surge	-11.5774
conway	-11.5774
=140	-11.5775
▁golf	-11.5776
crush	-11.5776
ovi	-11.5779
falling	-11.578
1996	-11.578
mining	-11.5782
newsfeeds	-11.5785
miner	-11.5786
,%22	-11.5788
▁passenger	-11.579
055	-11.5791
environmental	-11.5793
▁realtime	-11.5793
replaced	-11.5794
tworth	-11.5795
consumers	-11.5796
▁stealth	-11.5796
oops	-11.5797
▁struggle	-11.5799
▁(200	-11.58
retweet	-11.5802
bait	-11.5803
unfair	-11.5808
effects	-11.5811
▁joy	-11.5812
structured	-11.5816
▁amateur	-11.5817
flowing	-11.5818
▁promise	-11.5821
▁television	-11.5825
▁fired	-11.5827
845	-11.5829
frontpage	-11.5832
▁positive	-11.5843
858	-11.5846
wine	-11.5846
thedeal	-11.5848
discusses	-11.5849
▁species	-11.5854
931	-11.5855
mlb	-11.587
▁compatibility	-11.587
predictions	-11.5876
jc	-11.588
=38	-11.5883
cannot	-11.5884
▁queries	-11.5887
▁fruit	-11.5887
fill	-11.5893
▁streams	-11.5895
workspace	-11.5896
444	-11.5896
7939_109-102	-11.5897
▁workshop	-11.5899
430	-11.5903
▁crashes	-11.5905
▁knuth	-11.5905
▁unicode	-11.5905
798	-11.5906
▁spent	-11.5908
▁dimension	-11.5912
▁merger	-11.5915
▁3.1	-11.5916
subscriber	-11.592
▁took	-11.5921
▁reliable	-11.5923
utor	-11.5928
prediction	-11.5931
moto	-11.5932
limits	-11.5937
folder	-11.594
▁equipment	-11.5941
383	-11.5941
owners	-11.5941
1228	-11.5943
057	-11.5946
ranked	-11.5948
▁diamond	-11.5959
▁surprising	-11.5959
▁sat	-11.5962
glu	-11.5963
▁fixes	-11.5965
lander	-11.5966
affected	-11.5966
opengl	-11.5971
=58	-11.5972
▁furniture	-11.5977
▁fields	-11.5979
blowing	-11.5979
trucks	-11.598
▁stealing	-11.5982
rome	-11.5987
▁fill	-11.5989
339	-11.5989
pills	-11.599
installer	-11.599
bones	-11.599
acquire	-11.5993
▁necessary	-11.5994
▁vulnerabilities	-11.5994
▁payments	-11.5995
upper	-11.6005
enhanced	-11.6006
owner	-11.6006
publishers	-11.6008
rx	-11.6009
864	-11.601
1995	-11.6011
694	-11.6017
/207	-11.6017
▁symbian	-11.603
▁chain	-11.6031
reinventing	-11.6039
▁memcached	-11.6049
shape	-11.6049
▁youth	-11.605
fog	-11.6056
▁scenes	-11.6059
=28	-11.606
▁vector	-11.6066
▁bezos	-11.6067
9%	-11.6071
▁confirm	-11.6075
689	-11.6076
▁atom	-11.6076
▁studies	-11.6084
▁$15	-11.6087
addict	-11.6087
jailbreak	-11.6089
698	-11.609
gems	-11.6093
subscribe	-11.6094
protected	-11.6097
yrob	-11.61
1233	-11.61
lithium	-11.6102
navigator	-11.6102
arizona	-11.6102
bureau	-11.6102
chemical	-11.6102
cappuccino	-11.6102
revenge	-11.6102
hptextfeature	-11.6102
salaries	-11.6102
maruti	-11.6102
haxor	-11.6102
meditation	-11.6102
pyramid	-11.6102
silence	-11.6102
toshiba	-11.6102
ghetto	-11.6102
warrior	-11.6102
dubai	-11.6102
lobby	-11.6102
losethos	-11.6102
clinton	-11.6102
relief	-11.6102
tattoo	-11.6102
harris	-11.6102
douglas	-11.6102
shuttleworth	-11.6102
mafia	-11.6102
cowboy	-11.6103
▁mirror	-11.6103
trumps	-11.6103
▁statistical	-11.6103
cinema	-11.6103
sproutcore	-11.6103
embedding	-11.6103
sexual	-11.6103
/2008/01/28/	-11.6104
endorse	-11.6104
▁jvm	-11.6104
autism	-11.6104
sachs	-11.6105
▁detailed	-11.6105
jobdig	-11.6105
tamil	-11.6106
telephone	-11.6106
realestate	-11.6106
binding	-11.6107
insane	-11.6107
photosynth	-11.6107
/2009/09/04/	-11.6107
/2009/09/07/	-11.6108
/2008/07/31/	-11.6108
/2008/02/26/	-11.6109
/2007/11/07/	-11.6109
hostile	-11.611
observer	-11.611
seesmic	-11.611
crowdsourced	-11.611
/2009/01/16/	-11.6111
981	-11.6111
valve	-11.6112
/2008/11/30/	-11.6113
/2008/08/27/	-11.6113
/2008/04/21/	-11.6113
/2008/12/19/	-11.6113
/2008/04/23/	-11.6114
stopped	-11.6114
/2008/05/01/	-11.6117
immigration	-11.6117
sneak	-11.6119
/2009/06/05/	-11.6119
studies	-11.6119
▁connections	-11.612
bacon	-11.612
illusion	-11.612
emerging	-11.612
/2008/10/10/	-11.612
casino	-11.6121
/2008/07/09/	-11.6121
survival	-11.6121
impressive	-11.6121
indonesia	-11.6121
mountain	-11.6122
weapon	-11.6122
utility	-11.6122
wealth	-11.6122
yelp	-11.6122
filing	-11.6122
proves	-11.6122
bootstrapping	-11.6123
candidate	-11.6123
organic	-11.6123
bookmarking	-11.6123
average	-11.6123
couple	-11.6123
practical	-11.6123
scalable	-11.6123
morning	-11.6123
japanese	-11.6123
encryption	-11.6123
registration	-11.6124
recognition	-11.6124
▁enhance	-11.6124
periodic	-11.6124
fundraising	-11.6124
curse	-11.6125
roughly	-11.6125
▁invite	-11.6125
monetize	-11.6125
tracing	-11.6125
supernova	-11.6125
xmpp	-11.6126
surface	-11.6126
shipping	-11.6126
oauth	-11.6127
/2009/08/01/	-11.6128
/2006/09/	-11.6129
inventor	-11.6129
specification	-11.6131
brent	-11.6132
shopper	-11.6135
▁frank	-11.6138
▁cognitive	-11.6139
happened	-11.6139
diesel	-11.6142
soul	-11.6142
primer	-11.6143
▁saying	-11.6147
italy	-11.6147
strat	-11.6147
deeper	-11.615
sanity	-11.6151
quitting	-11.6152
techbeat	-11.6152
classes	-11.6153
cir	-11.6154
profy	-11.6154
mund	-11.6155
promo	-11.6155
spending	-11.6159
unless	-11.6159
ponder	-11.6162
breakfast	-11.6166
shutter	-11.6166
chance	-11.6167
supercomputer	-11.6169
vent	-11.6172
moz	-11.6172
prag	-11.6172
prism	-11.6173
beast	-11.6174
nuts	-11.6175
;1	-11.6175
▁1.1	-11.6178
carol	-11.6182
usana	-11.6182
offering	-11.6183
▁bail	-11.6183
▁knew	-11.6183
hurt	-11.6185
iegel	-11.6186
palo	-11.619
bebo	-11.6192
1.0	-11.6192
catching	-11.6196
safer	-11.6196
877	-11.6197
239	-11.6199
remove	-11.62
dotnet	-11.621
1201	-11.6213
615	-11.6214
urges	-11.6216
829	-11.6216
comfort	-11.6216
signup	-11.6217
snippets	-11.6217
-2007-	-11.6223
thu	-11.6226
novell	-11.6227
slump	-11.6229
=79	-11.6233
570	-11.6235
defined	-11.6235
mindful	-11.6236
alias	-11.6241
▁filters	-11.6241
▁$300	-11.6242
unity	-11.6244
amer	-11.6245
atwork	-11.6251
scrap	-11.6255
epi	-11.6256
▁berners	-11.6258
▁duplicate	-11.6258
rentals	-11.6261
▁podcasts	-11.6264
loops	-11.6267
speck	-11.6269
cite	-11.6269
members	-11.627
vital	-11.627
▁monopoly	-11.6276
517	-11.6276
▁attract	-11.6281
1207	-11.629
2008112	-11.629
▁terrorist	-11.6294
▁champion	-11.6294
▁divide	-11.6295
directed	-11.6299
=132	-11.6309
stroke	-11.6312
▁emergency	-11.6313
▁exactly	-11.6313
▁implications	-11.6313
896	-11.6315
▁$30	-11.6321
▁ocaml	-11.6332
▁ocean	-11.6332
▁panic	-11.6332
839	-11.6333
member	-11.6334
▁writers	-11.6334
lawyers	-11.6339
suffer	-11.6344
606	-11.6345
▁simpledb	-11.6347
=44	-11.6348
▁execution	-11.635
▁mercurial	-11.635
▁taught	-11.635
551	-11.6351
▁surgery	-11.6352
▁losses	-11.6352
▁subversion	-11.6353
retire	-11.6354
▁breach	-11.6359
brothers	-11.6364
994	-11.6365
shifting	-11.6367
pipes	-11.6368
▁parser	-11.6369
▁continuous	-11.6369
▁alerts	-11.6369
burg	-11.637
▁portability	-11.6372
changed	-11.6373
rtga	-11.6374
▁rumors	-11.6385
▁brazil	-11.6387
▁typing	-11.6387
threading	-11.6388
unite	-11.6389
jspa	-11.6395
853	-11.6397
begin	-11.6403
665	-11.6411
-2009-2	-11.6415
leaves	-11.6416
dupe	-11.6417
▁capitalism	-11.6418
predicting	-11.6421
=49	-11.6425
▁rethinking	-11.6427
591	-11.6429
gw	-11.6433
scraping	-11.6434
=56	-11.6435
input	-11.6437
▁muscle	-11.6438
coupons	-11.6441
cock	-11.6443
▁legacy	-11.6444
▁dual	-11.6444
terra	-11.6444
freeware	-11.6446
vj	-11.6451
572	-11.6452
header	-11.6455
382	-11.6455
palin	-11.6455
ryans	-11.6457
eria	-11.6462
cott	-11.6466
telling	-11.6466
▁doom	-11.6469
lect	-11.647
▁labor	-11.6479
438	-11.6483
▁scams	-11.6495
679	-11.6495
goo	-11.6501
invent	-11.6502
0808	-11.6507
zee	-11.6507
0.0	-11.6516
▁clue	-11.6517
▁targeting	-11.652
=139	-11.652
▁iii	-11.6521
provides	-11.6528
tuts	-11.653
frequent	-11.653
aint	-11.6534
compliance	-11.6537
readwritestart	-11.6537
apologize	-11.6537
conscious	-11.6537
automotive	-11.6537
hospital	-11.6537
blockbuster	-11.6537
expansion	-11.6537
incredibly	-11.6537
synthetic	-11.6537
azeriblog	-11.6537
chemistry	-11.6537
marathon	-11.6537
possibly	-11.6537
approved	-11.6537
consistent	-11.6537
kurzweil	-11.6537
november	-11.6537
homoiconic	-11.6537
vancouver	-11.6537
aggregate	-11.6537
arithmetic	-11.6537
convention	-11.6537
stunning	-11.6537
cocaine	-11.6537
jabber	-11.6537
supplier	-11.6537
temperature	-11.6537
borrow	-11.6537
rupert	-11.6537
victory	-11.6537
/8301-10784_3-98	-11.6537
favicon	-11.6537
harmony	-11.6537
completion	-11.6537
supreme	-11.6537
tethering	-11.6537
hilton	-11.6537
proposed	-11.6537
defect	-11.6537
jonasb	-11.6537
malaysia	-11.6537
prototyping	-11.6537
pragmatic	-11.6537
replicator	-11.6537
whirl	-11.6537
stereo	-11.6537
accused	-11.6537
crenk	-11.6537
▁bookmarks	-11.6537
confused	-11.6537
bayesian	-11.6537
/2006/03/	-11.6537
lunar	-11.6538
▁manufacturer	-11.6538
psystar	-11.6538
transportation	-11.6538
▁greed	-11.6538
ireland	-11.6538
▁published	-11.6539
atari	-11.6539
stiff	-11.6539
jazz	-11.654
hubspot	-11.654
exposes	-11.654
/2009/09/06/	-11.6542
transcription	-11.6542
/2007/12/17/	-11.6542
/2008/03/31/	-11.6542
▁functionality	-11.6543
=130	-11.6543
ascii	-11.6543
▁folks	-11.6543
▁airport	-11.6544
/2008/03/17/	-11.6544
village	-11.6545
icfp	-11.6545
batch	-11.6545
/2008/04/14/	-11.6546
involved	-11.6546
beacon	-11.6547
/2008/08/19/	-11.6548
/2008/05/05/	-11.6549
/2008/05/23/	-11.655
qj	-11.655
▁chen	-11.655
oq	-11.655
/2008/03/11/	-11.655
/2008/07/23/	-11.6551
girlfriend	-11.6551
/2008/12/21/	-11.6552
/2009/03/13/	-11.6552
mess	-11.6552
/2008/09/04/	-11.6552
/2009/05/29/	-11.6554
bored	-11.6554
▁implemented	-11.6555
▁appear	-11.6555
▁bucks	-11.6555
bicycle	-11.6555
picker	-11.6557
madness	-11.6558
barcamp	-11.6562
544	-11.6563
softwareb	-11.6564
dirt	-11.6565
penny	-11.6565
/2009/08/09/	-11.6567
▁combat	-11.6567
justintv	-11.6568
kf	-11.6571
lhc	-11.6572
hbr	-11.6574
vector	-11.6574
confusion	-11.6574
▁plants	-11.6574
bezos	-11.6574
melt	-11.6575
simply	-11.6575
efficiency	-11.6576
everybody	-11.6577
bankruptcy	-11.6577
stolen	-11.6578
=104	-11.6578
federal	-11.6579
customization	-11.6579
bottom	-11.658
collective	-11.658
objective	-11.6582
lz	-11.6582
aged	-11.6582
popularity	-11.6583
theyre	-11.6584
goldman	-11.6585
warren	-11.6586
▁cracking	-11.6588
▁donate	-11.6589
turk	-11.6589
▁developed	-11.659
bunch	-11.659
pagerank	-11.659
duke	-11.6592
▁input	-11.6592
▁probe	-11.6595
-200-	-11.6596
zq	-11.6596
betty	-11.6597
cloudera	-11.6598
zr	-11.6599
installation	-11.6599
automatic	-11.6605
perfu	-11.6608
meaning	-11.6608
=911	-11.6611
nyu	-11.6612
▁ebooks	-11.6612
solid	-11.6612
4%	-11.6621
eref	-11.6622
▁israeli	-11.6622
▁choices	-11.6624
mtv	-11.6636
lh	-11.6641
▁spolsky	-11.6642
closed	-11.6644
charter	-11.6647
▁resig	-11.6651
warr	-11.6652
popup	-11.6652
▁opinions	-11.6654
mom	-11.6654
detector	-11.6657
ordered	-11.666
▁reminder	-11.6661
leno	-11.6676
filled	-11.6676
rebel	-11.6677
cyberwar	-11.6678
▁(2007	-11.6683
pieces	-11.6685
3-1	-11.6685
abstractions	-11.669
potter	-11.6693
irrational	-11.6695
cult	-11.6714
lifehack	-11.6723
gather	-11.6724
jh	-11.6724
uptime	-11.6729
1.1	-11.673
suffers	-11.6733
▁roots	-11.6735
068	-11.6735
behavioral	-11.6738
▁compression	-11.6738
▁duthel	-11.6738
▁appeal	-11.6739
subscribers	-11.6743
hz	-11.6746
magnet	-11.6748
sued	-11.6751
grade	-11.6753
▁motorcycle	-11.6757
▁certain	-11.6758
func	-11.6759
▁sergey	-11.6777
▁carpet	-11.6781
luke	-11.6785
=46	-11.6785
demographic	-11.6788
invented	-11.6794
▁simulator	-11.6796
viewpost	-11.6808
instantly	-11.6809
▁personality	-11.681
ineed	-11.6815
subway	-11.6816
packages	-11.6818
rider	-11.6819
▁$20	-11.6819
eee	-11.6824
customize	-11.6832
693	-11.6834
sass	-11.6834
overload	-11.6835
▁reviewed	-11.6842
supporting	-11.6844
iger	-11.6848
5,000	-11.6849
azar	-11.6852
claim	-11.6854
showing	-11.6856
result	-11.6862
ivy	-11.6871
employment	-11.6873
heise	-11.6875
disappear	-11.6883
heim	-11.6887
slip	-11.6892
406	-11.6895
acting	-11.69
batt	-11.6904
lower	-11.6905
jj	-11.691
▁premier	-11.6916
gaining	-11.6927
▁rings	-11.6939
tang	-11.6946
cold	-11.6946
773	-11.6955
toast	-11.6956
candy	-11.6957
gvita	-11.6963
relations	-11.6966
equal	-11.6967
motivate	-11.6967
_2_	-11.6974
charger	-11.6974
sake	-11.6978
pearl	-11.6979
975	-11.6982
▁sounds	-11.6983
▁64-	-11.6989
/2008/08	-11.6989
lunarpages	-11.6989
infect	-11.6989
penelope	-11.6991
vaynerchuk	-11.6991
christopher	-11.6991
proprietary	-11.6991
verisign	-11.6991
philadelphia	-11.6991
wharton	-11.6991
verdict	-11.6991
ferriss	-11.6991
jordan	-11.6991
resurrect	-11.6991
asynchronous	-11.6991
ignorance	-11.6991
inevitable	-11.6991
conservative	-11.6991
decorator	-11.6991
pacific	-11.6991
relative	-11.6991
whisperer	-11.6991
definitive	-11.6991
stallman	-11.6991
capistrano	-11.6991
equation	-11.6991
estimating	-11.6991
hilarious	-11.6991
jessica	-11.6991
mandriva	-11.6991
migrating	-11.6991
relativity	-11.6991
chrysler	-11.6991
mysteries	-11.6991
permanent	-11.6991
approval	-11.6991
gabor	-11.6991
xerox	-11.6991
icanhas	-11.6991
pakistan	-11.6991
ambition	-11.6991
beijing	-11.6992
webmynd	-11.6992
commodity	-11.6992
replies	-11.6992
microformats	-11.6992
sysadmin	-11.6992
stretch	-11.6992
automattic	-11.6992
wwds	-11.6992
▁floating	-11.6992
/2008/04/28/	-11.6993
aussie	-11.6993
codeclimber	-11.6993
000000	-11.6993
riddle	-11.6993
tapping	-11.6994
denial	-11.6994
whale	-11.6994
qo	-11.6994
segal	-11.6995
stunt	-11.6995
biography	-11.6995
/2009/07/12/	-11.6995
kurt	-11.6995
pbwiki	-11.6996
warehouse	-11.6996
megapixel	-11.6996
concern	-11.6997
honor	-11.6997
/2007/11/13/	-11.6997
blunder	-11.6997
montreal	-11.6998
▁concerns	-11.6999
zer	-11.7
/2008/03/26/	-11.7
shootout	-11.7
/2008/03/14/	-11.7
/2007/12/04/	-11.7
cray	-11.7001
▁carriers	-11.7001
/2008/05/26/	-11.7001
/2008/04/22/	-11.7001
vintage	-11.7001
/2008/05/25/	-11.7001
/2008/04/15/	-11.7001
signed	-11.7001
/2008/05/14/	-11.7002
/2008/02/21/	-11.7002
musings	-11.7002
wrapper	-11.7002
/2008/06/29/	-11.7003
techconfidential	-11.7003
▁hotmail	-11.7004
/2008/07/29/	-11.7005
/2008/07/18/	-11.7005
/2009/02/22/	-11.7005
/2008/04/10/	-11.7006
/2009/02/15/	-11.7006
/2009/06/14/	-11.7006
/2008/11/05/	-11.7007
geolocation	-11.7008
maven	-11.7009
lent	-11.701
microcontroller	-11.7013
thembid	-11.7013
steele	-11.7013
/2009/08/23/	-11.7014
/2008/05/08/	-11.7014
attractive	-11.7018
responsible	-11.7023
smooth	-11.7026
prepared	-11.7026
freebie	-11.7027
snapshot	-11.7027
2009-7	-11.7028
expanding	-11.7031
oscon	-11.7034
supported	-11.7035
russia	-11.7037
fulltext	-11.7039
▁gamers	-11.7041
newscred	-11.7044
lady	-11.7048
posted	-11.705
meebo	-11.705
nintendo	-11.7051
suicide	-11.7051
rated	-11.7051
excel	-11.7052
billionaire	-11.7052
excellent	-11.7052
brilliant	-11.7052
department	-11.7052
easily	-11.7052
pioneer	-11.7053
authentication	-11.7053
journey	-11.7053
zuckerberg	-11.7053
century	-11.7053
purchase	-11.7053
improving	-11.7053
censorship	-11.7054
sock	-11.7054
subscription	-11.7054
deployment	-11.7054
compiler	-11.7055
mathematics	-11.7055
winning	-11.7056
safety	-11.7057
country	-11.7058
oled	-11.706
bps	-11.7061
528	-11.7061
exe	-11.7062
enjoy	-11.7065
cuban	-11.7072
readability	-11.7072
overflow	-11.7082
bush	-11.7083
2005)	-11.7083
▁raised	-11.7087
compared	-11.7092
moore	-11.7096
memcached	-11.7098
669	-11.7101
wx	-11.7102
whose	-11.7102
intl	-11.7104
gcc	-11.7108
rssfeed	-11.7112
2008012	-11.7114
/08/07/	-11.7117
wig	-11.7134
rfc	-11.7135
▁ear	-11.7137
homemade	-11.7138
871	-11.7141
flowers	-11.7142
breakdown	-11.7148
myway	-11.715
649	-11.7151
wings	-11.7165
boarding	-11.7176
nomics	-11.7176
gina	-11.7182
capitalists	-11.7184
cord	-11.7185
timeline	-11.7186
bq	-11.7189
woe	-11.719
ruining	-11.7198
broker	-11.7204
ement	-11.7207
▁teacher	-11.7209
artists	-11.7215
mostly	-11.7217
▁100,000	-11.722
566	-11.7245
pico	-11.7258
deploying	-11.7267
▁cellphones	-11.7273
designed	-11.7281
fluid	-11.7283
pikes	-11.7293
1001	-11.7297
▁grip	-11.7305
happens	-11.7308
laying	-11.7319
▁rivals	-11.732
▁leaks	-11.7324
checkout	-11.7331
pope	-11.7335
wot	-11.7351
extension	-11.7363
perspective	-11.7368
rginalrevolution	-11.7369
helped	-11.7387
=127	-11.7392
qw	-11.7396
apen	-11.7401
/138	-11.7407
followup	-11.7416
1202	-11.7423
539	-11.7439
tackle	-11.744
belt	-11.7441
biblio	-11.7442
kl	-11.7443
▁1)	-11.7448
▁came	-11.7452
magical	-11.7452
nix	-11.7452
regex	-11.7455
utopia	-11.7458
914	-11.7462
recursive	-11.7464
dziuba	-11.7466
relevant	-11.7466
nasdaq	-11.7467
weinberg	-11.7467
economix	-11.7467
massachusetts	-11.7467
graffiti	-11.7467
collaborate	-11.7467
junction	-11.7467
vaccine	-11.7467
procedure	-11.7467
glimpse	-11.7467
scrabulous	-11.7467
stewart	-11.7467
supply	-11.7467
thursday	-11.7467
ericsink	-11.7467
certification	-11.7467
evaluate	-11.7467
judgment	-11.7467
convenience	-11.7467
micropledge	-11.7467
mobilize	-11.7467
relevance	-11.7467
conferencing	-11.7467
diveintomark	-11.7467
nocera	-11.7467
stanley	-11.7467
collision	-11.7467
thompson	-11.7467
▁wrote	-11.7467
attitude	-11.7467
simpson	-11.7467
translator	-11.7467
reliability	-11.7467
carolina	-11.7467
▁instance	-11.7467
badminton	-11.7467
hobby	-11.7467
separate	-11.7467
perlmonks	-11.7468
hoffman	-11.7468
interrupt	-11.7468
buffer	-11.7468
bundle	-11.7468
photographer	-11.7468
▁encourage	-11.7468
nurse	-11.7468
summize	-11.7468
tinker	-11.7468
sunlightlabs	-11.7468
dayintech	-11.7468
protein	-11.7468
slacker	-11.7469
/2009/06/28/	-11.747
/2008/02/12/	-11.747
capabilities	-11.747
emissions	-11.747
apartment	-11.747
desert	-11.747
forrester	-11.7471
8800	-11.7472
bathroom	-11.7472
▁stupidity	-11.7472
wsgi	-11.7472
▁sport	-11.7473
elig	-11.7474
swing	-11.7474
loyalty	-11.7474
suspend	-11.7474
punch	-11.7475
mindhacks	-11.7475
/2007/08/21/	-11.7475
guild	-11.7477
chimp	-11.7477
/2007/10/18/	-11.7477
/2008/01/22/	-11.7477
▁shareholders	-11.7477
▁spammers	-11.7478
johnson	-11.7479
obsession	-11.7479
/2008/12/17/	-11.7479
/2008/05/22/	-11.7479
/2008/07/13/	-11.7479
/2008/03/03/	-11.7479
keeper	-11.748
activerecord	-11.748
combining	-11.748
/2008/03/05/	-11.748
▁4.0	-11.748
▁journalists	-11.7481
agenda	-11.7481
/2008/02/11/	-11.7481
/2008/08/29/	-11.7481
/2008/04/07/	-11.7482
vanish	-11.7483
fancy	-11.7483
/2008/07/05/	-11.7483
/2008/04/02/	-11.7484
eigen	-11.7485
▁expressions	-11.7486
/2009/07/25/	-11.7486
ilike	-11.7486
publishes	-11.7489
/2009/05/24/	-11.7489
/2009/02/01/	-11.7489
clickpass	-11.7489
doodle	-11.7492
-152	-11.7493
brainstorm	-11.7494
unusual	-11.7495
hitech	-11.7495
edward	-11.7495
mises	-11.7495
household	-11.7496
/2009/02/08/	-11.7496
passport	-11.7497
▁(199	-11.7499
/2009/03/08/	-11.7499
drill	-11.75
usual	-11.75
accessible	-11.75
selecting	-11.7504
devver	-11.7505
/2006/08/	-11.7505
milking	-11.7507
703	-11.7508
djem	-11.751
▁sorting	-11.7511
▁sellers	-11.7513
crawler	-11.7513
tiger	-11.7514
speculation	-11.7514
passed	-11.7518
agx	-11.7518
progressive	-11.752
712	-11.7524
fil	-11.7525
/200709	-11.7525
planner	-11.7526
▁webcam	-11.753
▁rare	-11.753
mantra	-11.7532
peg	-11.7532
offbeat	-11.7533
googleappengine	-11.7536
consider	-11.7538
enhance	-11.7538
ashes	-11.7538
924	-11.7539
identi	-11.754
detect	-11.754
chick	-11.7542
booth	-11.7548
scratch	-11.7549
symbian	-11.755
organization	-11.7552
browsing	-11.7553
andreessen	-11.7553
trailer	-11.7553
kawasaki	-11.7554
feynman	-11.7554
banned	-11.7554
cutting	-11.7555
prevent	-11.7555
instead	-11.7555
capture	-11.7557
france	-11.756
rash	-11.7563
bul	-11.7567
followers	-11.757
automobile	-11.7574
computerworlduk	-11.7575
heading	-11.758
▁osx	-11.7585
▁whatever	-11.7586
lewis	-11.7587
bible	-11.7591
integrated	-11.7596
targeting	-11.7597
visible	-11.7599
drawing	-11.7606
spawn	-11.7606
workforce	-11.7609
labor	-11.7624
forced	-11.7627
▁alto	-11.7632
wwe	-11.7633
goodness	-11.7634
freaks	-11.7635
rho	-11.7645
943	-11.7647
careful	-11.7649
chain	-11.7655
dying	-11.7669
helper	-11.767
851	-11.7682
/8301-1_109-99	-11.7683
-2010-	-11.7687
presenting	-11.7692
chad	-11.7693
token	-11.7697
awk	-11.7697
vega	-11.7698
earl	-11.7701
2015	-11.7705
920	-11.7708
kv	-11.7708
ressi	-11.7715
unofficial	-11.7718
datasets	-11.7718
carlo	-11.7719
nati	-11.772
moments	-11.7721
flux	-11.7734
hover	-11.7734
iphonedev	-11.7735
roth	-11.7737
apocalypse	-11.7744
▁robotics	-11.7744
=118	-11.7751
▁characters	-11.7752
baker	-11.7758
▁modeling	-11.7762
=912	-11.7764
busted	-11.7772
fell	-11.7773
rumored	-11.7775
hundred	-11.7775
godin	-11.7778
469	-11.7778
nist	-11.7779
teaches	-11.7784
cycles	-11.7787
dangers	-11.7792
iii	-11.7795
/0000	-11.7801
saved	-11.7808
lug	-11.7812
1210	-11.7817
▁2.2	-11.7823
24/7	-11.7834
941	-11.7838
feeding	-11.7852
auth	-11.7857
932	-11.7861
nowpublic	-11.7863
recruit	-11.7868
nanotech	-11.7868
arian	-11.7869
rethink	-11.787
fab	-11.7873
warfare	-11.7873
qn	-11.7881
641	-11.7881
promise	-11.7885
uu	-11.789
ixi	-11.7896
perspectives	-11.7896
erik	-11.7897
anjay	-11.7899
daddy	-11.7907
opped	-11.7909
lux	-11.791
lq	-11.7915
weigh	-11.792
theater	-11.7933
took	-11.7937
dustin	-11.794
kla	-11.7954
teachers	-11.7956
webdesigner	-11.7958
cofounder	-11.7958
sourcing	-11.796
absolute	-11.7961
folk	-11.7961
technica	-11.7962
horizon	-11.7967
shuttle	-11.7967
strategist	-11.7967
marksonland	-11.7967
newteevee	-11.7967
carnegie	-11.7967
caterina	-11.7967
accelerate	-11.7967
auctomatic	-11.7967
assumptions	-11.7967
columbia	-11.7967
thriving	-11.7967
marissa	-11.7967
violence	-11.7967
houston	-11.7967
instrument	-11.7967
mckinsey	-11.7967
perception	-11.7967
valentine	-11.7967
worried	-11.7967
/8301-1023_3-102	-11.7967
gapingvoid	-11.7967
literacy	-11.7967
maintenance	-11.7967
molecule	-11.7967
persuasive	-11.7967
spanish	-11.7967
ambient	-11.7967
frenzy	-11.7967
nehalem	-11.7967
survivor	-11.7967
tufte	-11.7967
federated	-11.7967
deceptive	-11.7967
iyiblogcu	-11.7967
mythbusters	-11.7967
numbrosia	-11.7967
psoriasis	-11.7967
thunderbird	-11.7967
twelve	-11.7967
unintended	-11.7967
pseudo	-11.7967
tahitian	-11.7967
volunteer	-11.7967
creature	-11.7967
jersey	-11.7967
paradise	-11.7967
transparency	-11.7967
deluxe	-11.7967
▁suspect	-11.7967
leverage	-11.7967
cabinet	-11.7967
monetizing	-11.7968
handle	-11.7968
primary	-11.7968
=20601109&	-11.7968
backlash	-11.7968
curtis	-11.7968
joshua	-11.7968
actress	-11.7968
telephony	-11.7968
dutch	-11.7968
oxford	-11.7968
weightloss	-11.7968
meteor	-11.7968
slickedit	-11.7968
inflation	-11.7968
belief	-11.7968
arrays	-11.7968
▁negative	-11.7968
retirement	-11.7969
glasses	-11.7969
italian	-11.7969
/2006/07/	-11.7969
htaccess	-11.7969
irrelevant	-11.7969
sequence	-11.7969
xach	-11.7969
preferences	-11.7969
vel	-11.7969
bogus	-11.797
/2008/10/28/	-11.797
gonna	-11.797
presentationzen	-11.797
polish	-11.797
tennis	-11.797
cbsnews	-11.7971
sean	-11.7971
programmes	-11.7971
dialog	-11.7972
▁adopters	-11.7972
geocities	-11.7972
tagged	-11.7974
songkick	-11.7975
hotel	-11.7975
/2007/12/03/	-11.7976
bulk	-11.7977
▁woes	-11.7977
advertisement	-11.7977
crunchpad	-11.7977
/2007/08/02/	-11.7978
/2007/08/07/	-11.7978
sicp	-11.7978
securing	-11.7978
/2008/07/25/	-11.7979
/2008/06/13/	-11.7979
/2008/02/06/	-11.798
/2008/08/15/	-11.798
kept	-11.798
▁5800	-11.798
▁animals	-11.7981
/2008/03/24/	-11.7981
/2009/01/25/	-11.7981
▁vendors	-11.7981
/2009/02/14/	-11.7982
/2008/09/21/	-11.7983
svg	-11.7983
/2008/07/06/	-11.7983
/2008/12/03/	-11.7983
finalists	-11.7984
/2009/03/15/	-11.7984
/2008/04/01/	-11.7984
/2008/04/11/	-11.7984
/2008/05/07/	-11.7984
▁2.6	-11.7985
dip	-11.7986
/2008/09/01/	-11.7986
oped	-11.7987
/2008/05/09/	-11.7987
enigma	-11.7988
courseware	-11.7988
nack	-11.7989
advertiser	-11.799
unlikely	-11.7992
▁pitches	-11.7994
coping	-11.7994
loic	-11.7994
/2008/11/08/	-11.7995
candle	-11.7995
musk	-11.7995
762	-11.7997
toxic	-11.7997
moveable	-11.8
javafx	-11.8
▁army	-11.8005
728	-11.8007
▁vps	-11.8012
blew	-11.8013
disc	-11.8013
printthis	-11.8015
▁holding	-11.8016
barsh	-11.8016
minimalist	-11.802
gross	-11.8023
linuxjournal	-11.8026
oodle	-11.8026
▁10%	-11.8029
mary	-11.8031
harmoni	-11.8031
moose	-11.8034
chatter	-11.8036
dadg	-11.804
imo	-11.8046
kirk	-11.8047
norm	-11.8058
sensors	-11.8063
ideal	-11.8065
worry	-11.8068
rounded	-11.8075
legacy	-11.8076
rental	-11.8076
navigation	-11.8077
identify	-11.8077
murdoch	-11.8077
consolidation	-11.8077
afraid	-11.8077
fantasy	-11.8077
injection	-11.8078
applied	-11.8078
george	-11.8078
formula	-11.8079
female	-11.8079
einstein	-11.8079
among	-11.8079
anderson	-11.8079
detection	-11.808
disaster	-11.8081
implementation	-11.8082
delete	-11.8085
coolest	-11.8086
interaction	-11.8086
muscle	-11.8086
jail	-11.8088
anyway	-11.809
hang	-11.8091
loader	-11.8092
_7_	-11.8094
entire	-11.8096
newton	-11.8101
doom	-11.8101
productive	-11.8103
shrinking	-11.8111
nue	-11.8117
oak	-11.8118
=142	-11.8121
quickly	-11.8123
▁saw	-11.8126
diggbar	-11.8135
gut	-11.8136
nsf	-11.8147
focused	-11.8152
transactions	-11.8154
blocking	-11.8158
nfl	-11.8167
tata	-11.817
branded	-11.8174
ipv	-11.8182
saying	-11.8202
446	-11.8203
lively	-11.8215
realit	-11.822
likely	-11.8221
geni	-11.8222
/125	-11.8223
tourist	-11.8229
tine	-11.8231
1009	-11.8239
inner	-11.8239
goingto	-11.8242
▁particle	-11.8249
googlepages	-11.8253
tina	-11.8254
1234	-11.8258
2009-01-	-11.8259
668	-11.8268
936	-11.827
patching	-11.8274
▁told	-11.8284
▁hasn	-11.8291
/2000/	-11.8292
erati	-11.8296
transaction	-11.83
vq	-11.8307
youth	-11.8323
0403	-11.8327
aero	-11.8335
pak	-11.8339
wag	-11.834
preventing	-11.834
serv	-11.8341
vdi	-11.8343
teenage	-11.835
evo	-11.8356
▁$9	-11.8363
surfer	-11.8376
926	-11.8377
till	-11.8379
791	-11.8385
imap	-11.8393
tric	-11.8395
/004	-11.8401
lew	-11.8429
870	-11.8435
villa	-11.8441
protecting	-11.8445
=116	-11.8466
iac	-11.8473
arti	-11.8478
consume	-11.8482
certificate	-11.8486
porting	-11.8487
transcript	-11.8487
oxy	-11.8489
1231	-11.849
alchemy	-11.849
fragment	-11.8492
scholar	-11.8493
hustle	-11.8494
scribble	-11.8494
blodget	-11.8494
colbert	-11.8494
crucial	-11.8494
skrenta	-11.8494
destination	-11.8494
instinct	-11.8494
negotiating	-11.8494
explode	-11.8494
excellence	-11.8494
misconceptions	-11.8494
penguin	-11.8494
zillow	-11.8494
acceleration	-11.8494
debunking	-11.8494
economies	-11.8494
libertarian	-11.8494
participation	-11.8494
clickjacking	-11.8494
credibility	-11.8494
fatigue	-11.8494
guerrilla	-11.8494
obscure	-11.8494
tunnel	-11.8494
agencies	-11.8494
contributor	-11.8494
exploration	-11.8494
mosquito	-11.8494
scheduling	-11.8494
removal	-11.8494
imjustcreative	-11.8494
twitterrati	-11.8494
reduction	-11.8494
babies	-11.8494
▁clothes	-11.8494
razor	-11.8494
pitfalls	-11.8494
cipher	-11.8494
jeffrey	-11.8494
pragdave	-11.8494
density	-11.8494
picasa	-11.8494
eurek	-11.8494
jacob	-11.8494
slinkset	-11.8494
romantic	-11.8494
alexander	-11.8494
ponzi	-11.8494
blade	-11.8494
ethanol	-11.8494
various	-11.8494
metaphor	-11.8494
operators	-11.8494
threatened	-11.8494
boeing	-11.8495
rabbit	-11.8495
terrorism	-11.8495
fiveruns	-11.8495
reportedly	-11.8495
costume	-11.8495
tampa	-11.8495
socket	-11.8496
yeah	-11.8496
mobility	-11.8496
cselle	-11.8496
resistance	-11.8496
▁organizer	-11.8496
phony	-11.8497
turbo	-11.8497
infection	-11.8497
advert	-11.8497
bullshit	-11.8497
digest	-11.8497
/2008/09/12/	-11.8497
▁feet	-11.8498
turbin	-11.8499
/2007/11/14/	-11.85
crib	-11.85
poetically	-11.8501
hunger	-11.8501
livecrunch	-11.8501
/2007/11/06/	-11.8502
/2007/08/03/	-11.8502
/2009/01/31/	-11.8502
/2008/01/30/	-11.8504
885	-11.8504
/2008/05/16/	-11.8504
dawn	-11.8504
courage	-11.8505
stargate	-11.8505
/2008/04/17/	-11.8505
crunchbase	-11.8505
/2008/05/13/	-11.8506
/2008/11/16/	-11.8506
encrypt	-11.8506
▁viable	-11.8507
/2008/08/22/	-11.8507
/2008/09/14/	-11.8507
mhz	-11.8508
/2008/04/06/	-11.8509
tide	-11.8509
/2009/01/18/	-11.8509
/2008/06/20/	-11.851
/2009/03/14/	-11.851
theories	-11.851
/2009/03/22/	-11.8511
/2008/04/04/	-11.8511
/2008/10/19/	-11.8511
dimensional	-11.8512
/2008/05/02/	-11.8512
unboxing	-11.8513
/2008/07/04/	-11.8514
/2009/02/06/	-11.8514
/2008/09/07/	-11.8514
/2009/06/21/	-11.8514
/2008/02/08/	-11.8515
underwire	-11.8516
patel	-11.8516
queen	-11.8516
ether	-11.8517
/2008/06/08/	-11.8517
momentum	-11.8518
▁seems	-11.8518
▁doctors	-11.8518
footage	-11.8519
/2008/11/09/	-11.8519
_2009_	-11.8521
gave	-11.8521
▁approaches	-11.8522
odyssey	-11.8522
▁eggs	-11.8522
967	-11.8525
maintaining	-11.8525
spelling	-11.8526
jailbreaking	-11.8528
ssociates	-11.8528
▁processes	-11.8529
9999-	-11.853
blik	-11.8532
division	-11.8537
▁included	-11.8538
flick	-11.8538
couch	-11.8539
playboy	-11.8541
seaside	-11.8542
barry	-11.8545
employers	-11.8545
prone	-11.8546
spice	-11.8546
unified	-11.8547
dual	-11.8548
946	-11.8551
893	-11.8554
processor	-11.8555
revolutionary	-11.8562
-2009-8	-11.8564
▁zed	-11.857
revise	-11.8574
spike	-11.8575
wallen	-11.8575
dung	-11.8579
unbox	-11.858
useless	-11.8582
reputation	-11.8589
nerdy	-11.859
()	-11.8591
1215	-11.8592
pmv	-11.8592
sharepoint	-11.8598
▁musical	-11.86
▁joining	-11.8601
odeo	-11.8611
glow	-11.8618
deploy	-11.862
2130	-11.8628
timing	-11.8629
vulnerabilities	-11.8632
necessary	-11.8632
religion	-11.8632
consultant	-11.8632
purpose	-11.8633
competitive	-11.8634
effort	-11.8634
guess	-11.8634
lunch	-11.8635
surprise	-11.8635
bookmarklet	-11.8635
opportunities	-11.8635
audience	-11.8636
concurrency	-11.8636
transfer	-11.8636
proposal	-11.8636
milestone	-11.8636
mak	-11.8638
electricity	-11.864
boring	-11.8645
doomed	-11.8648
limo	-11.8652
alltop	-11.8653
buffett	-11.8655
seriously	-11.8656
mule	-11.8656
949	-11.867
handed	-11.867
herman	-11.8673
=51	-11.8677
hindi	-11.8683
answering	-11.8687
foss	-11.8687
1110	-11.869
twr	-11.8696
solver	-11.8701
orks	-11.8711
setup	-11.8711
=72	-11.8712
/0,2933,3	-11.8716
notation	-11.8716
7200&	-11.8723
launchbox	-11.8741
biotech	-11.875
tonight	-11.8757
737	-11.8757
ovsky	-11.8763
_2008_	-11.877
sept	-11.8786
▁2.1	-11.8786
1980	-11.8787
outsource	-11.8793
crappy	-11.8801
forever	-11.8802
vien	-11.881
ingram	-11.8813
downloadable	-11.8815
declares	-11.8815
▁1,000	-11.8819
treat	-11.8838
761	-11.8841
numb	-11.8846
=1364	-11.8847
=109	-11.885
hydro	-11.8856
freak	-11.8857
24&	-11.8858
abstraction	-11.886
brook	-11.8862
socialnetwork	-11.8864
headline	-11.8874
ocky	-11.8879
ramp	-11.888
holic	-11.8889
visiting	-11.8895
ended	-11.8897
connectu	-11.8898
psu	-11.89
beating	-11.8902
0201	-11.8905
kom	-11.8916
raj	-11.8927
startupping	-11.8933
nil	-11.894
deposit	-11.8941
2020	-11.8948
1197	-11.895
posters	-11.8961
jl	-11.8966
loser	-11.8968
/09/07/	-11.8968
brow	-11.8974
pond	-11.8977
traveler	-11.8987
/0008	-11.899
acre	-11.8992
hoc	-11.8995
voke	-11.8997
redefine	-11.9011
434	-11.9016
visualize	-11.9018
mercury	-11.9021
uang	-11.9032
axis	-11.9033
allowed	-11.9035
vibes	-11.9036
olson	-11.9037
logging	-11.9046
violent	-11.9049
anthony	-11.9049
earlystagevc	-11.9049
smackdown	-11.9049
excerpt	-11.9049
liberty	-11.9049
negotiate	-11.9049
veteran	-11.9049
dawkins	-11.9049
encouraging	-11.9049
kaminsky	-11.9049
hurricane	-11.9049
miracle	-11.9049
emulator	-11.9049
joomla	-11.9049
symptoms	-11.9049
cirtexhosting	-11.9049
investigation	-11.9049
halloween	-11.9049
married	-11.9049
buxfer	-11.9049
familiar	-11.9049
frequency	-11.9049
plummet	-11.9049
sullivan	-11.9049
accelerator	-11.9049
dunelm	-11.9049
holographic	-11.9049
nobosh	-11.9049
segment	-11.9049
dilution	-11.9049
families	-11.9049
maglev	-11.9049
minnesota	-11.9049
qualities	-11.9049
simplified	-11.9049
supplement	-11.9049
/0,1518,	-11.9049
assignment	-11.9049
obesity	-11.9049
pausch	-11.9049
terabyte	-11.9049
imaginary	-11.9049
cheese	-11.9049
proposes	-11.9049
terminator	-11.9049
mexico	-11.9049
mutual	-11.905
maximizing	-11.905
whether	-11.905
jelly	-11.905
liberate	-11.905
courtesy	-11.905
balloon	-11.905
helium	-11.905
ghostery	-11.905
humble	-11.905
-5800-	-11.905
scanning	-11.905
darren	-11.905
signal	-11.905
akamai	-11.905
disruption	-11.905
ladies	-11.905
gordon	-11.905
/2006/06/	-11.905
savage	-11.905
punk	-11.905
collins	-11.9051
gotchas	-11.9051
clutter	-11.9051
extraordinary	-11.9051
entrep	-11.9051
snaptalent	-11.9051
▁8.10	-11.9051
either	-11.9052
rubber	-11.9052
/2008/09/28/	-11.9052
adaptive	-11.9052
liquidity	-11.9052
salad	-11.9053
tonido	-11.9053
2/0,1	-11.9053
▁pillows	-11.9053
marshall	-11.9054
shoemoney	-11.9054
waterloo	-11.9055
milton	-11.9055
curry	-11.9056
/2007/11/15/	-11.9056
anandtech	-11.9056
▁physicists	-11.9057
sacco	-11.9057
/2007/08/27/	-11.9057
mathew	-11.9057
programmableweb	-11.9057
/2009/09/09/	-11.9058
/2008/08/31/	-11.9058
/2007/11/05/	-11.9058
▁concurrent	-11.9059
jsconf	-11.9059
/2008/01/17/	-11.9059
/2007/08/06/	-11.9059
/2007/11/01/	-11.906
/2008/02/13/	-11.906
refuses	-11.906
=117	-11.906
/2008/06/14/	-11.9061
getdropbox	-11.9061
cuda	-11.9061
▁comeback	-11.9061
/2008/02/20/	-11.9062
artist	-11.9062
bootcamp	-11.9062
/2008/02/18/	-11.9063
grandcentral	-11.9063
/2007/10/04/	-11.9063
▁slick	-11.9064
shipley	-11.9064
muni	-11.9064
sterling	-11.9064
/2008/02/07/	-11.9065
/2008/02/01/	-11.9065
/2008/03/07/	-11.9066
/2008/05/21/	-11.9066
/2008/03/04/	-11.9066
neuroscience	-11.9066
addicted	-11.9066
chase	-11.9067
/2008/03/06/	-11.9067
repeat	-11.9068
/2008/06/01/	-11.9068
cheng	-11.9068
okay	-11.9069
/2008/03/09/	-11.907
clarit	-11.907
▁operations	-11.9071
finished	-11.9071
/2009/01/02/	-11.9071
/2009/07/03/	-11.9073
bluehost	-11.9075
ndash	-11.9075
▁highlights	-11.9075
indeed	-11.9076
/2009/07/05/	-11.9077
playstation	-11.9078
motivated	-11.908
▁african	-11.908
cpp	-11.9085
plurk	-11.9088
lucid	-11.9088
bully	-11.909
▁5.3	-11.9091
brave	-11.9091
myte	-11.9094
cargo	-11.9094
balanced	-11.9095
▁salt	-11.9096
widgetbox	-11.9101
emerge	-11.9113
feat	-11.9115
rubyconf	-11.9119
▁2001	-11.912
chron	-11.9121
stamp	-11.9123
inder	-11.9128
▁shit	-11.9131
backpack	-11.9132
▁graphical	-11.9137
tomato	-11.914
drain	-11.9141
columnist	-11.9146
tarp	-11.9148
fuge	-11.9149
decent	-11.9161
fullpage	-11.9161
spies	-11.9167
yslow	-11.917
letting	-11.917
0706	-11.9175
optional	-11.9189
explaining	-11.9199
iplayer	-11.9203
rama	-11.9204
promoter	-11.9204
ulation	-11.9205
▁recover	-11.9208
generate	-11.921
reaching	-11.9212
actual	-11.9215
1318	-11.9216
affect	-11.9217
furniture	-11.922
britain	-11.9221
individual	-11.9221
traditional	-11.9222
evidence	-11.9222
atlanta	-11.9222
disease	-11.9224
favor	-11.9224
attorney	-11.9224
538	-11.9226
father	-11.9228
=%22	-11.9229
garage	-11.9231
capitalism	-11.9233
since	-11.9237
conversion	-11.9238
979	-11.924
partnership	-11.924
decide	-11.9243
renes	-11.9243
uncommon	-11.9244
admit	-11.9251
idesoft	-11.9252
worthy	-11.9261
german	-11.9261
1203	-11.9274
replica	-11.928
editing	-11.9286
rethinking	-11.9292
risky	-11.9292
inmotion	-11.9297
ailing	-11.9298
refund	-11.9302
kate	-11.9302
▁couldn	-11.931
coworking	-11.9326
digit	-11.9339
kat	-11.9339
headi	-11.9341
1209	-11.9341
readies	-11.9346
appearance	-11.9352
lisa	-11.9353
/0,,2	-11.9353
taken	-11.9354
arena	-11.9365
▁winer	-11.9374
kay	-11.9377
mice	-11.938
aholic	-11.9386
sue	-11.9388
heck	-11.9401
needed	-11.9402
accidents	-11.9405
vesting	-11.9412
rsquo	-11.9417
bak	-11.9417
appears	-11.942
nlp	-11.9425
yak	-11.9428
adeo	-11.9431
voc	-11.9437
thousand	-11.9447
walking	-11.9462
wq	-11.9463
roman	-11.947
painful	-11.9489
educational	-11.9492
taleb	-11.9493
zur	-11.952
worrying	-11.9525
▁defend	-11.9533
▁brin	-11.9534
ivan	-11.9542
ocr	-11.9546
detecting	-11.9564
socialthing	-11.9574
gsm	-11.9578
latin	-11.9587
rik	-11.9588
iframe	-11.961
658	-11.9612
ucla	-11.9626
physicist	-11.9628
▁poetic	-11.963
linden	-11.9635
kotaku	-11.9637
librarian	-11.9637
ignite	-11.9637
pivot	-11.9637
qualified	-11.9637
tumbling	-11.9637
twilio	-11.9637
ambitious	-11.9637
celebrities	-11.9637
freelancing	-11.9637
hologram	-11.9637
categories	-11.9637
conficker	-11.9637
discipline	-11.9637
jupiter	-11.9637
levchin	-11.9637
mongrel	-11.9637
iminlikewithyou	-11.9638
jaunty	-11.9638
marijuana	-11.9638
neglect	-11.9638
triumph	-11.9638
bicking	-11.9638
creepy	-11.9638
nutrition	-11.9638
trailbehind	-11.9638
/8301-13578_3-10	-11.9638
appropriate	-11.9638
demystifying	-11.9638
phenomenon	-11.9638
repositories	-11.9638
situation	-11.9638
skateboarding	-11.9638
zynga	-11.9638
committee	-11.9638
dummies	-11.9638
waxy	-11.9638
assessment	-11.9638
hierarchy	-11.9638
jargon	-11.9638
webhostingpad	-11.9638
arbitrage	-11.9638
trivial	-11.9638
reznor	-11.9638
esquire	-11.9638
derivative	-11.9638
2/0,2817,2	-11.9638
deletion	-11.9638
▁competing	-11.9638
ephoria	-11.9638
priorities	-11.9638
paranoid	-11.9638
calorie	-11.9638
puppy	-11.9638
outstanding	-11.9638
plagiarism	-11.9638
exhibit	-11.9638
davos	-11.9638
activities	-11.9638
hiphop	-11.9638
orlando	-11.9638
eureka	-11.9638
stocktwits	-11.9638
destruction	-11.9638
stellar	-11.9639
glenn	-11.9639
postgres	-11.9639
hungry	-11.9639
ourdoings	-11.9639
greek	-11.9639
zign	-11.9639
/2007/11/12/	-11.9639
sitting	-11.9639
jungle	-11.9639
btng	-11.964
afford	-11.964
/2008/02/28/	-11.964
sqlite	-11.964
aviary	-11.964
inspection	-11.9641
/2008/03/28/	-11.9641
boycott	-11.9642
sharding	-11.9642
▁classroom	-11.9642
aviation	-11.9642
robber	-11.9642
cherry	-11.9642
squid	-11.9642
norway	-11.9643
hostmonster	-11.9643
plnk	-11.9643
district	-11.9644
▁scans	-11.9644
/2008/10/12/	-11.9644
cloak	-11.9644
essler	-11.9644
▁mathematicians	-11.9645
hudson	-11.9645
/08/03/	-11.9645
/2007/08/13/	-11.9646
/2007/05/14/	-11.9647
/2007/09/18/	-11.9647
/2007/10/22/	-11.9648
vijay	-11.9649
genesis	-11.9649
/2008/01/14/	-11.9649
/2008/04/13/	-11.965
davis	-11.965
/2009/01/17/	-11.9651
/2009/05/31/	-11.9651
/2007/12/10/	-11.9651
/2008/07/26/	-11.9651
redhat	-11.9652
/2009-05	-11.9652
/2007/05/01/	-11.9652
/2008/01/21/	-11.9653
/2007/10/01/	-11.9653
/2008/12/26/	-11.9654
/2008/05/20/	-11.9654
/2008/02/04/	-11.9654
republican	-11.9655
/2008/07/20/	-11.9655
arcade	-11.9655
frog	-11.9655
/2008/10/25/	-11.9655
technique	-11.9655
pbx	-11.9657
uncertain	-11.9657
/2008/11/06/	-11.9657
parable	-11.9658
/2008/01/09/	-11.9658
/2008/10/18/	-11.9658
/2009/05/25/	-11.9659
kris	-11.966
capability	-11.9661
nathan	-11.9661
optimizer	-11.9661
adviser	-11.9662
/2008/11/02/	-11.9662
paintball	-11.9662
/2009/02/07/	-11.9664
/2009/04/05/	-11.9664
kayak	-11.9664
methodology	-11.9665
franklin	-11.9665
deathmatch	-11.9665
podtech	-11.9667
/2009/03/01/	-11.9667
unlocking	-11.9667
tilt	-11.9668
▁accepted	-11.9669
nsfw	-11.9671
/2009/01/04/	-11.9671
linq	-11.9673
=913	-11.9676
keypad	-11.968
jacket	-11.968
%2520	-11.9681
nba	-11.9681
kamen	-11.9682
void	-11.9683
yose	-11.9686
1_1	-11.9687
/2009/08/08/	-11.9688
hur	-11.9688
pulling	-11.9692
mitnick	-11.9694
panda	-11.9696
passive	-11.9699
stupidest	-11.9701
spacecraft	-11.9702
proposition	-11.9705
/2009/8/	-11.9706
▁cup	-11.9712
throwing	-11.9712
proud	-11.9713
positioning	-11.9716
analyzer	-11.9717
undersea	-11.9717
cheatsheet	-11.9724
effectiveness	-11.9725
floss	-11.9725
creditcard	-11.9725
undo	-11.973
kvm	-11.9733
hbase	-11.9737
ufc	-11.9744
adhd	-11.9745
1227	-11.975
workstation	-11.9751
poisoning	-11.9751
crow	-11.9753
crv	-11.9754
majority	-11.976
startupweekend	-11.9761
devel	-11.9763
killerstartups	-11.9769
felt	-11.9773
1985	-11.9774
▁moved	-11.9784
quo	-11.9785
▁dean	-11.9785
sears	-11.9786
breakingnews	-11.9796
685	-11.9797
passing	-11.9805
astro	-11.9806
quarterly	-11.981
▁meat	-11.9824
1222	-11.9825
haters	-11.9829
difficult	-11.9839
=217	-11.9841
promote	-11.9842
brazil	-11.9844
surprising	-11.9845
diamond	-11.9845
quietly	-11.9845
mumbai	-11.9846
trillion	-11.9847
limited	-11.9847
dilemma	-11.9848
offshore	-11.9848
physical	-11.9848
innovative	-11.9849
goals	-11.985
cleaning	-11.9851
trademark	-11.9852
▁1.3	-11.9853
guidelines	-11.9854
▁1.6	-11.9861
typing	-11.9862
woman	-11.9864
3/1	-11.9869
fitz	-11.9871
fpid	-11.9875
formation	-11.9891
virtualbox	-11.991
uci	-11.9926
ramen	-11.9926
pew	-11.9931
2008121	-11.9943
eecs	-11.9946
plur	-11.9952
checklist	-11.9954
accepting	-11.9959
harder	-11.9968
isps	-11.997
haml	-11.9972
aker	-11.9999
▁ruin	-12.0001
bright	-12.0011
ripping	-12.0015
mik	-12.0027
trending	-12.003
whiteboard	-12.0048
2009081	-12.0049
haz	-12.0054
jew	-12.0056
parc	-12.0069
locked	-12.0071
hog	-12.0093
lookup	-12.01
▁pit	-12.0104
pbc	-12.0104
bach	-12.0116
dhan	-12.0126
oldest	-12.0128
vator	-12.0132
▁officer	-12.0141
▁employ	-12.0158
7610	-12.0177
squared	-12.0177
▁1.2	-12.0184
archiv	-12.0198
asys	-12.02
/0906	-12.0215
changer	-12.0222
omar	-12.0229
male	-12.0231
dental	-12.0237
buffet	-12.0237
▁viewers	-12.0238
2009071	-12.0241
/2001	-12.0246
philosoph	-12.0253
mathematician	-12.0255
disrupt	-12.026
accelerating	-12.0262
categorized	-12.0262
qwerty	-12.0262
marlene	-12.0262
politician	-12.0262
psychological	-12.0262
souders	-12.0262
achilles	-12.0262
elliott	-12.0262
neighbor	-12.0262
oprah	-12.0262
pardonthe	-12.0262
kodak	-12.0262
litigation	-12.0262
serendipity	-12.0262
literature	-12.0262
obvious	-12.0262
sirius	-12.0262
symmetry	-12.0262
illustration	-12.0262
khosla	-12.0262
sacrifice	-12.0262
certified	-12.0263
illustrator	-12.0263
jakob	-12.0263
pittsburgh	-12.0263
replacing	-12.0263
unobtrusive	-12.0263
achieving	-12.0263
association	-12.0263
balsamiq	-12.0263
boulder	-12.0263
britney	-12.0263
equivalent	-12.0263
illinois	-12.0263
imagination	-12.0263
kennedy	-12.0263
lizard	-12.0263
sacramento	-12.0263
semiconductor	-12.0263
&#34;	-12.0263
commodore	-12.0263
embargo	-12.0263
facial	-12.0263
harnessing	-12.0263
inference	-12.0263
intensive	-12.0263
jython	-12.0263
shield	-12.0263
treasury	-12.0263
▁swartz	-12.0263
acrobat	-12.0263
debunked	-12.0263
literally	-12.0263
participate	-12.0263
retrospective	-12.0263
▁dentist	-12.0263
▁pursue	-12.0263
imminent	-12.0263
intervention	-12.0263
optimism	-12.0263
petabyte	-12.0263
ezinearticles	-12.0263
glory	-12.0263
demise	-12.0263
twingly	-12.0263
battelle	-12.0263
concert	-12.0263
nelson	-12.0263
gnolia	-12.0263
wreck	-12.0263
tomshardware	-12.0263
delusion	-12.0263
subtle	-12.0263
utilities	-12.0263
werner	-12.0263
dennis	-12.0263
unsecured	-12.0263
autistic	-12.0263
deciding	-12.0263
theoretic	-12.0263
▁benford	-12.0263
dragonball	-12.0263
migrate	-12.0263
width	-12.0263
interior	-12.0263
honeymoon	-12.0263
membership	-12.0264
▁photographs	-12.0264
/2006/02/	-12.0264
transmission	-12.0264
nukem	-12.0264
slightly	-12.0264
marvel	-12.0264
intuitive	-12.0264
visibility	-12.0264
expire	-12.0264
teddziuba	-12.0265
geography	-12.0265
ixwebhosting	-12.0265
bangalore	-12.0266
/09/06/	-12.0266
headache	-12.0266
razr	-12.0266
annotate	-12.0266
utah	-12.0266
buji	-12.0267
▁flame	-12.0267
seminar	-12.0268
circa	-12.0268
fermi	-12.0269
4800&	-12.0269
▁observations	-12.0269
▁expectations	-12.0269
/2007/04/16/	-12.0269
/2007/07/26/	-12.027
domino	-12.027
/2007/08/30/	-12.027
▁naan	-12.0271
/2007/10/16/	-12.0272
/2007/10/17/	-12.0272
/2008/01/16/	-12.0273
pharma	-12.0273
/2007/05/03/	-12.0274
resizing	-12.0274
stefan	-12.0274
/6307	-12.0274
/2008/02/15/	-12.0274
/2009-07-	-12.0275
misleading	-12.0275
denies	-12.0275
/2007/04/02/	-12.0275
/2008/06/25/	-12.0276
tweetdeck	-12.0277
▁stuck	-12.0278
redfin	-12.0278
/2008/04/18/	-12.0278
parameter	-12.028
/2008/11/27/	-12.0281
/2008/12/14/	-12.0281
/2009/06/13/	-12.0282
/2008/01/18/	-12.0282
/2009/06/27/	-12.0282
▁prolog	-12.0283
collector	-12.0283
eastern	-12.0283
modification	-12.0285
collegehumor	-12.0285
baseline	-12.0286
/2009/08/30/	-12.0286
/2009/03/29/	-12.0287
regexp	-12.0287
prior	-12.0287
▁agents	-12.0288
hotlist	-12.0289
disappearing	-12.029
maximize	-12.029
/2009/08/15/	-12.029
/2009/06/07/	-12.0291
incident	-12.0292
wallstreet	-12.0293
eleven	-12.0294
/2009/05/10/	-12.0295
nested	-12.0296
/2008-03	-12.03
imageshack	-12.0301
shaping	-12.0301
euler	-12.0302
▁textbooks	-12.0302
balancer	-12.0302
parenting	-12.0302
closet	-12.0302
copies	-12.0304
directories	-12.0306
pow	-12.0306
bleed	-12.0307
▁homeless	-12.0307
dataportability	-12.0308
launchpad	-12.0309
=5087&	-12.0316
▁commission	-12.0317
centre	-12.0318
reactor	-12.0318
toughest	-12.0318
optimized	-12.0319
boro	-12.032
▁bother	-12.032
europa	-12.0323
virtue	-12.033
/978	-12.0332
scitech	-12.0337
ifund	-12.0338
rafting	-12.0342
oci	-12.0343
chatting	-12.0345
miro	-12.0346
whatsnew	-12.0348
/09/04/	-12.035
terror	-12.0351
0409	-12.0351
hoping	-12.0353
contributions	-12.0353
tmp	-12.0356
▁markup	-12.0356
▁filesystem	-12.0357
somebody	-12.0358
thinkpad	-12.036
elle	-12.0369
▁offered	-12.037
nolan	-12.0371
weve	-12.0372
visualized	-12.0378
accident	-12.0386
nazi	-12.0388
▁steam	-12.039
asri	-12.0392
neuron	-12.0393
omgpo	-12.0395
lawn	-12.0398
secretary	-12.0404
buzzword	-12.0409
forcing	-12.041
▁shall	-12.0412
romance	-12.0417
coins	-12.0424
sharers	-12.0426
merid	-12.0434
gdp	-12.0437
wager	-12.044
neal	-12.045
javaworld	-12.0455
portability	-12.0469
cnd	-12.0474
opendns	-12.0479
lomb	-12.0483
alia	-12.0486
1245	-12.0488
evolutionary	-12.0494
technically	-12.0498
bespin	-12.0502
voicemail	-12.0506
dropbox	-12.0506
equipment	-12.0512
continuous	-12.0512
aggregator	-12.0513
censoring	-12.0513
simulation	-12.0513
attempt	-12.0514
meltdown	-12.0517
fundamental	-12.0517
=206	-12.0518
prosthetic	-12.0519
[	-12.052
distraction	-12.052
addresses	-12.0527
implementing	-12.053
robin	-12.0532
masses	-12.0532
fame	-12.0533
parser	-12.0538
parse	-12.0539
stealing	-12.055
completely	-12.055
winter	-12.0555
fixes	-12.0556
omg	-12.0568
▁tie	-12.0568
commute	-12.057
ycorp	-12.0571
▁restore	-12.0588
iceland	-12.0589
router	-12.0608
/0,9171,1	-12.0608
noob	-12.0614
1219	-12.0622
flyer	-12.0626
blend	-12.0644
wink	-12.0646
sift	-12.0647
rave	-12.0661
ouch	-12.067
hanging	-12.0688
searchyc	-12.0689
meur	-12.0697
anne	-12.0699
▁weak	-12.0702
hul	-12.0713
sticky	-12.0728
▁$40	-12.0732
▁sink	-12.0733
closure	-12.0733
speeding	-12.0736
awarded	-12.0737
pawn	-12.0741
masti	-12.0742
=125	-12.0797
ideo	-12.0798
tied	-12.0803
tivity	-12.0805
soma	-12.0826
disagree	-12.0832
dock	-12.0838
▁organ	-12.0844
stbox	-12.0846
1223	-12.085
6400&	-12.0864
lispy	-12.0871
▁advertise	-12.0874
rtm	-12.0897
eyeing	-12.0897
manga	-12.0903
attend	-12.0919
moonlight	-12.0923
abilities	-12.0925
livingston	-12.0925
▁jose	-12.0927
assembla	-12.0928
inject	-12.0928
squirrel	-12.0929
intuit	-12.0929
variation	-12.0929
contributed	-12.0929
christensen	-12.0929
voodoo	-12.0929
fragrance	-12.0929
retrieval	-12.0929
shanghai	-12.0929
enabling	-12.0929
jaguar	-12.0929
zeitgeist	-12.0929
[...]
